{
  "version": "1.0",
  "truncation": null,
  "padding": null,
  "added_tokens": [
    {
      "id": 0,
      "content": "[UNK]",
      "single_word": false,
      "lstrip": false,
      "rstrip": false,
      "normalized": false,
      "special": true
    },
    {
      "id": 1,
      "content": "[CLS]",
      "single_word": false,
      "lstrip": false,
      "rstrip": false,
      "normalized": false,
      "special": true
    },
    {
      "id": 2,
      "content": "[SEP]",
      "single_word": false,
      "lstrip": false,
      "rstrip": false,
      "normalized": false,
      "special": true
    },
    {
      "id": 3,
      "content": "[PAD]",
      "single_word": false,
      "lstrip": false,
      "rstrip": false,
      "normalized": false,
      "special": true
    },
    {
      "id": 4,
      "content": "[MASK]",
      "single_word": false,
      "lstrip": false,
      "rstrip": false,
      "normalized": false,
      "special": true
    }
  ],
  "normalizer": null,
  "pre_tokenizer": {
    "type": "Whitespace"
  },
  "post_processor": null,
  "decoder": null,
  "model": {
    "type": "BPE",
    "dropout": null,
    "unk_token": "[UNK]",
    "continuing_subword_prefix": null,
    "end_of_word_suffix": null,
    "fuse_unk": false,
    "byte_fallback": false,
    "ignore_merges": false,
    "vocab": {
      "[UNK]": 0,
      "[CLS]": 1,
      "[SEP]": 2,
      "[PAD]": 3,
      "[MASK]": 4,
      "!": 5,
      "\"": 6,
      "'": 7,
      "(": 8,
      ")": 9,
      "*": 10,
      ",": 11,
      "-": 12,
      ".": 13,
      "/": 14,
      "0": 15,
      "1": 16,
      "2": 17,
      "3": 18,
      "4": 19,
      "5": 20,
      "6": 21,
      "7": 22,
      "8": 23,
      "9": 24,
      ":": 25,
      ";": 26,
      "=": 27,
      "?": 28,
      "B": 29,
      "I": 30,
      "M": 31,
      "[": 32,
      "]": 33,
      "_": 34,
      "`": 35,
      "a": 36,
      "b": 37,
      "c": 38,
      "d": 39,
      "e": 40,
      "f": 41,
      "g": 42,
      "h": 43,
      "i": 44,
      "k": 45,
      "l": 46,
      "m": 47,
      "n": 48,
      "o": 49,
      "p": 50,
      "r": 51,
      "s": 52,
      "t": 53,
      "u": 54,
      "v": 55,
      "w": 56,
      "x": 57,
      "y": 58,
      "|": 59,
      "¡": 60,
      "¦": 61,
      "¨": 62,
      "·": 63,
      "ஃ": 64,
      "அ": 65,
      "ஆ": 66,
      "இ": 67,
      "ஈ": 68,
      "உ": 69,
      "ஊ": 70,
      "எ": 71,
      "ஏ": 72,
      "ஐ": 73,
      "ஒ": 74,
      "ஓ": 75,
      "ஔ": 76,
      "க": 77,
      "ங": 78,
      "ச": 79,
      "ஜ": 80,
      "ஞ": 81,
      "ட": 82,
      "஡": 83,
      "ண": 84,
      "த": 85,
      "஦": 86,
      "ந": 87,
      "ன": 88,
      "ப": 89,
      "ம": 90,
      "ய": 91,
      "ர": 92,
      "ற": 93,
      "ல": 94,
      "ள": 95,
      "ழ": 96,
      "வ": 97,
      "ஷ": 98,
      "ஸ": 99,
      "ஹ": 100,
      "ா": 101,
      "ி": 102,
      "ீ": 103,
      "ு": 104,
      "ூ": 105,
      "ெ": 106,
      "ே": 107,
      "ை": 108,
      "ொ": 109,
      "ோ": 110,
      "ௌ": 111,
      "்": 112,
      "‘": 113,
      "’": 114,
      "“": 115,
      "”": 116,
      "ன்": 117,
      "்த": 118,
      "்க": 119,
      "ம்": 120,
      "ல்": 121,
      "ர்": 122,
      "ும்": 123,
      "ந்த": 124,
      "ரு": 125,
      "ண்": 126,
      "ப்": 127,
      "ிய": 128,
      "த்த": 129,
      "டு": 130,
      "ங்க": 131,
      "க்க": 132,
      "ைய": 133,
      "ற்": 134,
      "று": 135,
      "ள்": 136,
      "வி": 137,
      "து": 138,
      "ின்": 139,
      "பு": 140,
      "வா": 141,
      "பா": 142,
      "தி": 143,
      "மா": 144,
      "ட்": 145,
      "ய்": 146,
      "மு": 147,
      "ன்ன": 148,
      "கு": 149,
      "சி": 150,
      "லை": 151,
      "க்": 152,
      "கா": 153,
      "ப்ப": 154,
      "டி": 155,
      "றி": 156,
      "செ": 157,
      "வே": 158,
      "ல்ல": 159,
      "ழி": 160,
      "ரி": 161,
      "ச்": 162,
      "ந்து": 163,
      "கொ": 164,
      "ஞ்": 165,
      "நா": 166,
      "த்": 167,
      "ர்க": 168,
      "போ": 169,
      "த்து": 170,
      "னை": 171,
      "பெ": 172,
      "ண்ட": 173,
      "ன்ற": 174,
      "பி": 175,
      "தா": 176,
      "பொ": 177,
      "ளி": 178,
      "ண்ண": 179,
      "கி": 180,
      "யா": 181,
      "டை": 182,
      "ற்ற": 183,
      "யி": 184,
      "ட்ட": 185,
      "வெ": 186,
      "ழு": 187,
      "னா": 188,
      "றை": 189,
      "நீ": 190,
      "ரை": 191,
      "நி": 192,
      "னே": 193,
      "ழ்": 194,
      "கூ": 195,
      "மே": 196,
      "ன்று": 197,
      "நெ": 198,
      "தோ": 199,
      "ங்கு": 200,
      "டிய": 201,
      "லி": 202,
      "மி": 203,
      "னி": 204,
      "க்கு": 205,
      "ந்": 206,
      "சு": 207,
      "தே": 208,
      "வர்": 209,
      "ள்ள": 210,
      "ரா": 211,
      "ரும்": 212,
      "நின்": 213,
      "கை": 214,
      "்கு": 215,
      "ண்டு": 216,
      "ற்று": 217,
      "வன்": 218,
      "கோ": 219,
      "வு": 220,
      "ணி": 221,
      "ர்த": 222,
      "மை": 223,
      "ையா": 224,
      "ய்த": 225,
      "ணை": 226,
      "வை": 227,
      "ளை": 228,
      "ங்": 229,
      "த்தி": 230,
      "லா": 231,
      "ட்டு": 232,
      "பெரு": 233,
      "சே": 234,
      "ியா": 235,
      "மெ": 236,
      "னும்": 237,
      "ற்றி": 238,
      "பூ": 239,
      "ையும்": 240,
      "சா": 241,
      "ல்லா": 242,
      "தெ": 243,
      "ந்தி": 244,
      "தொ": 245,
      "ம்ப": 246,
      "திரு": 247,
      "ரே": 248,
      "மல": 249,
      "என்": 250,
      "மொ": 251,
      "க்கும்": 252,
      "ோன்": 253,
      "ஞ்சி": 254,
      "ேன்": 255,
      "பாட": 256,
      "இரு": 257,
      "சை": 258,
      "ந்தா": 259,
      "ஞ்ச": 260,
      "பே": 261,
      "ரிய": 262,
      "ங்கி": 263,
      "க்கி": 264,
      "கட": 265,
      "துறை": 266,
      "ழை": 267,
      "ப்பு": 268,
      "லம்": 269,
      "ோர்": 270,
      "ன்னை": 271,
      "ர்த்த": 272,
      "றா": 273,
      "தீ": 274,
      "லும்": 275,
      "தலை": 276,
      "வர": 277,
      "பாடிய": 278,
      "வீ": 279,
      "மரு": 280,
      "அரு": 281,
      "--": 282,
      "கே": 283,
      "ொடு": 284,
      "மக": 285,
      "வள": 286,
      "னார்": 287,
      "சொ": 288,
      "னு": 289,
      "தன்": 290,
      "சோ": 291,
      "டைய": 292,
      "ல்க": 293,
      "வாய்": 294,
      "வ்": 295,
      "ல்லை": 296,
      "கூற்று": 297,
      "விய": 298,
      "த்தா": 299,
      "தை": 300,
      "திணை": 301,
      "ட்டி": 302,
      "நெடு": 303,
      "தல்": 304,
      "பாடியவர்": 305,
      "கண்ண": 306,
      "வும்": 307,
      "ையி": 308,
      "வரு": 309,
      "ஒரு": 310,
      "நோ": 311,
      "ண்டா": 312,
      "பின்": 313,
      "மூ": 314,
      "ப்பா": 315,
      "ர்க்க": 316,
      "செய்": 317,
      "ற்க": 318,
      "என": 319,
      "இய": 320,
      "ழிய": 321,
      "ண்க": 322,
      "சூ": 323,
      "புல": 324,
      "தும்": 325,
      "லே": 326,
      "ண்டி": 327,
      "ன்னா": 328,
      "ணர்": 329,
      "ய்க": 330,
      "ென": 331,
      "கரு": 332,
      "லு": 333,
      "திய": 334,
      "பிற": 335,
      "ையே": 336,
      "தோழி": 337,
      "பொரு": 338,
      "மும்": 339,
      "யர்": 340,
      "ர்க்கு": 341,
      "ள்ளி": 342,
      "ப்பி": 343,
      "அர": 344,
      "மான்": 345,
      "எம்": 346,
      "வல": 347,
      "ூர்": 348,
      "கின்": 349,
      "தம்": 350,
      "றிய": 351,
      "மொழி": 352,
      "ன்றி": 353,
      "ங்கா": 354,
      "நு": 355,
      "டும்": 356,
      "சிறு": 357,
      "டன்": 358,
      "ப்பட்ட": 359,
      "மர": 360,
      "யே": 361,
      "செய்த": 362,
      "ல்வ": 363,
      "க்கா": 364,
      "சீ": 365,
      "பர": 366,
      "பல": 367,
      "ற்கு": 368,
      "யு": 369,
      "நீர்": 370,
      "கல": 371,
      "ளா": 372,
      "றும்": 373,
      "ளே": 374,
      "கம்": 375,
      "ென்": 376,
      "என்று": 377,
      "ச்சி": 378,
      "வந்த": 379,
      "போற்றி": 380,
      "தூ": 381,
      "வாழ": 382,
      "மற": 383,
      "ையு": 384,
      "ர்கள்": 385,
      "மன்ன": 386,
      "ங்கை": 387,
      "தல": 388,
      "மலை": 389,
      "டா": 390,
      "குறி": 391,
      "அம்": 392,
      "காண": 393,
      "இர": 394,
      "மட": 395,
      "மோ": 396,
      "மண": 397,
      "ழா": 398,
      "பாடப்பட்ட": 399,
      "யின்": 400,
      "வந்து": 401,
      "10": 402,
      "தமி": 403,
      "வின்": 404,
      "புக": 405,
      "விள": 406,
      "பாடப்பட்டோன்": 407,
      "உள்ள": 408,
      "ம்க": 409,
      "நம்": 410,
      "மைய": 411,
      "னம்": 412,
      "ல்லி": 413,
      "கெ": 414,
      "நிலை": 415,
      "வல்": 416,
      "போல": 417,
      "ர்க்": 418,
      "ந்தை": 419,
      "..": 420,
      "கள": 421,
      "படு": 422,
      "மீ": 423,
      "ன்றா": 424,
      "தன்ன": 425,
      "ியும்": 426,
      "திர்": 427,
      "ழல்": 428,
      "மின்": 429,
      "னால்": 430,
      "கள்": 431,
      "மய": 432,
      "சிற": 433,
      "அற": 434,
      "ரம்": 435,
      "அன்ன": 436,
      "கொண்ட": 437,
      "அல்ல": 438,
      "லோ": 439,
      "புற": 440,
      "மணி": 441,
      "என்ன": 442,
      "னோ": 443,
      "பட": 444,
      "ங்கள்": 445,
      "மாலை": 446,
      "ன்றும்": 447,
      "க்கொ": 448,
      "மலர்": 449,
      "அவ": 450,
      "ன்றே": 451,
      "நன்": 452,
      "பம்": 453,
      "ச்ச": 454,
      "தன": 455,
      "----": 456,
      "முக": 457,
      "பரி": 458,
      "அறி": 459,
      "வான்": 460,
      "போல்": 461,
      "வரை": 462,
      "கண்": 463,
      "பை": 464,
      "னெ": 465,
      "கண்ட": 466,
      "ளு": 467,
      "ஞ்சு": 468,
      "க்கை": 469,
      "மதி": 470,
      "ளும்": 471,
      "யில்": 472,
      "தலைவி": 473,
      "னைய": 474,
      "த்தை": 475,
      "ங்கும்": 476,
      "மேல்": 477,
      "ஞா": 478,
      "நின்ற": 479,
      "எழு": 480,
      "ப்பின்": 481,
      "வேந்த": 482,
      "தான்": 483,
      "தரு": 484,
      "யோ": 485,
      "உல": 486,
      "னன்": 487,
      "த்தே": 488,
      "கிய": 489,
      "ம்த": 490,
      "களி": 491,
      "மார்": 492,
      "நில": 493,
      "வார்": 494,
      "கைய": 495,
      "வளை": 496,
      "ம்பு": 497,
      "கொண்டு": 498,
      "ளிர்": 499,
      "மென்": 500,
      "யும்": 501,
      "குறு": 502,
      "அல": 503,
      "ள்க": 504,
      "ையார்": 505,
      "னர்": 506,
      "வேண்ட": 507,
      "ற்றா": 508,
      "வோ": 509,
      "ீர்": 510,
      "த்தும்": 511,
      "வாழி": 512,
      "ளிய": 513,
      "வம்": 514,
      "நான்": 515,
      "கல்": 516,
      "னிய": 517,
      "ரன்": 518,
      "ட்க": 519,
      "வரி": 520,
      "அது": 521,
      "றே": 522,
      "கான": 523,
      "சென்ற": 524,
      "இள": 525,
      "ரல்": 526,
      "ையில்": 527,
      "ஆயி": 528,
      "கடு": 529,
      "மன்": 530,
      "ல்த": 531,
      "விரு": 532,
      "கொடு": 533,
      "டியா": 534,
      "உரு": 535,
      "வண்ண": 536,
      "ரோ": 537,
      "ங்கண்": 538,
      "முன்": 539,
      "ல்லாம்": 540,
      "யெ": 541,
      "வழி": 542,
      "ர்த்தி": 543,
      "வது": 544,
      "கலி": 545,
      "ங்கிய": 546,
      "பாடி": 547,
      "சேர்": 548,
      "கழ": 549,
      "ாண்": 550,
      "விடு": 551,
      "குறிஞ்சி": 552,
      "ன்னி": 553,
      "கிழ": 554,
      "அத": 555,
      "நல்ல": 556,
      "பழ": 557,
      "ப்பெ": 558,
      "இல": 559,
      "டர்": 560,
      "புர": 561,
      "கர": 562,
      "ந்தே": 563,
      "அரி": 564,
      "டம்": 565,
      "வில்": 566,
      "ண்ணி": 567,
      "11": 568,
      "உற": 569,
      "ய்த்த": 570,
      "பாடாண்": 571,
      "தமிழ": 572,
      "னைக்": 573,
      "பொது": 574,
      "கிழ்": 575,
      "நின்று": 576,
      "பாடு": 577,
      "வல்ல": 578,
      "திர": 579,
      "ப்போ": 580,
      "டையா": 581,
      "ணா": 582,
      "நள": 583,
      "ழில்": 584,
      "ஆக": 585,
      "இவ": 586,
      "ட்டா": 587,
      "மெய்": 588,
      "இன்": 589,
      "ந்தோ": 590,
      "சில்": 591,
      "20": 592,
      "நே": 593,
      "அன்": 594,
      "விரி": 595,
      "முன்ன": 596,
      "த்துக்": 597,
      "மது": 598,
      "லர்": 599,
      "ங்கொ": 600,
      "நாள்": 601,
      "குரு": 602,
      "னைப்": 603,
      "பெய": 604,
      "வெண்": 605,
      "ழும்": 606,
      "பாலை": 607,
      "பொன்": 608,
      "அணி": 609,
      "ூஉ": 610,
      "மாய": 611,
      "முல்லை": 612,
      "பிரா": 613,
      "கன்": 614,
      "பல்": 615,
      "மறு": 616,
      "வாகை": 617,
      "கின்ற": 618,
      "மர்": 619,
      "ொரு": 620,
      "த்தம்": 621,
      "வான": 622,
      "15": 623,
      "மன்ற": 624,
      "றல்": 625,
      "நெய்த": 626,
      "ெழு": 627,
      "வாள்": 628,
      "வாழ்": 629,
      "வாரா": 630,
      "உன்": 631,
      "பய": 632,
      "ரண": 633,
      "வேறு": 634,
      "ஆர்": 635,
      "மக்க": 636,
      "த்துப்": 637,
      "ண்த": 638,
      "னில்": 639,
      "இனி": 640,
      "சும்": 641,
      "மன": 642,
      "வன": 643,
      "ங்கோ": 644,
      "ன்னு": 645,
      "ியார்": 646,
      "வேல்": 647,
      "பிரி": 648,
      "யிர்": 649,
      "கைத்த": 650,
      "கீ": 651,
      "கடை": 652,
      "நக": 653,
      "ள்ளை": 654,
      "அம்ம": 655,
      "என்னை": 656,
      "தர": 657,
      "ில்": 658,
      "விட": 659,
      "நாடு": 660,
      "யானை": 661,
      "30": 662,
      "நோக்கி": 663,
      "கும்": 664,
      "படை": 665,
      "ந்திய": 666,
      "வினை": 667,
      "குழ": 668,
      "சென்று": 669,
      "ண்ணு": 670,
      "னாய்": 671,
      "ர்த்": 672,
      "கண்டா": 673,
      "கண": 674,
      "கழி": 675,
      "நல": 676,
      "லைய": 677,
      "ளர்": 678,
      "பொய்": 679,
      "25": 680,
      "யல்": 681,
      "லின்": 682,
      "ீஇ": 683,
      "க்கோ": 684,
      "கொள்ள": 685,
      "நாடன்": 686,
      "ண்ணா": 687,
      "ின்ற": 688,
      "நாட": 689,
      "மகிழ்": 690,
      "வனே": 691,
      "ர்த்து": 692,
      "14": 693,
      "35": 694,
      "அந்த": 695,
      "செல்வ": 696,
      "ட்டிய": 697,
      "17": 698,
      "தட": 699,
      "புன": 700,
      "முர": 701,
      "பெரும்": 702,
      "ற்றிய": 703,
      "சோழ": 704,
      "வேண்டும்": 705,
      "16": 706,
      "சில": 707,
      "என்ப": 708,
      "டல்": 709,
      "கார்த்தி": 710,
      "கூந்த": 711,
      "அக": 712,
      "மற்ற": 713,
      "வர்க": 714,
      "விழு": 715,
      "மாத": 716,
      "ர்க்கும்": 717,
      "நெய்தல்": 718,
      "இன்று": 719,
      "ரங்க": 720,
      "ைக்": 721,
      "மொடு": 722,
      "நல்": 723,
      "மழை": 724,
      "வைய": 725,
      "செம்": 726,
      "19": 727,
      "கண்டு": 728,
      "18": 729,
      "இன்ன": 730,
      "பரு": 731,
      "முது": 732,
      "கிட": 733,
      "நெஞ்ச": 734,
      "வாழ்க": 735,
      "நர்": 736,
      "பட்ட": 737,
      "ந்தும்": 738,
      "ச்சு": 739,
      "ட்டும்": 740,
      "நிற": 741,
      "நினை": 742,
      "வடி": 743,
      "ோடு": 744,
      "த்தன்": 745,
      "த்தல்": 746,
      "புது": 747,
      "சொல்ல": 748,
      "என்ற": 749,
      "நடு": 750,
      "்த்த": 751,
      "விட்டு": 752,
      "தமய": 753,
      "ையின்": 754,
      "ற்ப": 755,
      "காதல": 756,
      "தண்": 757,
      "அவன்": 758,
      "இரும்": 759,
      "லிய": 760,
      "டுத்த": 761,
      "க்கே": 762,
      "விளை": 763,
      "முலை": 764,
      "கொல்": 765,
      "கொள்": 766,
      "கொல்ல": 767,
      "புகழ்": 768,
      "கெழு": 769,
      "24": 770,
      "அறு": 771,
      "அடி": 772,
      "களை": 773,
      "நட": 774,
      "பீ": 775,
      "பனி": 776,
      "காண்": 777,
      "காஞ்சி": 778,
      "மகளிர்": 779,
      "26": 780,
      "நறு": 781,
      "ப்பூ": 782,
      "கைத்தீ": 783,
      "உயர்": 784,
      "லன்": 785,
      "ள்த": 786,
      "ழ்க": 787,
      "டுத்து": 788,
      "குன்ற": 789,
      "அண": 790,
      "ஆய": 791,
      "மையா": 792,
      "ந்தன": 793,
      "பால்": 794,
      "சூழ்": 795,
      "சோழன்": 796,
      "கார்த்திகைத்தீ": 797,
      "27": 798,
      "34": 799,
      "ிரு": 800,
      "ொடி": 801,
      "திற": 802,
      "யான்": 803,
      "ற்றம்": 804,
      "28": 805,
      "29": 806,
      "36": 807,
      "37": 808,
      "நூ": 809,
      "ரெ": 810,
      "வரும்": 811,
      "ோள்": 812,
      "புகு": 813,
      "மாய்": 814,
      "ழுது": 815,
      "வைத்த": 816,
      "38": 817,
      "39": 818,
      "இது": 819,
      "இல்லை": 820,
      "உண்": 821,
      "ீஇய": 822,
      "ர்ந்த": 823,
      "காத": 824,
      "காலை": 825,
      "போது": 826,
      "த்தில்": 827,
      "கண்ணி": 828,
      "தவ": 829,
      "ங்கே": 830,
      "முடி": 831,
      "கொழு": 832,
      "ழார்": 833,
      "ஆடு": 834,
      "இற": 835,
      "உட": 836,
      "முத": 837,
      "குர": 838,
      "மகள்": 839,
      "உன்னை": 840,
      "எறி": 841,
      "பக": 842,
      "மறை": 843,
      "டைப்": 844,
      "தேர்": 845,
      "தென்": 846,
      "வியல்": 847,
      "ஆயினும்": 848,
      "ஆட": 849,
      "ஓர்": 850,
      "விரை": 851,
      "ய்ய": 852,
      "கால": 853,
      "செவ்": 854,
      "ந்தாய்": 855,
      "செய்து": 856,
      "எய்த": 857,
      "தன்னை": 858,
      "வல்லா": 859,
      "த்தின்": 860,
      "செல்": 861,
      "செரு": 862,
      "ற்றும்": 863,
      "பெருங்க": 864,
      "அறியா": 865,
      "அவர்": 866,
      "உண": 867,
      "ஒளி": 868,
      "மல்": 869,
      "உரை": 870,
      "பண்": 871,
      "மம்": 872,
      "ரின்": 873,
      "வண்": 874,
      "முய": 875,
      "வெள்ள": 876,
      "கண்டாய்": 877,
      "உடைய": 878,
      "வய": 879,
      "புன்": 880,
      "ட்சி": 881,
      "போர்": 882,
      "பெயர்": 883,
      "ம்பின்": 884,
      "அவி": 885,
      "இவ்": 886,
      "நய": 887,
      "பணி": 888,
      "மரை": 889,
      "வந்": 890,
      "ீரே": 891,
      "துற": 892,
      "பார்": 893,
      "குல": 894,
      "நாட்டு": 895,
      "த்துத்": 896,
      "கடல்": 897,
      "--------": 898,
      "பொதுவியல்": 899,
      "கூந்தல்": 900,
      "இடை": 901,
      "கடி": 902,
      "தைய": 903,
      "தனி": 904,
      "வண": 905,
      "ைப்": 906,
      "குற": 907,
      "கொடி": 908,
      "ஞ்சா": 909,
      "கில்": 910,
      "யானே": 911,
      "பரிசில்": 912,
      "அழி": 913,
      "இசை": 914,
      "பகை": 915,
      "ான்": 916,
      "பாண": 917,
      "மாக": 918,
      "முறை": 919,
      "குட": 920,
      "லிரு": 921,
      "ல்கி": 922,
      "த்தான்": 923,
      "பிரான்": 924,
      "அவ்": 925,
      "ஆய்": 926,
      "உணர்": 927,
      "வழ": 928,
      "திரி": 929,
      "தானே": 930,
      "மிசை": 931,
      "லாம்": 932,
      "நளன்": 933,
      "உடை": 934,
      "சின்": 935,
      "ங்கின்": 936,
      "விர": 937,
      "செல": 938,
      "தேவ": 939,
      "செய்ய": 940,
      "ய்க்க": 941,
      "மதுரை": 942,
      "அடு": 943,
      "அரும்": 944,
      "என்றும்": 945,
      "மனை": 946,
      "யம்": 947,
      "கால்": 948,
      "பெரி": 949,
      "தாய்": 950,
      "இருந்த": 951,
      "வீழ்": 952,
      "அழ": 953,
      "அமை": 954,
      "பற": 955,
      "ொண்டு": 956,
      "ியன்": 957,
      "ப்பொ": 958,
      "பெற்ற": 959,
      "ரியும்": 960,
      "அள": 961,
      "இனிய": 962,
      "கழ்": 963,
      "பற்றி": 964,
      "மையும்": 965,
      "வயி": 966,
      "க்கம்": 967,
      "கொல்லோ": 968,
      "உர": 969,
      "உள": 970,
      "தின்": 971,
      "பத்து": 972,
      "வலை": 973,
      "வில": 974,
      "புரி": 975,
      "வாயி": 976,
      "பாய்": 977,
      "முழ": 978,
      "முதல்": 979,
      "வென்": 980,
      "த்திர": 981,
      "தலைவன்": 982,
      "கன": 983,
      "வட": 984,
      "வண்டு": 985,
      "ீப": 986,
      "ொல்": 987,
      "திரை": 988,
      "ப்பே": 989,
      "போய்": 990,
      "பெறு": 991,
      "மிகு": 992,
      "மையின்": 993,
      "ஆயின்": 994,
      "உழ": 995,
      "கபி": 996,
      "தழ": 997,
      "பணை": 998,
      "ருந்த": 999,
      "த்திய": 1000,
      "விற": 1001,
      "புலம்": 1002,
      "ஞ்சே": 1003,
      "சுர": 1004,
      "தமிழ்": 1005,
      "அஞ்சி": 1006,
      "இந்த": 1007,
      "இறை": 1008,
      "கவி": 1009,
      "றியா": 1010,
      "ந்தலை": 1011,
      "தில்": 1012,
      "னான்": 1013,
      "மெல்ல": 1014,
      "ந்திர": 1015,
      "ந்தான்": 1016,
      "றான்": 1017,
      "தீப": 1018,
      "அரச": 1019,
      "40": 1020,
      "எல்லாம்": 1021,
      "கத்து": 1022,
      "னென்": 1023,
      "க்கிய": 1024,
      "கொள்க": 1025,
      "மேனி": 1026,
      "அழு": 1027,
      "ஆகி": 1028,
      "இட": 1029,
      "பள்ளி": 1030,
      "வின": 1031,
      "புணர்": 1032,
      "காட்டி": 1033,
      "செங்க": 1034,
      "பொலி": 1035,
      "நிறை": 1036,
      "ையால்": 1037,
      "ஞ்சோ": 1038,
      "ூஉம்": 1039,
      "அடிய": 1040,
      "ஆங்கு": 1041,
      "ஒன்று": 1042,
      "கம": 1043,
      "கத்": 1044,
      "தந்த": 1045,
      "தியா": 1046,
      "படி": 1047,
      "ரியா": 1048,
      "றோ": 1049,
      "துஞ்ச": 1050,
      "ண்ணும்": 1051,
      "யார்": 1052,
      "தோன்ற": 1053,
      "பெரும": 1054,
      "சொல்லி": 1055,
      "ய்க்": 1056,
      "மலி": 1057,
      "பிடி": 1058,
      "பொன்ன": 1059,
      "வெள்": 1060,
      "வைத்து": 1061,
      "மீன்": 1062,
      "உறு": 1063,
      "லெ": 1064,
      "த்தொ": 1065,
      "ங்கல்": 1066,
      "முடிய": 1067,
      "காண்க": 1068,
      "யாம்": 1069,
      "டைக்": 1070,
      "னேன்": 1071,
      "கபிலர்": 1072,
      "அட": 1073,
      "பச": 1074,
      "யன்ன": 1075,
      "லோர்": 1076,
      "ந்தோர்": 1077,
      "த்தனார்": 1078,
      "மான": 1079,
      "முனி": 1080,
      "சிலை": 1081,
      "னைத்": 1082,
      "சிறப்பு": 1083,
      "உற்ற": 1084,
      "ஐய": 1085,
      "கக்": 1086,
      "புள்ள": 1087,
      "குடி": 1088,
      "தாள்": 1089,
      "தாமரை": 1090,
      "பொய்க": 1091,
      "நெறி": 1092,
      "சேர": 1093,
      "ந்தார்": 1094,
      "சொல்": 1095,
      "ெனக்": 1096,
      "இவள்": 1097,
      "கரும்": 1098,
      "மண்": 1099,
      "யர": 1100,
      "ழியா": 1101,
      "வள்": 1102,
      "ார்": 1103,
      "க்கின்": 1104,
      "மால்": 1105,
      "முழு": 1106,
      "சிரிய": 1107,
      "கோதை": 1108,
      "சால்": 1109,
      "தெரி": 1110,
      "மகன்": 1111,
      "வியன்": 1112,
      "இயன்": 1113,
      "பிறர்": 1114,
      "நம்பி": 1115,
      "விருத்தம்": 1116,
      "ப்பெரு": 1117,
      "அடை": 1118,
      "அன்று": 1119,
      "இல்ல": 1120,
      "என்னா": 1121,
      "எதிர்": 1122,
      "ணு": 1123,
      "பன்": 1124,
      "வலி": 1125,
      "வள்ள": 1126,
      "விசும்": 1127,
      "வாழிய": 1128,
      "செல்ல": 1129,
      "வேண்டி": 1130,
      "கொற்ற": 1131,
      "மருதம்": 1132,
      "சீர்": 1133,
      "அல்லது": 1134,
      "அறிய": 1135,
      "உண்டு": 1136,
      "கள்ள": 1137,
      "நர": 1138,
      "ந்தொ": 1139,
      "க்கண்": 1140,
      "பாத": 1141,
      "வேள்": 1142,
      "நாட்ட": 1143,
      "பிணி": 1144,
      "பிள்ளை": 1145,
      "கிழார்": 1146,
      "ராய்": 1147,
      "பேர்": 1148,
      "என்னும்": 1149,
      "22": 1150,
      "உறை": 1151,
      "னது": 1152,
      "பசு": 1153,
      "ம்மை": 1154,
      "புடை": 1155,
      "மாக்க": 1156,
      "மாறு": 1157,
      "செறி": 1158,
      "வேலை": 1159,
      "கூட": 1160,
      "திருமொழி": 1161,
      "மொழிய": 1162,
      "வாழ்த்த": 1163,
      "காணா": 1164,
      "கையறு": 1165,
      "45": 1166,
      "ஆனால்": 1167,
      "எரு": 1168,
      "ஒழி": 1169,
      "தண்ண": 1170,
      "தற்கு": 1171,
      "மயி": 1172,
      "ம்பி": 1173,
      "ங்கல": 1174,
      "விழ": 1175,
      "பாண்ட": 1176,
      "பாவாய்": 1177,
      "மாட": 1178,
      "சின": 1179,
      "வேன்": 1180,
      "பெற": 1181,
      "லில்": 1182,
      "கோல": 1183,
      "ய்த்": 1184,
      "வலர்": 1185,
      "ன்றான்": 1186,
      "க்கொண்டு": 1187,
      "அதனால்": 1188,
      "வாராய்": 1189,
      "இல்": 1190,
      "எண்ண": 1191,
      "கப்": 1192,
      "கரை": 1193,
      "நடை": 1194,
      "நனி": 1195,
      "மங்கை": 1196,
      "ரொடு": 1197,
      "ந்தன்": 1198,
      "த்தன": 1199,
      "முல": 1200,
      "பொழு": 1201,
      "ற்றை": 1202,
      "றார்கள்": 1203,
      "அரங்க": 1204,
      "மடந்தை": 1205,
      "13": 1206,
      "அங்கு": 1207,
      "இழ": 1208,
      "இல்லா": 1209,
      "நன்னா": 1210,
      "பசி": 1211,
      "வோர்": 1212,
      "திசை": 1213,
      "வேங்க": 1214,
      "பெய்த": 1215,
      "தோர்": 1216,
      "தோள்": 1217,
      "தோன்றி": 1218,
      "கடவு": 1219,
      "சொன்ன": 1220,
      "சோலை": 1221,
      "னோடு": 1222,
      "அரிய": 1223,
      "ஆர": 1224,
      "சன்": 1225,
      "தவி": 1226,
      "ியு": 1227,
      "புனை": 1228,
      "பாச": 1229,
      "ன்னும்": 1230,
      "நாக": 1231,
      "த்துச்": 1232,
      "பெரிய": 1233,
      "பிண": 1234,
      "தார்": 1235,
      "நீயே": 1236,
      "சுடர்": 1237,
      "அருளி": 1238,
      "ண்கண்": 1239,
      "வேந்தன்": 1240,
      "காதலர்": 1241,
      "ஆற்ற": 1242,
      "கர்": 1243,
      "நலம்": 1244,
      "மிய": 1245,
      "ளன்": 1246,
      "ழ்த": 1247,
      "வனை": 1248,
      "ோம்": 1249,
      "ையை": 1250,
      "துவே": 1251,
      "புண": 1252,
      "மாரி": 1253,
      "கார்": 1254,
      "செந்": 1255,
      "வேண்டு": 1256,
      "ச்சை": 1257,
      "நாம்": 1258,
      "பொழி": 1259,
      "நிரை": 1260,
      "கூறு": 1261,
      "நின்றா": 1262,
      "ம்பல்": 1263,
      "கேள்": 1264,
      "23": 1265,
      "ஆண்டு": 1266,
      "உவ": 1267,
      "உயி": 1268,
      "ஔவ": 1269,
      "கத": 1270,
      "கல்ல": 1271,
      "னள்": 1272,
      "பண்ட": 1273,
      "ரக்": 1274,
      "ளின்": 1275,
      "வழு": 1276,
      "வர்க்கு": 1277,
      "ென்று": 1278,
      "த்தலை": 1279,
      "காரி": 1280,
      "செவி": 1281,
      "ரில்": 1282,
      "தானை": 1283,
      "பொறி": 1284,
      "பொழில்": 1285,
      "நீள்": 1286,
      "தெய்": 1287,
      "ந்திரு": 1288,
      "கேட்ட": 1289,
      "மகளி": 1290,
      "எம்பாவாய்": 1291,
      "விளங்கு": 1292,
      "வாழ்க்க": 1293,
      "தமயந்தி": 1294,
      "ஔவையார்": 1295,
      "அண்ண": 1296,
      "அன்னை": 1297,
      "இன": 1298,
      "தலும்": 1299,
      "பதி": 1300,
      "வஞ்சி": 1301,
      "ொண்ட": 1302,
      "விரும்": 1303,
      "மாண்": 1304,
      "வேத": 1305,
      "ர்கு": 1306,
      "பிழை": 1307,
      "ற்றே": 1308,
      "வென்ற": 1309,
      "நிற்க": 1310,
      "மிழ்": 1311,
      "நின்ன": 1312,
      "ையிற்": 1313,
      "தியும்": 1314,
      "கலின்": 1315,
      "அளி": 1316,
      "ஆனா": 1317,
      "இறு": 1318,
      "ஊர்": 1319,
      "எவ்": 1320,
      "கய": 1321,
      "நொ": 1322,
      "புலி": 1323,
      "ப்பப்": 1324,
      "தாம்": 1325,
      "ளில்": 1326,
      "யினும்": 1327,
      "வெண்ண": 1328,
      "நெடி": 1329,
      "ையான்": 1330,
      "டையே": 1331,
      "த்தால்": 1332,
      "நோய்": 1333,
      "சிறப்பின்": 1334,
      "நகர்": 1335,
      "தமயந்திய": 1336,
      "உன": 1337,
      "உய": 1338,
      "உண்ட": 1339,
      "சங்க": 1340,
      "ணம்": 1341,
      "நும்": 1342,
      "றம்": 1343,
      "வஞ்ச": 1344,
      "ாள்": 1345,
      "ருங்": 1346,
      "த்தர": 1347,
      "ையர்": 1348,
      "மால": 1349,
      "முற்ற": 1350,
      "குறை": 1351,
      "ப்பை": 1352,
      "வேந்து": 1353,
      "வேண்டா": 1354,
      "ச்சோ": 1355,
      "கொடிய": 1356,
      "ரைப்": 1357,
      "==": 1358,
      "அய": 1359,
      "அஞ்ச": 1360,
      "உயிர்": 1361,
      "டந்த": 1362,
      "ண்கு": 1363,
      "னின்": 1364,
      "வண்ட": 1365,
      "ந்தது": 1366,
      "புல்ல": 1367,
      "புக்கு": 1368,
      "மாலிரு": 1369,
      "குள": 1370,
      "பிற்": 1371,
      "கிள": 1372,
      "ட்டம்": 1373,
      "கூற": 1374,
      "தோன்றும்": 1375,
      "லால்": 1376,
      "பெருமான்": 1377,
      "தென்ன": 1378,
      "அருவி": 1379,
      "வளர்": 1380,
      "வளவன்": 1381,
      "னுக்கு": 1382,
      "ெனப்": 1383,
      "நுண்": 1384,
      "அய்": 1385,
      "எண்ணி": 1386,
      "சல": 1387,
      "சிய": 1388,
      "டோ": 1389,
      "படா": 1390,
      "மல்ல": 1391,
      "யூ": 1392,
      "ரீ": 1393,
      "ரொ": 1394,
      "வயின்": 1395,
      "விண்ண": 1396,
      "விட்ட": 1397,
      "பாரி": 1398,
      "பாவை": 1399,
      "காட்டு": 1400,
      "ளைப்": 1401,
      "ியாய்": 1402,
      "நுதல்": 1403,
      "ச்சிய": 1404,
      "களிறு": 1405,
      "உறைய": 1406,
      "47": 1407,
      "அன்னா": 1408,
      "கற": 1409,
      "கழு": 1410,
      "பழி": 1411,
      "பல்லா": 1412,
      "மக்கு": 1413,
      "றெ": 1414,
      "லேன்": 1415,
      "வூர்": 1416,
      "ாய்": 1417,
      "ையோ": 1418,
      "புதல்": 1419,
      "செய்க": 1420,
      "கொள": 1421,
      "மிக": 1422,
      "தேன்": 1423,
      "ட்டுப்": 1424,
      "பூண்": 1425,
      "தொட": 1426,
      "மருங்கின்": 1427,
      "த்தாய்": 1428,
      "ப்பார்": 1429,
      "பொருள்": 1430,
      "குறிப்பு": 1431,
      "மணல்": 1432,
      "தன்னு": 1433,
      "வேந்தர்": 1434,
      "விடுதி": 1435,
      "துஞ்சிய": 1436,
      "கையறுநிலை": 1437,
      "அர்": 1438,
      "அளிய": 1439,
      "இன்னா": 1440,
      "எழி": 1441,
      "ஒண்": 1442,
      "கதிர்": 1443,
      "ருள்": 1444,
      "க்கூ": 1445,
      "வித்த": 1446,
      "விற்": 1447,
      "காம": 1448,
      "கிற": 1449,
      "பெருந்து": 1450,
      "கடும்": 1451,
      "செய்யும்": 1452,
      "காணீரே": 1453,
      "படர்": 1454,
      "தமிழர்": 1455,
      "12": 1456,
      "50": 1457,
      "60": 1458,
      "கடிய": 1459,
      "கல்லா": 1460,
      "தன்றே": 1461,
      "நம்ப": 1462,
      "மத": 1463,
      "மழ": 1464,
      "மதிய": 1465,
      "வொ": 1466,
      "ியே": 1467,
      "வில்ல": 1468,
      "துண": 1469,
      "துய": 1470,
      "வாறு": 1471,
      "தில்லை": 1472,
      "ட்டை": 1473,
      "முகை": 1474,
      "முகம்": 1475,
      "குழல்": 1476,
      "ப்படி": 1477,
      "வேலி": 1478,
      "கொன்ற": 1479,
      "ன்றன்": 1480,
      "யிறு": 1481,
      "யிற்று": 1482,
      "வெம்": 1483,
      "நின": 1484,
      "நிலம்": 1485,
      "நெரு": 1486,
      "தோரே": 1487,
      "ந்தால்": 1488,
      "அருள்": 1489,
      "புலம்ப": 1490,
      "ையுள்": 1491,
      "இலங்கு": 1492,
      "ந்தேர்": 1493,
      "பாண்டியன்": 1494,
      "33": 1495,
      "அங்க": 1496,
      "அமர்": 1497,
      "தற்": 1498,
      "நல்க": 1499,
      "மற்று": 1500,
      "லூ": 1501,
      "ளோ": 1502,
      "ந்தேன்": 1503,
      "ருந்": 1504,
      "த்தெ": 1505,
      "த்தோ": 1506,
      "க்கல்": 1507,
      "வில்லை": 1508,
      "துணை": 1509,
      "ய்ந்த": 1510,
      "செழு": 1511,
      "கொண்": 1512,
      "நாண": 1513,
      "கூடி": 1514,
      "கைக்": 1515,
      "ளைக்": 1516,
      "இருக்க": 1517,
      "ந்தாள்": 1518,
      "ட்டில்": 1519,
      "கண்ணே": 1520,
      "தும்பை": 1521,
      "மன்னன்": 1522,
      "உள்ளம்": 1523,
      "அல்கு": 1524,
      "70": 1525,
      "ஆன": 1526,
      "உடன்": 1527,
      "ஒலி": 1528,
      "ஓங்கு": 1529,
      "தந்தை": 1530,
      "பர்": 1531,
      "பந்த": 1532,
      "ளெ": 1533,
      "ளம்": 1534,
      "வூ": 1535,
      "வாய": 1536,
      "வார": 1537,
      "முரு": 1538,
      "முதல": 1539,
      "குவளை": 1540,
      "றிது": 1541,
      "வேங்கை": 1542,
      "ன்றியும்": 1543,
      "தாழ்": 1544,
      "ண்ணிய": 1545,
      "கிள்ளி": 1546,
      "வென்று": 1547,
      "ர்க்கே": 1548,
      "செய்யு": 1549,
      "ற்கே": 1550,
      "ன்றில்": 1551,
      "ளால்": 1552,
      "ன்றால்": 1553,
      "ய்த்து": 1554,
      "ரணம்": 1555,
      "இயன்மொழி": 1556,
      "65": 1557,
      "80": 1558,
      "அஞ்சு": 1559,
      "ஆகு": 1560,
      "ஒழு": 1561,
      "டே": 1562,
      "தக": 1563,
      "னல்": 1564,
      "னொடு": 1565,
      "வக": 1566,
      "வதும்": 1567,
      "வர்கள்": 1568,
      "ால்": 1569,
      "பால": 1570,
      "மாதோ": 1571,
      "லைப்": 1572,
      "ப்பக்": 1573,
      "சென்னி": 1574,
      "கொண்டா": 1575,
      "நாறு": 1576,
      "ண்டே": 1577,
      "லாத": 1578,
      "தீர்": 1579,
      "எனக்": 1580,
      "எனவே": 1581,
      "பரணர்": 1582,
      "பலர்": 1583,
      "மயங்கி": 1584,
      "சிறந்த": 1585,
      "இனிது": 1586,
      "நெஞ்சம்": 1587,
      "பொய்கை": 1588,
      "வெண்ணெ": 1589,
      "மாலிருஞ்சோ": 1590,
      "90": 1591,
      "அத்த": 1592,
      "எல்ல": 1593,
      "எந்தை": 1594,
      "கற்": 1595,
      "கழல்": 1596,
      "சம்": 1597,
      "ஞெ": 1598,
      "நன்று": 1599,
      "பறை": 1600,
      "மண்ட": 1601,
      "லது": 1602,
      "வற்": 1603,
      "ீபம்": 1604,
      "ந்தர": 1605,
      "ந்தரு": 1606,
      "ருந்து": 1607,
      "ியல்": 1608,
      "துயி": 1609,
      "புரை": 1610,
      "பாற்": 1611,
      "முகி": 1612,
      "சித": 1613,
      "காதல்": 1614,
      "காவிரி": 1615,
      "ப்பன்": 1616,
      "ப்பத்": 1617,
      "செங்கண்": 1618,
      "கொங்கை": 1619,
      "நிழ": 1620,
      "கூர்": 1621,
      "சுட": 1622,
      "ையாய்": 1623,
      "ய்தி": 1624,
      "கேட்டு": 1625,
      "சோண": 1626,
      "வலன்": 1627,
      "அம்மா": 1628,
      "வேண்டிய": 1629,
      "கானல்": 1630,
      "முன்னே": 1631,
      "வேங்கட": 1632,
      "உறையூர்": 1633,
      "அன்னாய்": 1634,
      "75": 1635,
      "ஆம்": 1636,
      "ஆகலின்": 1637,
      "னையும்": 1638,
      "மற்": 1639,
      "ல்கு": 1640,
      "தில்ல": 1641,
      "மாறி": 1642,
      "ப்படு": 1643,
      "போக": 1644,
      "போத": 1645,
      "போலும்": 1646,
      "வெற்": 1647,
      "வெள்ளி": 1648,
      "நிழல்": 1649,
      "கூறிய": 1650,
      "ங்குல்": 1651,
      "வரங்க": 1652,
      "எனக்கு": 1653,
      "ங்கால்": 1654,
      "மன்னர்": 1655,
      "விளையா": 1656,
      "களும்": 1657,
      "அறிந்து": 1658,
      "நேர்": 1659,
      "எய்தி": 1660,
      "நெடில": 1661,
      "46": 1662,
      "48": 1663,
      "இரா": 1664,
      "உண்கண்": 1665,
      "எரி": 1666,
      "ஏறி": 1667,
      "ஒற்று": 1668,
      "நகை": 1669,
      "நோன்": 1670,
      "நல்லி": 1671,
      "பண": 1672,
      "பங்க": 1673,
      "பற்ற": 1674,
      "ரனார்": 1675,
      "வறு": 1676,
      "ந்தெ": 1677,
      "புகா": 1678,
      "பான்": 1679,
      "முட": 1680,
      "முற்றும்": 1681,
      "குடை": 1682,
      "சிறை": 1683,
      "சிலம்": 1684,
      "லைக்": 1685,
      "ப்பொரு": 1686,
      "செல்லா": 1687,
      "ண்டும்": 1688,
      "யிர": 1689,
      "கூறி": 1690,
      "லான்": 1691,
      "தொண்ட": 1692,
      "தொழு": 1693,
      "இருங்க": 1694,
      "இருந்து": 1695,
      "கடா": 1696,
      "றாய்": 1697,
      "மூர்": 1698,
      "மரம்": 1699,
      "வாழும்": 1700,
      "புறம்": 1701,
      "ஆடுக": 1702,
      "அண்ணல்": 1703,
      "55": 1704,
      "அன்றே": 1705,
      "ஆகிய": 1706,
      "ஆசிரிய": 1707,
      "உம்": 1708,
      "உள்ளி": 1709,
      "எங்கும்": 1710,
      "தரும்": 1711,
      "பகு": 1712,
      "மறி": 1713,
      "வளி": 1714,
      "ந்தகை": 1715,
      "ண்மை": 1716,
      "திங்கள்": 1717,
      "முற": 1718,
      "முந்": 1719,
      "முதிர்": 1720,
      "குண": 1721,
      "குறும்": 1722,
      "சினை": 1723,
      "சித்தன்": 1724,
      "ப்பது": 1725,
      "டிக்": 1726,
      "செய": 1727,
      "ஞ்ஞ": 1728,
      "ன்றோ": 1729,
      "தாது": 1730,
      "பொறு": 1731,
      "வெண்கு": 1732,
      "ரைக்": 1733,
      "மேற்": 1734,
      "ர்தம்": 1735,
      "மென": 1736,
      "ல்லால்": 1737,
      "தொடி": 1738,
      "மருள்": 1739,
      "அருளிய": 1740,
      "த்தார்": 1741,
      "வருக": 1742,
      "புலவர்": 1743,
      "டையாய்": 1744,
      "பயன்": 1745,
      "கொள்ளும்": 1746,
      "அவிழ்": 1747,
      "சேரமான்": 1748,
      "ஆட்க": 1749,
      "இழி": 1750,
      "உரி": 1751,
      "எல்லா": 1752,
      "டற்": 1753,
      "தண்க": 1754,
      "பன்ன": 1755,
      "ருவி": 1756,
      "த்தோள்": 1757,
      "ையொடு": 1758,
      "விழி": 1759,
      "புரு": 1760,
      "மானே": 1761,
      "சிவ": 1762,
      "காது": 1763,
      "கொண்க": 1764,
      "நாளும்": 1765,
      "ர்கோ": 1766,
      "பிர": 1767,
      "தாமே": 1768,
      "வென்றி": 1769,
      "ரைத்த": 1770,
      "நிர": 1771,
      "நெய்": 1772,
      "கோச": 1773,
      "கோவி": 1774,
      "லாய்": 1775,
      "பெருமை": 1776,
      "தொலை": 1777,
      "பேர": 1778,
      "பேதை": 1779,
      "நெடுங்கண்": 1780,
      "ப்பாய்": 1781,
      "இயல்": 1782,
      "சீற": 1783,
      "மன்னு": 1784,
      "ஞால": 1785,
      "கழனி": 1786,
      "பழம்": 1787,
      "புனல்": 1788,
      "பெரிது": 1789,
      "85": 1790,
      "அசை": 1791,
      "அதிய": 1792,
      "அமர": 1793,
      "இங்கே": 1794,
      "ஊர": 1795,
      "எடு": 1796,
      "கன்று": 1797,
      "நல்கி": 1798,
      "னவே": 1799,
      "பத": 1800,
      "மங்க": 1801,
      "மையே": 1802,
      "லொடு": 1803,
      "வனார்": 1804,
      "வழிய": 1805,
      "ியின்": 1806,
      "த்தூ": 1807,
      "க்கர": 1808,
      "க்கர்": 1809,
      "விடை": 1810,
      "வால்": 1811,
      "வாங்கி": 1812,
      "வாயில்": 1813,
      "முறு": 1814,
      "டிப்ப": 1815,
      "வேழ": 1816,
      "னைச்": 1817,
      "பெய்": 1818,
      "தாக": 1819,
      "தார": 1820,
      "பொதி": 1821,
      "ண்ணம்": 1822,
      "யாமே": 1823,
      "வெறு": 1824,
      "நீல": 1825,
      "ழ்வார்": 1826,
      "நெல்": 1827,
      "நெகிழ": 1828,
      "க்குப்": 1829,
      "வுல": 1830,
      "ய்து": 1831,
      "த்திரு": 1832,
      "பூம்": 1833,
      "ப்பான்": 1834,
      "பொருந": 1835,
      "செய்தி": 1836,
      "நீர்ப்": 1837,
      "ளாய்": 1838,
      "போலப்": 1839,
      "னென்று": 1840,
      "உலக": 1841,
      "அம": 1842,
      "அம்ப": 1843,
      "அக்கா": 1844,
      "ஆம்பல்": 1845,
      "இவன்": 1846,
      "இழை": 1847,
      "ஊன்": 1848,
      "கவ": 1849,
      "கலை": 1850,
      "கலம்": 1851,
      "கண்க": 1852,
      "நசை": 1853,
      "னொ": 1854,
      "பண்ண": 1855,
      "யொ": 1856,
      "ிற்": 1857,
      "ுடை": 1858,
      "ந்தனை": 1859,
      "த்தது": 1860,
      "ையெ": 1861,
      "ையன்": 1862,
      "விறல்": 1863,
      "சிதை": 1864,
      "சிந்தை": 1865,
      "யாது": 1866,
      "யாங்கு": 1867,
      "வெளி": 1868,
      "நெஞ்சு": 1869,
      "க்குங்": 1870,
      "சேரி": 1871,
      "சான்ற": 1872,
      "தெளி": 1873,
      "தொடு": 1874,
      "பேசு": 1875,
      "மருங்கி": 1876,
      "லேலோ": 1877,
      "எம்பிரான்": 1878,
      "மரபின்": 1879,
      "மன்னே": 1880,
      "ம்கொ": 1881,
      "களு": 1882,
      "ந்தோள்": 1883,
      "தடக்கை": 1884,
      "கிடந்த": 1885,
      "44": 1886,
      "அரை": 1887,
      "ஊரே": 1888,
      "எண்": 1889,
      "கண்டி": 1890,
      "தண்த": 1891,
      "தளர்": 1892,
      "நன்ன": 1893,
      "னக்": 1894,
      "பட்டி": 1895,
      "மள்ள": 1896,
      "மனம்": 1897,
      "மட்டும்": 1898,
      "ழ்த்த": 1899,
      "வலம்": 1900,
      "ொறும்": 1901,
      "ன்ப": 1902,
      "ந்தம்": 1903,
      "க்கீ": 1904,
      "க்கத்து": 1905,
      "விழ்": 1906,
      "புக்க": 1907,
      "புள்": 1908,
      "மாகி": 1909,
      "மாற்ற": 1910,
      "குன்று": 1911,
      "காடு": 1912,
      "ப்பும்": 1913,
      "நாத": 1914,
      "நாரை": 1915,
      "நாமே": 1916,
      "போற்": 1917,
      "தாய": 1918,
      "தால்": 1919,
      "பொல": 1920,
      "பொற்": 1921,
      "ட்டேன்": 1922,
      "னாக": 1923,
      "நெஞ்சே": 1924,
      "டியே": 1925,
      "கோல்": 1926,
      "லார்": 1927,
      "சாத்தனார்": 1928,
      "தொடர்": 1929,
      "வரல்": 1930,
      "கண்ணு": 1931,
      "ண்டான்": 1932,
      "நுட": 1933,
      "கெடு": 1934,
      "மணிவண்ண": 1935,
      "அறிவு": 1936,
      "வாரார்": 1937,
      "உனக்கு": 1938,
      "அல்குல்": 1939,
      "அதியமான்": 1940,
      "ஆங்கண்": 1941,
      "இடி": 1942,
      "உத்தர": 1943,
      "எந்த": 1944,
      "ஏந்து": 1945,
      "கரி": 1946,
      "கட்டி": 1947,
      "தங்க": 1948,
      "நற்": 1949,
      "நறும்": 1950,
      "மண்ண": 1951,
      "வந்தி": 1952,
      "வம்ப": 1953,
      "ேர்": 1954,
      "ருகி": 1955,
      "ருணை": 1956,
      "க்கமும்": 1957,
      "க்கின்ற": 1958,
      "வில்லி": 1959,
      "புன்னை": 1960,
      "வாங்கு": 1961,
      "மாறே": 1962,
      "ன்னிய": 1963,
      "குத்த": 1964,
      "வேட்ட": 1965,
      "நாம": 1966,
      "யாண்டு": 1967,
      "யானும்": 1968,
      "யாணர்": 1969,
      "டைச்": 1970,
      "யிரு": 1971,
      "னாள்": 1972,
      "நீயும்": 1973,
      "நிமி": 1974,
      "மிட": 1975,
      "க்குந்": 1976,
      "ரார்": 1977,
      "ட்டுக்": 1978,
      "பூச": 1979,
      "தெரிய": 1980,
      "தொழி": 1981,
      "தீபம்": 1982,
      "வீர": 1983,
      "ல்கள்": 1984,
      "ல்கொண்டு": 1985,
      "நெடுந்தேர்": 1986,
      "ஒருவன்": 1987,
      "ற்கும்": 1988,
      "பிறந்த": 1989,
      "மையை": 1990,
      "ளுக்கு": 1991,
      "யோனே": 1992,
      "உலகம்": 1993,
      "அரிவை": 1994,
      "வேறுபாடு": 1995,
      "மக்கள்": 1996,
      "கீழ்": 1997,
      "இன்னும்": 1998,
      "ய்க்கும்": 1999,
      "தழீஇ": 2000,
      "கொள்கை": 2001,
      "செய்யுள்": 2002,
      "அமு": 2003,
      "அதை": 2004,
      "அடியா": 2005,
      "அன்றியும்": 2006,
      "எனை": 2007,
      "எவன்": 2008,
      "கதி": 2009,
      "கட்டு": 2010,
      "ட்கு": 2011,
      "தனை": 2012,
      "நை": 2013,
      "பல்ல": 2014,
      "மரா": 2015,
      "லொ": 2016,
      "வடு": 2017,
      "வனோ": 2018,
      "ோய்": 2019,
      "ந்தனர்": 2020,
      "ையடு": 2021,
      "பார": 2022,
      "பாணர்": 2023,
      "முல்ல": 2024,
      "காந்த": 2025,
      "காண்ட": 2026,
      "காமர்": 2027,
      "ப்பட": 2028,
      "சென்": 2029,
      "செங்கோ": 2030,
      "வேண்": 2031,
      "ஞ்செய்": 2032,
      "நாளே": 2033,
      "போகிய": 2034,
      "பெண்டி": 2035,
      "பொலிய": 2036,
      "யாயின்": 2037,
      "கைத்": 2038,
      "கோமான்": 2039,
      "ர்தி": 2040,
      "வைக": 2041,
      "பூத": 2042,
      "சாரல்": 2043,
      "மலர": 2044,
      "மொழியா": 2045,
      "பாடும்": 2046,
      "பேரி": 2047,
      "துறைவன்": 2048,
      "வரோ": 2049,
      "கேட்": 2050,
      "சோதி": 2051,
      "நெடுமான்": 2052,
      "கின்றான்": 2053,
      "மொழிக்": 2054,
      "க்காய்": 2055,
      "மறைய": 2056,
      "போலக்": 2057,
      "மார்பின்": 2058,
      "அன்பு": 2059,
      "பொய்யா": 2060,
      "விட்டுசித்தன்": 2061,
      "காதலி": 2062,
      "வல்லார்": 2063,
      "இனியே": 2064,
      "பொலிந்த": 2065,
      "தெய்வ": 2066,
      "வாழ்க்கை": 2067,
      "முதலிய": 2068,
      "ஆறு": 2069,
      "ஆடிய": 2070,
      "இட்ட": 2071,
      "உழு": 2072,
      "ஒழிய": 2073,
      "கது": 2074,
      "கட்ட": 2075,
      "கஞ்ச": 2076,
      "கவலை": 2077,
      "டெ": 2078,
      "ணன்": 2079,
      "தய": 2080,
      "தள": 2081,
      "நனை": 2082,
      "னையே": 2083,
      "பற்றிய": 2084,
      "மழ்": 2085,
      "மயில்": 2086,
      "மகிழ": 2087,
      "றந்": 2088,
      "ந்தின்": 2089,
      "ந்தோன்": 2090,
      "ங்கள": 2091,
      "புல்": 2092,
      "வாச": 2093,
      "காட்ட": 2094,
      "ப்பச்": 2095,
      "டிப்": 2096,
      "செறு": 2097,
      "நாண்": 2098,
      "ர்கா": 2099,
      "ர்கொ": 2100,
      "போற்று": 2101,
      "தாலேலோ": 2102,
      "கிளை": 2103,
      "யிற்": 2104,
      "வெய்ய": 2105,
      "கூடு": 2106,
      "நெல்ல": 2107,
      "தோற்ற": 2108,
      "லினும்": 2109,
      "சும": 2110,
      "த்திற்": 2111,
      "தெரு": 2112,
      "திருவடி": 2113,
      "ங்கிப்": 2114,
      "கேட்க": 2115,
      "சோர": 2116,
      "ண்டாய்": 2117,
      "புலன்": 2118,
      "தும்பி": 2119,
      "ய்க்கு": 2120,
      "அவர்க": 2121,
      "ல்தான்": 2122,
      "டையான்": 2123,
      "செல்வம்": 2124,
      "வள்ளு": 2125,
      "மாக்கள்": 2126,
      "21": 2127,
      "அலை": 2128,
      "அனைய": 2129,
      "ஆல": 2130,
      "இங்கு": 2131,
      "இவை": 2132,
      "இடைய": 2133,
      "இன்றி": 2134,
      "எத்த": 2135,
      "ஏத்தி": 2136,
      "தண": 2137,
      "தர்": 2138,
      "தழ்": 2139,
      "நம": 2140,
      "னனே": 2141,
      "மடி": 2142,
      "மஞ்ஞ": 2143,
      "வோன்": 2144,
      "ஸ்": 2145,
      "ேம்": 2146,
      "ந்தையார்": 2147,
      "ங்கப்": 2148,
      "வாக": 2149,
      "பாவ": 2150,
      "முன்றில்": 2151,
      "குந்து": 2152,
      "ப்படை": 2153,
      "செவிய": 2154,
      "வேற்": 2155,
      "ழிநெடில": 2156,
      "பெற்று": 2157,
      "தான": 2158,
      "யாம": 2159,
      "வெரு": 2160,
      "வெண்க": 2161,
      "நிலா": 2162,
      "தோழிய": 2163,
      "க்குக்": 2164,
      "மென்னு": 2165,
      "பூங்கு": 2166,
      "தொறும்": 2167,
      "ப்புற": 2168,
      "சொல்லா": 2169,
      "சோதை": 2170,
      "ல்கொ": 2171,
      "வாய்ப்": 2172,
      "மூன்று": 2173,
      "ர்க்கழிநெடில": 2174,
      "எனவும்": 2175,
      "ப்பிடி": 2176,
      "எம்பெருமான்": 2177,
      "சீர்க்கழிநெடில": 2178,
      "பரந்த": 2179,
      "தலின்": 2180,
      "ம்கா": 2181,
      "நம்மை": 2182,
      "மலர்ந்த": 2183,
      "ஞ்சுரம்": 2184,
      "நல்கு": 2185,
      "நலங்கி": 2186,
      "என்பது": 2187,
      "சொல்லு": 2188,
      "புகுந்து": 2189,
      "உண்மை": 2190,
      "கடவுள்": 2191,
      "நல்லிசை": 2192,
      "49": 2193,
      "அத்தை": 2194,
      "ஆழி": 2195,
      "இப்": 2196,
      "இந்திர": 2197,
      "ஊரன்": 2198,
      "எய்": 2199,
      "எழில்": 2200,
      "எண்ணு": 2201,
      "ஓம்பு": 2202,
      "கனி": 2203,
      "கங்கை": 2204,
      "கழா": 2205,
      "சைய": 2206,
      "சோர்": 2207,
      "தம": 2208,
      "தகு": 2209,
      "நட்": 2210,
      "நன்றும்": 2211,
      "நன்றே": 2212,
      "னப்": 2213,
      "பயி": 2214,
      "மண்டி": 2215,
      "றன்": 2216,
      "வனும்": 2217,
      "ொடும்": 2218,
      "ம்பா": 2219,
      "ருளி": 2220,
      "விளி": 2221,
      "வினைய": 2222,
      "புழு": 2223,
      "புகை": 2224,
      "மானி": 2225,
      "முடைய": 2226,
      "முடியா": 2227,
      "சிறிய": 2228,
      "காய்": 2229,
      "ப்போர்": 2230,
      "செழிய": 2231,
      "வேட்க": 2232,
      "கொலோ": 2233,
      "ர்கி": 2234,
      "பெறா": 2235,
      "ன்றை": 2236,
      "டைத்": 2237,
      "வெள்ளை": 2238,
      "தோழ": 2239,
      "தோளே": 2240,
      "மிடை": 2241,
      "ராய": 2242,
      "ரால்": 2243,
      "வுறு": 2244,
      "தொடுத்த": 2245,
      "திருமாலிருஞ்சோ": 2246,
      "திருவரங்க": 2247,
      "பாடல்": 2248,
      "இருள்": 2249,
      "பேய்": 2250,
      "பேசி": 2251,
      "வாய்ச்": 2252,
      "கண்ணன்": 2253,
      "ப்பில்": 2254,
      "ப்பினும்": 2255,
      "அரசே": 2256,
      "கின்றா": 2257,
      "ல்வண்ண": 2258,
      "ல்வளை": 2259,
      "வந்துகாணீரே": 2260,
      "போலத்": 2261,
      "வேந்தே": 2262,
      "ள்கி": 2263,
      "அதுவே": 2264,
      "டியாசிரிய": 2265,
      "வண்ணம்": 2266,
      "உயர்ந்த": 2267,
      "பணைத்தோள்": 2268,
      "தோன்றல்": 2269,
      "பாசறை": 2270,
      "விடுதிகண்டாய்": 2271,
      "சீர்க்கழிநெடிலடியாசிரிய": 2272,
      "76": 2273,
      "அல்": 2274,
      "அனை": 2275,
      "அழை": 2276,
      "அச்சோ": 2277,
      "இம்": 2278,
      "இந்": 2279,
      "இணை": 2280,
      "ஈங்கு": 2281,
      "உக": 2282,
      "உண்டா": 2283,
      "எங்கள்": 2284,
      "கவர்": 2285,
      "கமல": 2286,
      "கட்சி": 2287,
      "சப்பா": 2288,
      "தண்ட": 2289,
      "தகை": 2290,
      "நற": 2291,
      "னீ": 2292,
      "பத்த": 2293,
      "பவள": 2294,
      "லையே": 2295,
      "வண்டி": 2296,
      "வயல்": 2297,
      "ர்ந்து": 2298,
      "ந்தண்": 2299,
      "ந்தென": 2300,
      "ந்தனன்": 2301,
      "துகி": 2302,
      "வாய்க்": 2303,
      "பாய": 2304,
      "தினை": 2305,
      "முத்த": 2306,
      "முள்": 2307,
      "முள்ள": 2308,
      "குளி": 2309,
      "குற்ற": 2310,
      "குயி": 2311,
      "காலம்": 2312,
      "ப்பவும்": 2313,
      "வேனில்": 2314,
      "கொச்ச": 2315,
      "நார": 2316,
      "பில்": 2317,
      "தானும்": 2318,
      "கிப்": 2319,
      "ட்டே": 2320,
      "வென்றா": 2321,
      "நெஞ்சி": 2322,
      "ங்குடி": 2323,
      "னினும்": 2324,
      "நின்னை": 2325,
      "கோடு": 2326,
      "கோயில்": 2327,
      "வைகு": 2328,
      "பெருங்": 2329,
      "சேய்": 2330,
      "சார்": 2331,
      "ம்பர": 2332,
      "திருந்து": 2333,
      "பாடியது": 2334,
      "வீமன்": 2335,
      "கேச": 2336,
      "ல்கா": 2337,
      "வியும்": 2338,
      "நெடுங்க": 2339,
      "நெடுவரை": 2340,
      "ஒருங்கு": 2341,
      "எனப்": 2342,
      "ழியும்": 2343,
      "ண்கி": 2344,
      "சூட்ட": 2345,
      "ப்பிற்": 2346,
      "னெம்": 2347,
      "வோம்": 2348,
      "இளைய": 2349,
      "மக்கே": 2350,
      "தரவு": 2351,
      "நாடே": 2352,
      "முரசு": 2353,
      "மாதவி": 2354,
      "நிறைய": 2355,
      ".)": 2356,
      "78": 2357,
      "79": 2358,
      "அவை": 2359,
      "அகல்": 2360,
      "ஆதி": 2361,
      "இடம்": 2362,
      "ஈர்": 2363,
      "உன்ன": 2364,
      "உண்ணா": 2365,
      "உய்ய": 2366,
      "என்றால்": 2367,
      "ஒள்": 2368,
      "ஒவ்": 2369,
      "கரிய": 2370,
      "டன்ன": 2371,
      "டக்": 2372,
      "டன்னை": 2373,
      "தக்க": 2374,
      "தூர்": 2375,
      "நன": 2376,
      "நந்த": 2377,
      "நர்க்கு": 2378,
      "பது": 2379,
      "பத்தி": 2380,
      "பகல்": 2381,
      "றன்னை": 2382,
      "லென்": 2383,
      "ழைய": 2384,
      "வகை": 2385,
      "வணி": 2386,
      "வரே": 2387,
      "ினும்": 2388,
      "ெல்லாம்": 2389,
      "த்தியார்": 2390,
      "டுமி": 2391,
      "துர": 2392,
      "துள": 2393,
      "துங்கா": 2394,
      "புறு": 2395,
      "புள்ளி": 2396,
      "வார்கள்": 2397,
      "திங்க": 2398,
      "திகழ்": 2399,
      "மாற்றி": 2400,
      "ய்ந்து": 2401,
      "முடை": 2402,
      "குண்டு": 2403,
      "குரல்": 2404,
      "சிறா": 2405,
      "கார": 2406,
      "காக்கை": 2407,
      "காமம்": 2408,
      "வேட்டு": 2409,
      "ரினும்": 2410,
      "நாய": 2411,
      "பெற்றி": 2412,
      "தாங்கு": 2413,
      "பொறை": 2414,
      "வெங்க": 2415,
      "நீடு": 2416,
      "சுற்ற": 2417,
      "கோவ": 2418,
      "கோன்": 2419,
      "ர்தா": 2420,
      "ியான்": 2421,
      "மெல்": 2422,
      "மெல்லாம்": 2423,
      "திருச்சி": 2424,
      "வரக்": 2425,
      "னுடை": 2426,
      "ற்கா": 2427,
      "புலவு": 2428,
      "ண்டிரன்": 2429,
      "அரசு": 2430,
      "கின்றே": 2431,
      "ங்காய்": 2432,
      "க்கால்": 2433,
      "பரந்து": 2434,
      "பலவே": 2435,
      "மறம்": 2436,
      "....": 2437,
      "முகத்து": 2438,
      "கொடுத்த": 2439,
      "முன்கை": 2440,
      "சேர்ப்ப": 2441,
      "ப்போய்": 2442,
      "முன்னம்": 2443,
      "ங்கொடி": 2444,
      "கின்றேன்": 2445,
      "குழவி": 2446,
      "பீடு": 2447,
      "அணங்கு": 2448,
      "நயந்து": 2449,
      "கமழும்": 2450,
      "வாழ்த்தி": 2451,
      "முலையு": 2452,
      "தன்னுள்": 2453,
      "மஞ்ஞை": 2454,
      "சப்பாணி": 2455,
      "43": 2456,
      "69": 2457,
      "89": 2458,
      "அதி": 2459,
      "அள்ள": 2460,
      "அதன்": 2461,
      "அண்டிரன்": 2462,
      "ஆறே": 2463,
      "இச்": 2464,
      "இவர்": 2465,
      "உள்": 2466,
      "உம்ப": 2467,
      "உழை": 2468,
      "உண்ணும்": 2469,
      "எல்லை": 2470,
      "எடுத்து": 2471,
      "ஒல்ல": 2472,
      "ஒக்கல்": 2473,
      "கணை": 2474,
      "சய": 2475,
      "ஞர்": 2476,
      "டீ": 2477,
      "நன்னு": 2478,
      "னல்ல": 2479,
      "பும்": 2480,
      "பைய": 2481,
      "மந்தி": 2482,
      "றந்த": 2483,
      "லங்க": 2484,
      "வணை": 2485,
      "வச்சோ": 2486,
      "ுறை": 2487,
      "ைத்": 2488,
      "ங்கம்": 2489,
      "க்கண": 2490,
      "துறு": 2491,
      "துன்ன": 2492,
      "துணி": 2493,
      "ின்று": 2494,
      "புத்த": 2495,
      "வாளை": 2496,
      "பாழ்": 2497,
      "மாஅ": 2498,
      "சிந்த": 2499,
      "கான்": 2500,
      "காவல்": 2501,
      "டிச்": 2502,
      "றிக்": 2503,
      "ர்களே": 2504,
      "த்துறை": 2505,
      "ன்றின்": 2506,
      "கிளி": 2507,
      "கிழா": 2508,
      "வெர": 2509,
      "நீக்கி": 2510,
      "நிற்ப": 2511,
      "தோன்று": 2512,
      "மிக்க": 2513,
      "சுண": 2514,
      "சுண்ணம்": 2515,
      "ற்றுக்": 2516,
      "கோடி": 2517,
      "கோவே": 2518,
      "கோழி": 2519,
      "கோயி": 2520,
      "கோத்தும்": 2521,
      "கோப்பெரு": 2522,
      "மைந்த": 2523,
      "பெருஞ்சி": 2524,
      "பெருங்கா": 2525,
      "தொழுது": 2526,
      "ம்பும்": 2527,
      "ம்படு": 2528,
      "மலர்க்க": 2529,
      "மலர்க்": 2530,
      "அருள": 2531,
      "அருங்க": 2532,
      "த்தாள்": 2533,
      "நெடுந்தகை": 2534,
      "ற்கி": 2535,
      "தம்பி": 2536,
      "மன்னும்": 2537,
      "யின்ற": 2538,
      "அன்னம்": 2539,
      "தனவே": 2540,
      "த்தைப்": 2541,
      "ஞாயிறு": 2542,
      "ம்தி": 2543,
      "களில்": 2544,
      "வாழிவேண்": 2545,
      "பாடிப்": 2546,
      "ஆர்ப்ப": 2547,
      "புதுவை": 2548,
      "ழ்க்": 2549,
      "நூல்": 2550,
      "ீஇயர்": 2551,
      "பெரிதே": 2552,
      "புலம்பு": 2553,
      "====": 2554,
      "பெருந்துறை": 2555,
      "அம்மானாய்": 2556,
      "ஒற்றுமை": 2557,
      "அக்காக்காய்": 2558,
      "ஸ்ரீ": 2559,
      "சீர்க்கழிநெடிலடியாசிரியவிருத்தம்": 2560,
      "அச்சோவச்சோ": 2561,
      "கோத்தும்பீ": 2562,
      "?’": 2563,
      "அண்ட": 2564,
      "அற்ற": 2565,
      "அளை": 2566,
      "அகம்": 2567,
      "அப்பூ": 2568,
      "ஆத": 2569,
      "ஆங்க": 2570,
      "ஆள்": 2571,
      "ஆண்ட": 2572,
      "இனைய": 2573,
      "உய்": 2574,
      "ஏந்தி": 2575,
      "கங்க": 2576,
      "கழை": 2577,
      "கவும்": 2578,
      "சர": 2579,
      "டங்": 2580,
      "தணி": 2581,
      "பரிய": 2582,
      "பதம்": 2583,
      "ம்கு": 2584,
      "மஞ்ச": 2585,
      "மனைய": 2586,
      "யை": 2587,
      "வற்கு": 2588,
      "வதற்கு": 2589,
      "ூதாய்": 2590,
      "ருக்கி": 2591,
      "ங்கக்": 2592,
      "ங்கனி": 2593,
      "விக்": 2594,
      "வித்து": 2595,
      "துயில்": 2596,
      "வாது": 2597,
      "வானம்": 2598,
      "வாய்த்த": 2599,
      "பாண்": 2600,
      "பாதம்": 2601,
      "மாம்": 2602,
      "மாண்ட": 2603,
      "மாமலை": 2604,
      "மானம்": 2605,
      "முனை": 2606,
      "முலைய": 2607,
      "லைச்": 2608,
      "காட்சி": 2609,
      "செல்க": 2610,
      "ழித்த": 2611,
      "ரிற்": 2612,
      "நாட்": 2613,
      "நாய்": 2614,
      "நாடி": 2615,
      "நாயி": 2616,
      "நாறும்": 2617,
      "நாட்டில்": 2618,
      "ர்கோன்": 2619,
      "போகி": 2620,
      "பெண்ண": 2621,
      "பிறி": 2622,
      "பிணை": 2623,
      "தாமோ": 2624,
      "கிரி": 2625,
      "ற்றின்": 2626,
      "யின": 2627,
      "வெய்": 2628,
      "வெறி": 2629,
      "வெவ்": 2630,
      "னானே": 2631,
      "நீர": 2632,
      "நீடிய": 2633,
      "நீரா": 2634,
      "நெறிய": 2635,
      "டியும்": 2636,
      "லிற்": 2637,
      "மில்": 2638,
      "க்குத்": 2639,
      "தேரே": 2640,
      "வுற": 2641,
      "வுடை": 2642,
      "லாள்": 2643,
      "ம்பே": 2644,
      "மலரும்": 2645,
      "பாடம்": 2646,
      "கடந்த": 2647,
      "ப்புறம்": 2648,
      "தீர": 2649,
      "வீழ": 2650,
      "மருத": 2651,
      "னுடைய": 2652,
      "நெடுஞ்": 2653,
      "நெடுங்": 2654,
      "கண்ணா": 2655,
      "வருந்த": 2656,
      "புல்கு": 2657,
      "ன்னால்": 2658,
      "தியே": 2659,
      "சீறியா": 2660,
      "கலந்து": 2661,
      "கலங்கி": 2662,
      "வாழ்த": 2663,
      "மறவர்": 2664,
      "காண்கு": 2665,
      "இரவல": 2666,
      "மணியே": 2667,
      "என்னு": 2668,
      "க்கொள்": 2669,
      "க்கொள்ள": 2670,
      "நன்மா": 2671,
      "தனனே": 2672,
      "குறுமகள்": 2673,
      "யென்று": 2674,
      "அரிது": 2675,
      "பாடுதுங்கா": 2676,
      "ப்போது": 2677,
      "பயந்த": 2678,
      "மாதர்": 2679,
      "இன்றுமுற்றும்": 2680,
      "செல்வா": 2681,
      "------------": 2682,
      "உடைத்தே": 2683,
      "மதுரைக்": 2684,
      "முடியும்": 2685,
      "கரும்பின்": 2686,
      "பொழுதே": 2687,
      "முற்றத்துத்": 2688,
      "வேண்டாம்": 2689,
      "காட்டுகின்றான்": 2690,
      "உத்தரகோச": 2691,
      "ல்கொண்டுவா": 2692,
      "அப்பூச்சி": 2693,
      "66": 2694,
      "88": 2695,
      "ஆட்சி": 2696,
      "இடு": 2697,
      "இக்": 2698,
      "எளி": 2699,
      "ஏணி": 2700,
      "ஒற்றி": 2701,
      "ஒன்னா": 2702,
      "கந்த": 2703,
      "கச்": 2704,
      "கன்னி": 2705,
      "டப்": 2706,
      "தந்து": 2707,
      "நளி": 2708,
      "னீர்": 2709,
      "பறி": 2710,
      "பற்று": 2711,
      "பட்டு": 2712,
      "பல்லி": 2713,
      "மள": 2714,
      "மடை": 2715,
      "மங்கல": 2716,
      "ழற்": 2717,
      "ெடு": 2718,
      "ெறி": 2719,
      "ியை": 2720,
      "க்கண்ட": 2721,
      "க்கண்ண": 2722,
      "றுத்து": 2723,
      "விண்": 2724,
      "வித்": 2725,
      "விடா": 2726,
      "துளி": 2727,
      "புட்க": 2728,
      "வாதி": 2729,
      "பாட்டு": 2730,
      "மாணி": 2731,
      "ட்பாற்": 2732,
      "குமர": 2733,
      "சிற்றி": 2734,
      "சிலர்": 2735,
      "காரண": 2736,
      "ழிசை": 2737,
      "நாணி": 2738,
      "நாடும்": 2739,
      "ர்கொல்": 2740,
      "போன்ற": 2741,
      "போரே": 2742,
      "போக்கி": 2743,
      "யாழ்": 2744,
      "னாகி": 2745,
      "நிற்": 2746,
      "நில்லா": 2747,
      "மேம்": 2748,
      "ங்குரல்": 2749,
      "மிழ்த": 2750,
      "னிற்": 2751,
      "சுவ": 2752,
      "சுரும்": 2753,
      "தேறல்": 2754,
      "ற்றுப்": 2755,
      "வுங்": 2756,
      "வைகல்": 2757,
      "லாது": 2758,
      "மெழு": 2759,
      "பூத்த": 2760,
      "மலைய": 2761,
      "இருக்கை": 2762,
      "ஞ்சூ": 2763,
      "வீடு": 2764,
      "மகளே": 2765,
      "மகட்பாற்": 2766,
      "வளவு": 2767,
      "வியர்": 2768,
      "ப்பால்": 2769,
      "ப்பாடிப்ப": 2770,
      "சூட்டி": 2771,
      "லுள்": 2772,
      "பொருத": 2773,
      "பொருண்": 2774,
      "ளாக": 2775,
      "தூய": 2776,
      "காணிய": 2777,
      "மோடு": 2778,
      "ழாய்": 2779,
      "புகர்": 2780,
      "உள்ளது": 2781,
      "படுத்த": 2782,
      "னால்இன்றுமுற்றும்": 2783,
      "ஞான": 2784,
      "உலகு": 2785,
      "உலகத்து": 2786,
      "மார்ப": 2787,
      "ற்றார்": 2788,
      "கொடுத்து": 2789,
      "வழிப்": 2790,
      "மெய்ய": 2791,
      "குருதி": 2792,
      "ெழுந்த": 2793,
      "கொள்ளா": 2794,
      "நினைந்து": 2795,
      "எறிந்து": 2796,
      "தெரிந்தி": 2797,
      "எருமை": 2798,
      "வாராய்அக்காக்காய்": 2799,
      "பெய்து": 2800,
      "ஆற்றல்": 2801,
      "பிழைத்தும்": 2802,
      "எவன்கொல்": 2803,
      "நலங்கிள்ளி": 2804,
      "புல்குவான்": 2805,
      "பாடுதுங்காண்": 2806,
      "அப்பூச்சிகாட்டுகின்றான்": 2807,
      "ப்பாடிப்பற": 2808,
      "59": 2809,
      "77": 2810,
      "அனு": 2811,
      "அடைய": 2812,
      "அகன்": 2813,
      "இலை": 2814,
      "இமைய": 2815,
      "ஈன்ற": 2816,
      "ஈண்டு": 2817,
      "எங்க": 2818,
      "எதி": 2819,
      "ஏத்த": 2820,
      "ஏறு": 2821,
      "ஐம்": 2822,
      "ஒடு": 2823,
      "ஒக்க": 2824,
      "ஓதி": 2825,
      "கம்ப": 2826,
      "கேன்": 2827,
      "கள்ளி": 2828,
      "டந்து": 2829,
      "தன்று": 2830,
      "தண்டு": 2831,
      "தமிய": 2832,
      "னக": 2833,
      "னூர்": 2834,
      "பழு": 2835,
      "பதை": 2836,
      "மத்த": 2837,
      "மற்றி": 2838,
      "மையில்": 2839,
      "யன்": 2840,
      "ரையும்": 2841,
      "லத்து": 2842,
      "லங்கை": 2843,
      "வச": 2844,
      "வத்த": 2845,
      "வன்ன": 2846,
      "வரா": 2847,
      "ுங்": 2848,
      "ொலி": 2849,
      "ோர்க்கு": 2850,
      "ங்கூ": 2851,
      "ங்கெழு": 2852,
      "க்களி": 2853,
      "ையது": 2854,
      "ற்போல்": 2855,
      "றுத்த": 2856,
      "விலை": 2857,
      "துயர": 2858,
      "வாரி": 2859,
      "வாளி": 2860,
      "பாரா": 2861,
      "முற்று": 2862,
      "முளை": 2863,
      "குவ": 2864,
      "குடுமி": 2865,
      "சித்த": 2866,
      "காக்கும்": 2867,
      "காவல": 2868,
      "கானம்": 2869,
      "ப்பம்": 2870,
      "கொன்று": 2871,
      "நாரண": 2872,
      "ர்காள்": 2873,
      "பெண்": 2874,
      "பெறி": 2875,
      "பிறை": 2876,
      "பிள்ள": 2877,
      "பொன்னி": 2878,
      "கிறார்கள்": 2879,
      "யானைக்": 2880,
      "நீய": 2881,
      "ரைக்க": 2882,
      "நெடும்": 2883,
      "மிதி": 2884,
      "க்குரல்": 2885,
      "ரான்": 2886,
      "கோள்": 2887,
      "மைந்து": 2888,
      "ங்ங": 2889,
      "பெருமா": 2890,
      "பூங்": 2891,
      "பூவின்": 2892,
      "ந்திட்டு": 2893,
      "தொன்": 2894,
      "பேணி": 2895,
      "றார்": 2896,
      "தீர்த்த": 2897,
      "வரூஉம்": 2898,
      "அருஞ்சுரம்": 2899,
      "கேண்மை": 2900,
      "சொரி": 2901,
      "னுக்": 2902,
      "சோறு": 2903,
      "நோக்க": 2904,
      "பின்னை": 2905,
      "மூதின்": 2906,
      "மூதூர்": 2907,
      "ர்க்கி": 2908,
      "சூழ": 2909,
      "கருணை": 2910,
      "லுந்": 2911,
      "பொருது": 2912,
      "ல்வரை": 2913,
      "மறந்து": 2914,
      "ையுங்": 2915,
      "100": 2916,
      "ன்றாள்": 2917,
      "அறம்": 2918,
      "க்கொண்ட": 2919,
      "அவர்கள்": 2920,
      "ஞாழல்": 2921,
      "எழுதி": 2922,
      "அலர்": 2923,
      "சென்றூதாய்": 2924,
      "விருந்து": 2925,
      "ரோடு": 2926,
      "யெழு": 2927,
      "அரிதே": 2928,
      "ஆகும்": 2929,
      "இவண்": 2930,
      "இன்ப": 2931,
      "இன்மையின்": 2932,
      "நேரி": 2933,
      "பெயல்": 2934,
      "வெண்பா": 2935,
      "ங்கோட்டு": 2936,
      "கீரனார்": 2937,
      "மகிழ்ந்து": 2938,
      "முரசின்": 2939,
      "குன்றம்": 2940,
      "அணிய": 2941,
      "முதலா": 2942,
      "விரைந்து": 2943,
      "செவ்வி": 2944,
      "உரைசால்": 2945,
      "புன்கண்": 2946,
      "உணர்ந்து": 2947,
      "யம்வர": 2948,
      "வீழ்ந்த": 2949,
      "வாயிற்": 2950,
      "தோன்றிய": 2951,
      "வாழியோ": 2952,
      "செல்லும்": 2953,
      "கிறது": 2954,
      "நம்பீ": 2955,
      "வெண்குடை": 2956,
      "ர்கோல்கொண்டுவா": 2957,
      "சீறூர்": 2958,
      "காந்தள்": 2959,
      "செழியன்": 2960,
      "சீறியாழ்": 2961,
      "110": 2962,
      "31": 2963,
      "32": 2964,
      "41": 2965,
      "42": 2966,
      "68": 2967,
      "95": 2968,
      "அப்ப": 2969,
      "அவள": 2970,
      "ஆர்க": 2971,
      "ஆரா": 2972,
      "ஆக்கி": 2973,
      "இன்ற": 2974,
      "இதை": 2975,
      "இன்னு": 2976,
      "ஈத்த": 2977,
      "உரிய": 2978,
      "எயி": 2979,
      "எடுத்த": 2980,
      "எக்கர்": 2981,
      "ஏற்ற": 2982,
      "ஏந்திய": 2983,
      "ஒண்ணு": 2984,
      "ஓத": 2985,
      "ஓடி": 2986,
      "கன்ன": 2987,
      "கனை": 2988,
      "கற்ற": 2989,
      "கழிய": 2990,
      "கங்குல்": 2991,
      "தடு": 2992,
      "தறி": 2993,
      "தடா": 2994,
      "தங்கள்": 2995,
      "நல்லா": 2996,
      "பத்தும்": 2997,
      "பசும்": 2998,
      "மயிர்": 2999,
      "யல": 3000,
      "யதுவே": 3001,
      "ரற்": 3002,
      "வப்": 3003,
      "ொழி": 3004,
      "ர்ப்": 3005,
      "ருக்கும்": 3006,
      "த்தட": 3007,
      "ங்கத்": 3008,
      "க்கல": 3009,
      "க்கரு": 3010,
      "விர்": 3011,
      "வினா": 3012,
      "விசை": 3013,
      "துயர்": 3014,
      "வாண": 3015,
      "பாணி": 3016,
      "பார்க்க": 3017,
      "பார்த்து": 3018,
      "திட்ட": 3019,
      "குழை": 3020,
      "குளிர்": 3021,
      "காவலர்": 3022,
      "செந்த": 3023,
      "கொய்": 3024,
      "நாராய": 3025,
      "போதும்": 3026,
      "பெறல்": 3027,
      "ண்டிய": 3028,
      "பித்த": 3029,
      "பிச்சை": 3030,
      "கிளர்": 3031,
      "யாய்": 3032,
      "வென": 3033,
      "வெல்": 3034,
      "வெண்த": 3035,
      "நீர்க்": 3036,
      "நெகிழ்": 3037,
      "டியி": 3038,
      "சுடு": 3039,
      "ள்ளிய": 3040,
      "கைம்": 3041,
      "கைப்": 3042,
      "சேயி": 3043,
      "மெலி": 3044,
      "பூங்க": 3045,
      "சாதி": 3046,
      "சாஅய்": 3047,
      "தென": 3048,
      "தெவ்": 3049,
      "தொல்": 3050,
      "தொகு": 3051,
      "தொன்று": 3052,
      "ம்பை": 3053,
      "வரவு": 3054,
      "வரையா": 3055,
      "வீங்கு": 3056,
      "மருங்கு": 3057,
      "னுள்": 3058,
      "வருந்து": 3059,
      "வருந்தி": 3060,
      "ஒருநாள்": 3061,
      "மூர்த்தி": 3062,
      "ன்னாள்": 3063,
      "ணர்ந்து": 3064,
      "லுங்": 3065,
      "றியும்": 3066,
      "சிறுவெண்": 3067,
      "பரத": 3068,
      "ற்குப்": 3069,
      "தூஉம்": 3070,
      "மறக்க": 3071,
      "குறித்து": 3072,
      "இரண்டு": 3073,
      "மடல்": 3074,
      "விளங்கும்": 3075,
      "களம்": 3076,
      "மின்னி": 3077,
      "மயங்கு": 3078,
      "அல்லன்": 3079,
      "அல்லர்": 3080,
      "எழுந்து": 3081,
      "எழுதிய": 3082,
      "ல்தா": 3083,
      "கொடுமை": 3084,
      "உருகெழு": 3085,
      "புரவி": 3086,
      "உறையும்": 3087,
      "தமிழரி": 3088,
      "குருசில்": 3089,
      "பெயரும்": 3090,
      "அணிந்து": 3091,
      "பிரானே": 3092,
      "கின்றது": 3093,
      "வாழ்வு": 3094,
      "பொய்ய": 3095,
      "மகிழ்ந": 3096,
      "புகுந்த": 3097,
      "காதையும்": 3098,
      "வல்லாண்": 3099,
      "துறந்து": 3100,
      "கொடிச்சி": 3101,
      "பறந்தலை": 3102,
      "விலங்கு": 3103,
      "அரசவாகை": 3104,
      "விசும்பு": 3105,
      "மங்கைக்கு": 3106,
      "கேள்வி": 3107,
      "விரும்பி": 3108,
      "குளமுற்றத்துத்": 3109,
      "பெருந்துற": 3110,
      "குழல்வாராய்அக்காக்காய்": 3111,
      "எனவேட்": 3112,
      "கற்பின்": 3113,
      "சோணமலை": 3114,
      "இருங்கழி": 3115,
      "அருளியது": 3116,
      "பட்டின": 3117,
      "பொருண்மொழிக்": 3118,
      "!’": 3119,
      "அணை": 3120,
      "அகல": 3121,
      "அழல்": 3122,
      "ஆக்க": 3123,
      "இத்": 3124,
      "இழு": 3125,
      "இன்னி": 3126,
      "எந்தாய்": 3127,
      "எமக்கே": 3128,
      "ஏம": 3129,
      "ஏர்": 3130,
      "ஐயா": 3131,
      "ஒது": 3132,
      "ஒன்றி": 3133,
      "ஒளிய": 3134,
      "கக்க": 3135,
      "கட்": 3136,
      "கறி": 3137,
      "கலா": 3138,
      "கையும்": 3139,
      "கலு": 3140,
      "சரி": 3141,
      "சனே": 3142,
      "சியார்": 3143,
      "தரி": 3144,
      "தழு": 3145,
      "தமர்": 3146,
      "நகரு": 3147,
      "நகர": 3148,
      "பண்ணி": 3149,
      "மனி": 3150,
      "மையு": 3151,
      "மந்திர": 3152,
      "றது": 3153,
      "றேன்": 3154,
      "லங்கு": 3155,
      "வத": 3156,
      "வையும்": 3157,
      "வொடு": 3158,
      "ந்தொடி": 3159,
      "ருள்ள": 3160,
      "த்தென்": 3161,
      "ையோடு": 3162,
      "விதி": 3163,
      "விட்": 3164,
      "வின்று": 3165,
      "விற்று": 3166,
      "விட்டி": 3167,
      "துஞ்சா": 3168,
      "புண்ணிய": 3169,
      "பாம்பு": 3170,
      "பாயும்": 3171,
      "மாந்த": 3172,
      "மாந்தி": 3173,
      "மாக்கி": 3174,
      "மாமழை": 3175,
      "முறி": 3176,
      "முண்ட": 3177,
      "முழுது": 3178,
      "குவை": 3179,
      "குடும்": 3180,
      "சிறி": 3181,
      "சிந்து": 3182,
      "சினே": 3183,
      "காட்": 3184,
      "காத்து": 3185,
      "றிப்": 3186,
      "வேரி": 3187,
      "வேனே": 3188,
      "ழிந்து": 3189,
      "ச்செய்த": 3190,
      "ச்சென்று": 3191,
      "கொண்டி": 3192,
      "பிள": 3193,
      "தாழை": 3194,
      "பொடு": 3195,
      "பொதிய": 3196,
      "பொழுது": 3197,
      "யாங்க": 3198,
      "யாகி": 3199,
      "நீங்க": 3200,
      "ழ்ந்து": 3201,
      "நெடிய": 3202,
      "நெல்லி": 3203,
      "ங்குழல்": 3204,
      "மிலா": 3205,
      "க்குற": 3206,
      "க்குச்": 3207,
      "க்குஞ்": 3208,
      "சுயம்வர": 3209,
      "தேவி": 3210,
      "தேவா": 3211,
      "தேவர்": 3212,
      "ள்ளம்": 3213,
      "ராகி": 3214,
      "ரும்ப": 3215,
      "கோட்ட": 3216,
      "கோட்டு": 3217,
      "கோவல": 3218,
      "ர்தொ": 3219,
      "ர்தல்": 3220,
      "மைக்": 3221,
      "த்திப்": 3222,
      "லாடு": 3223,
      "பெருந்தோ": 3224,
      "சேக்கும்": 3225,
      "சேவல்": 3226,
      "சேரல்": 3227,
      "சேவடி": 3228,
      "மென்று": 3229,
      "தெல்லாம்": 3230,
      "ந்திறல்": 3231,
      "தொழில்": 3232,
      "திருவள்ளு": 3233,
      "என்கோ": 3234,
      "கேளா": 3235,
      "னுங்": 3236,
      "னுக்கே": 3237,
      "தன்மை": 3238,
      "நெடுவேல்": 3239,
      "நோக்கம்": 3240,
      "பிறவி": 3241,
      "பிறர்க்கு": 3242,
      "பொருட்": 3243,
      "பொருளே": 3244,
      "ப்பிள்ளை": 3245,
      "அரவு": 3246,
      "நுத": 3247,
      "சிறுகுடி": 3248,
      "சீர்க்": 3249,
      "பரப்பி": 3250,
      "பலவின்": 3251,
      "தலையா": 3252,
      "மணா": 3253,
      "மணம்": 3254,
      "105": 3255,
      "தமிழி": 3256,
      "உள்ளு": 3257,
      "களையும்": 3258,
      "மீது": 3259,
      "சிறந்து": 3260,
      "படப்பை": 3261,
      "அவள்": 3262,
      "நன்மை": 3263,
      "வரைப்பின்": 3264,
      "நிலைய": 3265,
      "ற்றான்": 3266,
      "னியே": 3267,
      "கானக": 3268,
      "கடுமான்": 3269,
      "கலித்த": 3270,
      "சேர்ந்து": 3271,
      "அதற்கு": 3272,
      "பழைய": 3273,
      "நேமி": 3274,
      "அன்புள்ள": 3275,
      "ங்கொல்": 3276,
      "குருகின்": 3277,
      "வானத்து": 3278,
      "மக்களை": 3279,
      "சிலம்பின்": 3280,
      "குன்றக்": 3281,
      "மையாக": 3282,
      "மையான": 3283,
      "ந்தனள்": 3284,
      "பெருங்கடற்": 3285,
      "ஒளிறு": 3286,
      "உரைத்த": 3287,
      "செங்கமல": 3288,
      "கமழ்": 3289,
      "விசும்பின்": 3290,
      "வழுதி": 3291,
      "நிற்கும்": 3292,
      "தமயந்தியின்": 3293,
      "கொன்றை": 3294,
      "மண்டை": 3295,
      "ல்வண்ணன்": 3296,
      "கோவர்த்த": 3297,
      "கிழான்": 3298,
      "கோப்பெருஞ்": 3299,
      "120": 3300,
      "130": 3301,
      "58": 3302,
      "67": 3303,
      "அறை": 3304,
      "அந்தி": 3305,
      "அவர": 3306,
      "அமுத": 3307,
      "ஆட்": 3308,
      "ஆயர்": 3309,
      "ஆரம்": 3310,
      "ஆதலின்": 3311,
      "இண": 3312,
      "இத": 3313,
      "ஈகை": 3314,
      "உகு": 3315,
      "உண்ண": 3316,
      "ஏன்": 3317,
      "ஒன்றும்": 3318,
      "ஓர்கோல்கொண்டுவா": 3319,
      "கௌ": 3320,
      "கனார்": 3321,
      "கையார்": 3322,
      "டொ": 3323,
      "டத்": 3324,
      "டனே": 3325,
      "தங்கு": 3326,
      "தண்ணு": 3327,
      "நண்": 3328,
      "நள்ள": 3329,
      "நண்ணி": 3330,
      "னடி": 3331,
      "னோர்": 3332,
      "பண்டு": 3333,
      "பகடு": 3334,
      "மழு": 3335,
      "மோர்": 3336,
      "மையி": 3337,
      "மல்லி": 3338,
      "ரன்ன": 3339,
      "ரந்து": 3340,
      "லக": 3341,
      "லங்": 3342,
      "லங்கா": 3343,
      "ழே": 3344,
      "ழின்": 3345,
      "வற": 3346,
      "வத்": 3347,
      "வையா": 3348,
      "வனம்": 3349,
      "வர்க்": 3350,
      "ென்னை": 3351,
      "ருப்ப": 3352,
      "ருளும்": 3353,
      "ியது": 3354,
      "ங்கவும்": 3355,
      "க்கப்": 3356,
      "க்கொடு": 3357,
      "ையணி": 3358,
      "விசி": 3359,
      "விரல்": 3360,
      "துன்": 3361,
      "வார்க": 3362,
      "வாழு": 3363,
      "வாணி": 3364,
      "வார்த்த": 3365,
      "வானோ": 3366,
      "வாய்த்": 3367,
      "வாகாணீரே": 3368,
      "பாக": 3369,
      "பார்த்த": 3370,
      "தின": 3371,
      "திணி": 3372,
      "மாண": 3373,
      "மாட்டேன்": 3374,
      "முத்து": 3375,
      "குவள": 3376,
      "குதிரை": 3377,
      "சிங்க": 3378,
      "சித்தம்": 3379,
      "சிறிது": 3380,
      "காவி": 3381,
      "காளை": 3382,
      "காலே": 3383,
      "காரணம்": 3384,
      "ப்பல்": 3385,
      "ப்பதும்": 3386,
      "செற்ற": 3387,
      "செலி": 3388,
      "வேல": 3389,
      "வேர்": 3390,
      "நாள்த": 3391,
      "போலே": 3392,
      "ண்டை": 3393,
      "ண்டோ": 3394,
      "ன்றிய": 3395,
      "தாகி": 3396,
      "பொல்லா": 3397,
      "பொலம்": 3398,
      "கின": 3399,
      "கிணை": 3400,
      "யாயே": 3401,
      "வெற்றி": 3402,
      "நீடி": 3403,
      "நீங்கா": 3404,
      "ரைப்ப": 3405,
      "நிண": 3406,
      "கூற்ற": 3407,
      "கூற்றம்": 3408,
      "மிளி": 3409,
      "சுரி": 3410,
      "தேனு": 3411,
      "கோலம்": 3412,
      "கோவலன்": 3413,
      "மைப்": 3414,
      "ையாக": 3415,
      "வைப்பின்": 3416,
      "த்திக்": 3417,
      "ியால்": 3418,
      "தெறு": 3419,
      "ந்திற": 3420,
      "தொண்டு": 3421,
      "தொண்டி": 3422,
      "திருவு": 3423,
      "திருவின்": 3424,
      "இருந்தால்": 3425,
      "ந்தானை": 3426,
      "ந்தாலும்": 3427,
      "வீர்": 3428,
      "மருப்பின்": 3429,
      "மகனே": 3430,
      "வளர": 3431,
      "சொல்வ": 3432,
      "நெடுங்கா": 3433,
      "ையினும்": 3434,
      "செய்யா": 3435,
      "ெனச்": 3436,
      "கருத்து": 3437,
      "கருங்கால்": 3438,
      "பொருந்தி": 3439,
      "நுதி": 3440,
      "ளானே": 3441,
      "தலைய": 3442,
      "டாது": 3443,
      "அம்பு": 3444,
      "இரங்கும்": 3445,
      "மடமகள்": 3446,
      "மோசி": 3447,
      "மணன்": 3448,
      "மணிய": 3449,
      "யின்று": 3450,
      "ம்கி": 3451,
      "வல்வில்": 3452,
      "போலச்": 3453,
      "கள்வன்": 3454,
      "மயங்கிய": 3455,
      "அல்லல்": 3456,
      "அல்லவா": 3457,
      "லோரே": 3458,
      "என்னையும்": 3459,
      "மலர்ப்": 3460,
      "பரிசில": 3461,
      "கண்டோ": 3462,
      "த்தைக்": 3463,
      "தான்வந்": 3464,
      "மார்பு": 3465,
      "மென்ப": 3466,
      "அலங்கு": 3467,
      "த்தும்நாமே": 3468,
      "சென்றது": 3469,
      "இளம்": 3470,
      "கிழவன்": 3471,
      "கரந்தை": 3472,
      "115": 3473,
      "வல்லன்": 3474,
      "ட்டான்": 3475,
      "மெய்ம்": 3476,
      "ங்கொள்": 3477,
      "ங்கொலோ": 3478,
      "ன்னுடைய": 3479,
      "என்னைப்புறம்": 3480,
      "படைத்த": 3481,
      "க்கோட்": 3482,
      "க்கோட்டிய": 3483,
      "140": 3484,
      "ரங்கத்": 3485,
      "பட்டர்": 3486,
      "மையால்": 3487,
      "உடனே": 3488,
      "எறிந்த": 3489,
      "உணர்ச்சி": 3490,
      "மிசைப்": 3491,
      "அளவை": 3492,
      "வயிறு": 3493,
      "வென்வேல்": 3494,
      "அடியே": 3495,
      "அடியேன்": 3496,
      "தெரிந்து": 3497,
      "தண்ணந்": 3498,
      "இல்லாத": 3499,
      "நாகனார்": 3500,
      "அஞ்சன": 3501,
      "புதல்வன்": 3502,
      "ஆகுதல்": 3503,
      "வெண்ணெய்": 3504,
      "கூறியது": 3505,
      "க்கீழ்": 3506,
      "இடித்தும்நாமே": 3507,
      "பூசல்": 3508,
      "செங்கோல்": 3509,
      "பெண்டிர்": 3510,
      "நனந்தலை": 3511,
      "நெடுஞ்செழியன்": 3512,
      "என்னைப்புறம்புல்குவான்": 3513,
      "87": 3514,
      "அன": 3515,
      "அற்": 3516,
      "அட்ட": 3517,
      "அன்றி": 3518,
      "அங்கை": 3519,
      "அப்படி": 3520,
      "அமிழ்த": 3521,
      "ஆரு": 3522,
      "ஆடி": 3523,
      "ஆதன்": 3524,
      "ஆடும்": 3525,
      "ஆராய்": 3526,
      "இவள": 3527,
      "இடும்": 3528,
      "இப்படி": 3529,
      "உத": 3530,
      "ஊழ்": 3531,
      "என்றே": 3532,
      "எமக்கு": 3533,
      "ஏற": 3534,
      "ஏழை": 3535,
      "ஓரா": 3536,
      "கயி": 3537,
      "கனே": 3538,
      "கவு": 3539,
      "கவை": 3540,
      "சடை": 3541,
      "சங்கு": 3542,
      "சையும்": 3543,
      "சக்கர": 3544,
      "டையும்": 3545,
      "ணும்": 3546,
      "தத்து": 3547,
      "தளி": 3548,
      "நண்ணு": 3549,
      "நமக்கு": 3550,
      "பலி": 3551,
      "மண்ணி": 3552,
      "மண்ணா": 3553,
      "ரப்": 3554,
      "ரத்து": 3555,
      "லர": 3556,
      "லத்": 3557,
      "ழ்கு": 3558,
      "வட்ட": 3559,
      "வொரு": 3560,
      "ிடு": 3561,
      "ுமா": 3562,
      "ூர்க்": 3563,
      "ொழு": 3564,
      "ந்தன்று": 3565,
      "ியம்": 3566,
      "த்தோர்": 3567,
      "த்தலும்": 3568,
      "த்தொடு": 3569,
      "டுதி": 3570,
      "ங்களை": 3571,
      "க்கோன்": 3572,
      "விதிய": 3573,
      "விடும்": 3574,
      "துஞ்சு": 3575,
      "வாள": 3576,
      "வாடை": 3577,
      "வாடிய": 3578,
      "வாய்க்க": 3579,
      "மாம": 3580,
      "மாலு": 3581,
      "முற்றிய": 3582,
      "ன்னே": 3583,
      "குவன்": 3584,
      "குட்டு": 3585,
      "சிரி": 3586,
      "காள்": 3587,
      "காணி": 3588,
      "ப்பட்டு": 3589,
      "றிந்": 3590,
      "செஞ்": 3591,
      "வேட": 3592,
      "வேய்": 3593,
      "வேனை": 3594,
      "வேலே": 3595,
      "கொடை": 3596,
      "ஞ்சேர்": 3597,
      "நானும்": 3598,
      "நாட்டி": 3599,
      "த்ர": 3600,
      "ர்களா": 3601,
      "போயி": 3602,
      "பிட": 3603,
      "பிசி": 3604,
      "பிறிது": 3605,
      "பொன்னா": 3606,
      "யாக": 3607,
      "யானைய": 3608,
      "டைக்க": 3609,
      "யிரும்": 3610,
      "யிரம்": 3611,
      "ட்டன்": 3612,
      "ழுல": 3613,
      "னாய": 3614,
      "னால்தான்": 3615,
      "றைப்": 3616,
      "நீரும்": 3617,
      "நீங்கி": 3618,
      "நீழல்": 3619,
      "ரைத்": 3620,
      "மேய": 3621,
      "மேவி": 3622,
      "மேவிய": 3623,
      "தோடு": 3624,
      "தோனே": 3625,
      "சுரு": 3626,
      "கோதைய": 3627,
      "வுடன்": 3628,
      "மைத்து": 3629,
      "ய்தல்": 3630,
      "த்திரை": 3631,
      "லாவு": 3632,
      "ியானே": 3633,
      "பூக்க": 3634,
      "பூண்ட": 3635,
      "பூந்": 3636,
      "சாயல்": 3637,
      "தொழும்": 3638,
      "திருந்த": 3639,
      "ஞ்சினை": 3640,
      "ஞ்சிய": 3641,
      "பேச": 3642,
      "ங்கிக்": 3643,
      "ங்கிழார்": 3644,
      "கடந்து": 3645,
      "ர்த்தும்": 3646,
      "தீய": 3647,
      "தீமை": 3648,
      "வரொடு": 3649,
      "வரையில்": 3650,
      "வீத": 3651,
      "வீறு": 3652,
      "அருந்த": 3653,
      "கேட்டி": 3654,
      "வளம்": 3655,
      "சொல்கி": 3656,
      "டையு": 3657,
      "கண்ணீர்": 3658,
      "ஒருசிறை": 3659,
      "ர்க்கோ": 3660,
      "ற்கை": 3661,
      "எனத்": 3662,
      "பிறகு": 3663,
      "சிறுகண்": 3664,
      "க்காண்": 3665,
      "க்காது": 3666,
      "ளாயே": 3667,
      "வந்தது": 3668,
      "மறந்த": 3669,
      "மன்னிய": 3670,
      "டாஅ": 3671,
      "இரண்டா": 3672,
      "மோசியார்": 3673,
      "ம்கொண்டு": 3674,
      "தன்னலம்": 3675,
      "கொண்டேன்": 3676,
      "நன்கு": 3677,
      "நன்கலம்": 3678,
      "வரைப்": 3679,
      "வரைக்": 3680,
      "கண்டது": 3681,
      "மதில்": 3682,
      "ஞாலம்": 3683,
      "ஞாயிற்று": 3684,
      "ம்தா": 3685,
      "குறுகிய": 3686,
      "வல்லே": 3687,
      "ணாசல": 3688,
      "ட்டாய்": 3689,
      "150": 3690,
      "170": 3691,
      "முரசம்": 3692,
      "160": 3693,
      "கார்த்திகைத்": 3694,
      "பீலி": 3695,
      "ப்பூம்": 3696,
      "வைத்தேன்": 3697,
      "ஆடலும்": 3698,
      "செல்வர்": 3699,
      "அறியாது": 3700,
      "முயற்": 3701,
      "நாட்டுப்": 3702,
      "குறவன்": 3703,
      "பாணன்": 3704,
      "இருந்தவாகாணீரே": 3705,
      "வயிற்": 3706,
      "பாய்ந்து": 3707,
      "முழங்கு": 3708,
      "தழீஇய": 3709,
      "மெல்லிய": 3710,
      "மெல்லியல்": 3711,
      "பசலை": 3712,
      "அறியேன்": 3713,
      "கள்ளின்": 3714,
      "ந்தொழில்": 3715,
      "கல்லென்": 3716,
      "ஆனாது": 3717,
      "சங்கம்": 3718,
      "யூரன்": 3719,
      "பல்லாண்டு": 3720,
      "கிறேன்": 3721,
      "துயரம்": 3722,
      "லூரே": 3723,
      "ஆனந்த": 3724,
      "வேண்டியது": 3725,
      "முடமோசியார்": 3726,
      "சிலம்பு": 3727,
      "முந்நீர்": 3728,
      "ஆட்கொண்ட": 3729,
      "புருடோ": 3730,
      "சான்றோர்": 3731,
      "மருங்கிற்": 3732,
      "தளர்நடை": 3733,
      "நாதனே": 3734,
      "மணிவண்ணன்": 3735,
      "அமுதே": 3736,
      "நெல்லின்": 3737,
      "நட்பே": 3738,
      "மானிட": 3739,
      "ர்கிழார்": 3740,
      "சிறாஅர்": 3741,
      "நன்னுதல்": 3742,
      "ன்றின்பின்": 3743,
      "மனையோள்": 3744,
      "இரவலர்க்கு": 3745,
      "ஏணிச்": 3746,
      "ஒன்னார்": 3747,
      "கோவர்த்தன": 3748,
      "125": 3749,
      "135": 3750,
      "56": 3751,
      "57": 3752,
      "86": 3753,
      "அப்": 3754,
      "அயி": 3755,
      "அயோ": 3756,
      "அச்சு": 3757,
      "ஆவ": 3758,
      "ஆங்கி": 3759,
      "ஆற்றா": 3760,
      "ஆழ்வார்": 3761,
      "இத்த": 3762,
      "இரை": 3763,
      "இமி": 3764,
      "இளை": 3765,
      "ஈசன்": 3766,
      "உடுத்த": 3767,
      "உதவி": 3768,
      "ஊழி": 3769,
      "எம": 3770,
      "எங்கு": 3771,
      "எள்ள": 3772,
      "எளிய": 3773,
      "ஏற்றி": 3774,
      "ஏற்ப": 3775,
      "ஓர": 3776,
      "ஓங்கிய": 3777,
      "கந்து": 3778,
      "கனா": 3779,
      "களே": 3780,
      "கட்டிய": 3781,
      "கையால்": 3782,
      "களால்": 3783,
      "சந்த": 3784,
      "சது": 3785,
      "சமய": 3786,
      "ணீ": 3787,
      "தம்க": 3788,
      "நற்ற": 3789,
      "நஞ்சு": 3790,
      "நவில்": 3791,
      "பையுள்": 3792,
      "மண்ணு": 3793,
      "யரு": 3794,
      "யல்ல": 3795,
      "றொ": 3796,
      "றையும்": 3797,
      "லூர்": 3798,
      "ளப்": 3799,
      "ளத்": 3800,
      "ழப்": 3801,
      "ழையா": 3802,
      "ிடை": 3803,
      "ீரை": 3804,
      "ுணை": 3805,
      "ெதிர்": 3806,
      "ென்றான்": 3807,
      "த்தெனக்": 3808,
      "க்கக்": 3809,
      "க்கவும்": 3810,
      "விந்த": 3811,
      "புளி": 3812,
      "புற்ற": 3813,
      "வாடு": 3814,
      "வாயா": 3815,
      "வாறே": 3816,
      "தில": 3817,
      "திக்": 3818,
      "திகழ": 3819,
      "திண்த": 3820,
      "மாசு": 3821,
      "மாகாண": 3822,
      "மால்வரை": 3823,
      "முன": 3824,
      "முன்னி": 3825,
      "சிக்க": 3826,
      "சிதைய": 3827,
      "சித்திர": 3828,
      "காள": 3829,
      "காழ்": 3830,
      "காப்பா": 3831,
      "காவேரி": 3832,
      "ப்பன": 3833,
      "ப்பல": 3834,
      "ப்பட்": 3835,
      "ப்போன்": 3836,
      "ப்பைக்": 3837,
      "டில்": 3838,
      "ரிக்": 3839,
      "ச்சூ": 3840,
      "ந்துறை": 3841,
      "கொலை": 3842,
      "கொங்கு": 3843,
      "நாடா": 3844,
      "போன": 3845,
      "போகா": 3846,
      "பின": 3847,
      "பிரிய": 3848,
      "தாயே": 3849,
      "பொற்ற": 3850,
      "யான": 3851,
      "யாத்த": 3852,
      "ட்டின்": 3853,
      "வெள": 3854,
      "வெற்ப": 3855,
      "நீத்த": 3856,
      "நீந்தி": 3857,
      "நீயு": 3858,
      "நிறு": 3859,
      "மேலா": 3860,
      "மினே": 3861,
      "மிளை": 3862,
      "மில்லை": 3863,
      "மிக்கா": 3864,
      "னிர்": 3865,
      "னினே": 3866,
      "க்குழ": 3867,
      "சுந்தர": 3868,
      "தேம்": 3869,
      "ராது": 3870,
      "ற்றுத்": 3871,
      "வன்புல": 3872,
      "கோடை": 3873,
      "கோவூர்": 3874,
      "ணிந்த": 3875,
      "ட்டுத்": 3876,
      "பெருந": 3877,
      "பெருஞ்": 3878,
      "பெருந்": 3879,
      "பெருந்தகை": 3880,
      "சேவ": 3881,
      "ியாது": 3882,
      "மென்ற": 3883,
      "பூண்டு": 3884,
      "தென்று": 3885,
      "ந்திரன்": 3886,
      "ம்பல": 3887,
      "ம்பிய": 3888,
      "திருப்ப": 3889,
      "என்றி": 3890,
      "மொய்": 3891,
      "இருங்": 3892,
      "இருக்கி": 3893,
      "பேடை": 3894,
      "பேச்சு": 3895,
      "ரியல்": 3896,
      "ழைப்": 3897,
      "தலைக்": 3898,
      "வரைய": 3899,
      "வீசி": 3900,
      "கேண்": 3901,
      "மகர": 3902,
      "மகளை": 3903,
      "மகனார்": 3904,
      "ட்டிப்": 3905,
      "கண்ணனார்": 3906,
      "ஒருகால்": 3907,
      "எனச்": 3908,
      "இயல்த": 3909,
      "ண்கொ": 3910,
      "ெனத்": 3911,
      "கருங்கை": 3912,
      "பிறங்கு": 3913,
      "பொருநன்": 3914,
      "எம்மை": 3915,
      "றியு": 3916,
      "நுழை": 3917,
      "சீர": 3918,
      "சீறி": 3919,
      "யுடை": 3920,
      "நீர்ச்": 3921,
      "கலங்க": 3922,
      "ையுடை": 3923,
      "இரவலர்": 3924,
      "மடப்பிடி": 3925,
      "மையல்": 3926,
      "நிலைஇய": 3927,
      "போலவும்": 3928,
      "மீதே": 3929,
      "தன்னொடு": 3930,
      "மின்னு": 3931,
      "மாலைப்": 3932,
      "அறிந்த": 3933,
      "னென்னும்": 3934,
      "க்கைப்": 3935,
      "மதிள்": 3936,
      "னையோ": 3937,
      "ம்தான்": 3938,
      "கையின்": 3939,
      "ற்றாய்": 3940,
      "வோனே": 3941,
      "விருந்தி": 3942,
      "விருந்தா": 3943,
      "டியார்": 3944,
      "உருவ": 3945,
      "வண்ணன்": 3946,
      "கலிப்பா": 3947,
      "விடுத்த": 3948,
      "அதனில்": 3949,
      "அதனால்தான்": 3950,
      "பழன": 3951,
      "ப்பெரும்": 3952,
      "இலமே": 3953,
      "கரையது": 3954,
      "ந்தேலோர்": 3955,
      "ட்டால்": 3956,
      "ட்டார்": 3957,
      "மெய்ம்மை": 3958,
      "மதுர": 3959,
      "மதுசூ": 3960,
      "155": 3961,
      "வனத்தே": 3962,
      "பிரிந்த": 3963,
      "நகர்த்": 3964,
      "நாடுகிழ": 3965,
      "145": 3966,
      "பெரும்பா": 3967,
      "கிடக்கை": 3968,
      "சொல்லும்": 3969,
      "சொல்லிய": 3970,
      "லியர்": 3971,
      "ழ்கி": 3972,
      "அணு": 3973,
      "நூறு": 3974,
      "இறந்த": 3975,
      "செல்வன்": 3976,
      "பெருங்கல்": 3977,
      "பெருங்களி": 3978,
      "வெள்ளம்": 3979,
      "இவ்வளவு": 3980,
      "குலசே": 3981,
      "குறவர்": 3982,
      "வழங்கு": 3983,
      "செலவே": 3984,
      "ப்பொற்": 3985,
      "அளவு": 3986,
      "த்திரனார்": 3987,
      "பெறுக": 3988,
      "இந்தப்": 3989,
      "துஞ்சும்": 3990,
      "த்தொழி": 3991,
      "என்னாது": 3992,
      "நாட்டே": 3993,
      "நாட்டின்": 3994,
      "செறிந்த": 3995,
      "த்தனையும்": 3996,
      "அரங்கமா": 3997,
      "விரும்பு": 3998,
      "இறுத்த": 3999,
      "எவ்வம்": 4000,
      "மாலையும்": 4001,
      "புல்லென்": 4002,
      "அஞ்சுவன்": 4003,
      "எல்லே": 4004,
      "கடாநிலை": 4005,
      "ஆசிரியப்பா": 4006,
      "பகுதி": 4007,
      "கோவிந்தன்": 4008,
      "அடியார்": 4009,
      "பாவமே": 4010,
      "ஓம்புமின்": 4011,
      "துறுகல்": 4012,
      "புத்தூர்": 4013,
      "நாயினேன்": 4014,
      "போரேறே": 4015,
      "தெரிந்திலது": 4016,
      "நாரணன்": 4017,
      "ஒண்ணுதல்": 4018,
      "குடும்ப": 4019,
      "ர்தொடங்": 4020,
      "க்கோட்டியூர்": 4021,
      "ஏணிச்சேரி": 4022,
      "அல்க": 4023,
      "அடையா": 4024,
      "அஞ்சா": 4025,
      "அவரோ": 4026,
      "அசோதை": 4027,
      "ஆண": 4028,
      "ஆண்டா": 4029,
      "இமை": 4030,
      "இனம்": 4031,
      "உடம்": 4032,
      "உய்த்த": 4033,
      "எஞ்": 4034,
      "எனினே": 4035,
      "ஏழ்": 4036,
      "ஏங்கி": 4037,
      "ஒண்த": 4038,
      "கணி": 4039,
      "கத்தி": 4040,
      "கையில்": 4041,
      "கதிர": 4042,
      "சையா": 4043,
      "சரணம்": 4044,
      "டங்கு": 4045,
      "ணிய": 4046,
      "தது": 4047,
      "தப்ப": 4048,
      "தையும்": 4049,
      "நரி": 4050,
      "நங்கை": 4051,
      "நங்காய்": 4052,
      "னரே": 4053,
      "னத்துச்": 4054,
      "பரா": 4055,
      "மடு": 4056,
      "மலா": 4057,
      "மனார்": 4058,
      "மன்னா": 4059,
      "ய்கு": 4060,
      "யென": 4061,
      "யென்": 4062,
      "யொரு": 4063,
      "ரவே": 4064,
      "ரச்": 4065,
      "ரசு": 4066,
      "ரண்டு": 4067,
      "றூ": 4068,
      "றத்": 4069,
      "வந்தா": 4070,
      "வதை": 4071,
      "வனர்": 4072,
      "வகுத்த": 4073,
      "ுநர்": 4074,
      "ொளி": 4075,
      "ருத்தி": 4076,
      "ியோர்": 4077,
      "டுங்கோ": 4078,
      "க்கணி": 4079,
      "க்கவேண்டும்": 4080,
      "ையம்": 4081,
      "ையனே": 4082,
      "விம்": 4083,
      "துடை": 4084,
      "புண்": 4085,
      "புண்ட": 4086,
      "புக்கி": 4087,
      "வாசு": 4088,
      "வாடா": 4089,
      "பாண்டி": 4090,
      "திண்": 4091,
      "திரா": 4092,
      "திளை": 4093,
      "மாளி": 4094,
      "மாவும்": 4095,
      "மாமலர்": 4096,
      "மாற்றம்": 4097,
      "மாங்குடி": 4098,
      "முள": 4099,
      "முத்தி": 4100,
      "முற்றி": 4101,
      "முகில்": 4102,
      "குக": 4103,
      "குவி": 4104,
      "குழி": 4105,
      "குனி": 4106,
      "குப்பை": 4107,
      "சிதா": 4108,
      "சிவனே": 4109,
      "காய": 4110,
      "காக்க": 4111,
      "காற்": 4112,
      "காட்டிய": 4113,
      "காட்டும்": 4114,
      "ப்பள்ள": 4115,
      "ப்பற்றி": 4116,
      "றிந்து": 4117,
      "வேற்று": 4118,
      "வேதிய": 4119,
      "வேலன்": 4120,
      "கொங்க": 4121,
      "நாள": 4122,
      "போந்து": 4123,
      "போற்றிய": 4124,
      "பெறும்": 4125,
      "பொங்கு": 4126,
      "ண்ணீர்": 4127,
      "கில்ல": 4128,
      "யாண": 4129,
      "யாத": 4130,
      "யாவரும்": 4131,
      "யானையும்": 4132,
      "ற்றக்கு": 4133,
      "வெந்த": 4134,
      "வெயி": 4135,
      "வெங்": 4136,
      "வெஞ்சி": 4137,
      "வெல்க": 4138,
      "வெங்கா": 4139,
      "நீண்ட": 4140,
      "நீளி": 4141,
      "நீங்கு": 4142,
      "நீரே": 4143,
      "நீங்கிய": 4144,
      "ரைத்தான்": 4145,
      "நிகர்": 4146,
      "தோல்": 4147,
      "சுழ": 4148,
      "கோவலர்": 4149,
      "ர்தூ": 4150,
      "மைத்": 4151,
      "ணைப்": 4152,
      "வைப்": 4153,
      "வைத்": 4154,
      "த்திற்கும்": 4155,
      "லாளர்": 4156,
      "லாளன்": 4157,
      "பெருங்கு": 4158,
      "பெருமகன்": 4159,
      "சேம": 4160,
      "ியாத": 4161,
      "பூஞ்": 4162,
      "சாந்த": 4163,
      "தெழு": 4164,
      "தெரியும்": 4165,
      "தெரியா": 4166,
      "தெண்ணீர்": 4167,
      "தொல்லை": 4168,
      "திருமா": 4169,
      "மொன்று": 4170,
      "ஞ்சில்": 4171,
      "இருப்ப": 4172,
      "ஞ்சொ": 4173,
      "ஞ்சம்": 4174,
      "ரியு": 4175,
      "ரியின்": 4176,
      "க்கிக்": 4177,
      "கடமை": 4178,
      "ர்த்தா": 4179,
      "றாக": 4180,
      "தலைப்": 4181,
      "வீற்றி": 4182,
      "மருப்பு": 4183,
      "கேழல்": 4184,
      "ல்காள்": 4185,
      "வருந்திய": 4186,
      "ஒருவர்": 4187,
      "நோகோ": 4188,
      "பின்றை": 4189,
      "மூவனார்": 4190,
      "ர்க்கின்ற": 4191,
      "செய்வினை": 4192,
      "இயை": 4193,
      "சூடி": 4194,
      "ப்பிட": 4195,
      "வலிய": 4196,
      "றியேன்": 4197,
      "மொழிப்": 4198,
      "ங்காது": 4199,
      "பலரே": 4200,
      "ற்குத்": 4201,
      "கலந்த": 4202,
      "ளார்": 4203,
      "ச்சிக்": 4204,
      "தூங்கு": 4205,
      "அம்மூவனார்": 4206,
      "இரண்டும்": 4207,
      "மடநடை": 4208,
      "ழாஅ": 4209,
      "உள்ளா": 4210,
      "ம்கடி": 4211,
      "வல்சி": 4212,
      "களத்து": 4213,
      "லோயே": 4214,
      "புறவின்": 4215,
      "படூஉம்": 4216,
      "ச்சன்": 4217,
      "பரிசிலர்": 4218,
      "கண்டமென்னு": 4219,
      "யோயே": 4220,
      "ம்திரு": 4221,
      "களிற்று": 4222,
      "மார்பே": 4223,
      "ளிர்ப்ப": 4224,
      "ள்கொ": 4225,
      "வோரே": 4226,
      "வோயே": 4227,
      "நான்முக": 4228,
      "நான்மறை": 4229,
      "ட்கும்": 4230,
      "வரினும்": 4231,
      "வண்ணா": 4232,
      "முன்பின்": 4233,
      "சேர்ந்த": 4234,
      "அதனினும்": 4235,
      "புரையும்": 4236,
      "ப்போல்": 4237,
      "ஆகையால்": 4238,
      "மறுமொழி": 4239,
      "ெழுந்து": 4240,
      "வாழ்நர்": 4241,
      "மக்களின்": 4242,
      "கடைநிலை": 4243,
      "அம்மனே": 4244,
      "கழிந்த": 4245,
      "லையெ": 4246,
      "175": 4247,
      "165": 4248,
      "என்பதை": 4249,
      "அகன்ற": 4250,
      "மற்றே": 4251,
      "மழைக்கண்": 4252,
      "செம்மை": 4253,
      "180": 4254,
      "நடுவே": 4255,
      "இரும்பு": 4256,
      "விளைந்த": 4257,
      "நடந்த": 4258,
      "நறுந்தண்": 4259,
      "சூழ்ந்த": 4260,
      "திறம்": 4261,
      "செருவென்ற": 4262,
      "உணங்கல்": 4263,
      "வெள்ளா": 4264,
      "செலவு": 4265,
      "தேவகி": 4266,
      "பாய்ந்த": 4267,
      "உழவர்": 4268,
      "கவினே": 4269,
      "புணர்ந்து": 4270,
      "செங்கீரை": 4271,
      "நிறைந்த": 4272,
      "முனிவர்": 4273,
      "புள்ளும்": 4274,
      "கொற்றனார்": 4275,
      "நரகம்": 4276,
      "கூடந்": 4277,
      "மொழியும்": 4278,
      "வாழ்த்து": 4279,
      "முலையா": 4280,
      "இழந்த": 4281,
      "செந்நெ": 4282,
      "செந்நெல்": 4283,
      "நின்றாய்": 4284,
      "தெய்யோ": 4285,
      "தில்லைநகர்த்": 4286,
      "ஞெகிழ": 4287,
      "போதரா": 4288,
      "ஆடுகசெங்கீரை": 4289,
      "வழியே": 4290,
      "முறுவல்": 4291,
      "வேழம்": 4292,
      "பூம்பொழில்": 4293,
      "கண்கள்": 4294,
      "ம்கொற்றக்கு": 4295,
      "குன்றுகெழு": 4296,
      "கட்டுரை": 4297,
      "சென்மோ": 4298,
      "மென்னும்கொற்றக்கு": 4299,
      "முடியாது": 4300,
      "தோழீ": 4301,
      "மிடைந்த": 4302,
      "கொச்சகக்": 4303,
      "சார்ங்க": 4304,
      "திருச்சித்ர": 4305,
      "வணைப்பள்ள": 4306,
      "க்கண்டேன்": 4307,
      "பெறினே": 4308,
      "யெழுந்தரு": 4309,
      "பெருந்துறையான்": 4310,
      "மாக்கிணை": 4311,
      "தண்ணுமை": 4312,
      "செலினே": 4313,
      "பட்டர்பிரான்": 4314,
      "கோவர்த்தனமென்னும்கொற்றக்கு": 4315,
      "-....": 4316,
      "210": 4317,
      "220": 4318,
      "அந்": 4319,
      "அவு": 4320,
      "அங்கண்": 4321,
      "ஆரி": 4322,
      "ஆரும்": 4323,
      "ஆற்று": 4324,
      "ஆளு": 4325,
      "ஆஅய்": 4326,
      "இனை": 4327,
      "இகழ்": 4328,
      "ஈயும்": 4329,
      "உலோ": 4330,
      "ஊறு": 4331,
      "எழ": 4332,
      "எத்தி": 4333,
      "என்றா": 4334,
      "ஒன்ற": 4335,
      "ஒன்றே": 4336,
      "ஓரி": 4337,
      "ஓடா": 4338,
      "கச்சி": 4339,
      "கையு": 4340,
      "டல": 4341,
      "டனார்": 4342,
      "ணோ": 4343,
      "ணங்கு": 4344,
      "ணையா": 4345,
      "தடி": 4346,
      "தரா": 4347,
      "தண்டா": 4348,
      "தங்கிய": 4349,
      "நவி": 4350,
      "நன்றா": 4351,
      "நரம்": 4352,
      "நண்ணிய": 4353,
      "நக்கீ": 4354,
      "னங்கள்": 4355,
      "பிய": 4356,
      "பதே": 4357,
      "பஞ்ச": 4358,
      "பக்கம்": 4359,
      "மத்": 4360,
      "மரும்": 4361,
      "மன்றே": 4362,
      "மடுத்து": 4363,
      "ரைய": 4364,
      "ரத்": 4365,
      "ரசன்": 4366,
      "றன": 4367,
      "றக்": 4368,
      "றீரே": 4369,
      "லணி": 4370,
      "ளந்து": 4371,
      "ளங்": 4372,
      "வக்": 4373,
      "வதே": 4374,
      "வதன்": 4375,
      "வண்க": 4376,
      "வரியும்": 4377,
      "வதில்லை": 4378,
      "வர்தம்": 4379,
      "வக்கோட்": 4380,
      "ெட": 4381,
      "ெரி": 4382,
      "ொன்று": 4383,
      "ருவ": 4384,
      "ருவா": 4385,
      "ருடை": 4386,
      "ருளு": 4387,
      "ருளர்": 4388,
      "த்தலின்": 4389,
      "த்தோடு": 4390,
      "ங்களில்": 4391,
      "க்கன்": 4392,
      "க்கடி": 4393,
      "க்கண்டு": 4394,
      "க்கலாம்": 4395,
      "விது": 4396,
      "விச்": 4397,
      "வினில்": 4398,
      "விண்ணு": 4399,
      "துழ": 4400,
      "துள்ள": 4401,
      "துபன்ன": 4402,
      "புனி": 4403,
      "புணை": 4404,
      "புதிய": 4405,
      "வாலி": 4406,
      "வாயு": 4407,
      "வாயும்": 4408,
      "பாவி": 4409,
      "பாற்க": 4410,
      "பார்க்கும்": 4411,
      "மாச": 4412,
      "மாரு": 4413,
      "மாது": 4414,
      "மாக்": 4415,
      "மார்க": 4416,
      "முற்": 4417,
      "முத்தம்": 4418,
      "முயல்": 4419,
      "கும": 4420,
      "குட்ட": 4421,
      "குமே": 4422,
      "குன்றி": 4423,
      "குமணன்": 4424,
      "சிர": 4425,
      "சிந்தி": 4426,
      "காவலன்": 4427,
      "ப்பொடு": 4428,
      "டினும்": 4429,
      "றித்": 4430,
      "செயல்": 4431,
      "செத்தெனக்": 4432,
      "வேம்பின்": 4433,
      "ழிந்": 4434,
      "ரித்": 4435,
      "நாவி": 4436,
      "நாகு": 4437,
      "நாணு": 4438,
      "ர்கின்ற": 4439,
      "போதி": 4440,
      "போரா": 4441,
      "பெரியா": 4442,
      "ண்டின்": 4443,
      "பிரியா": 4444,
      "தாயினும்": 4445,
      "பொரி": 4446,
      "பொதும்": 4447,
      "கிற்": 4448,
      "கிழி": 4449,
      "கிலும்": 4450,
      "யாய": 4451,
      "யாக்கை": 4452,
      "யாவதும்": 4453,
      "வெந்து": 4454,
      "வெண்ட": 4455,
      "வெய்து": 4456,
      "நிரம்": 4457,
      "கூழை": 4458,
      "மேன்": 4459,
      "நெரி": 4460,
      "நெற்றி": 4461,
      "தோய்": 4462,
      "தோன்றா": 4463,
      "தோற்றம்": 4464,
      "ங்குழ": 4465,
      "லிப்பா": 4466,
      "மில": 4467,
      "மிழ": 4468,
      "மிடம்": 4469,
      "னிலை": 4470,
      "க்குறி": 4471,
      "சுரன்": 4472,
      "தேவன்": 4473,
      "ராயி": 4474,
      "நின்றான்": 4475,
      "கோட்டம்": 4476,
      "ர்தலை": 4477,
      "ளைச்": 4478,
      "த்திலும்": 4479,
      "த்திறம்": 4480,
      "லாப்": 4481,
      "ட்டுச்": 4482,
      "சேண்": 4483,
      "சேவக": 4484,
      "ியாம்": 4485,
      "மென்ன": 4486,
      "மெழி": 4487,
      "ற்றில்": 4488,
      "சாய": 4489,
      "சான்": 4490,
      "சாடி": 4491,
      "தென்ற": 4492,
      "தெண்கண்": 4493,
      "ந்திசி": 4494,
      "திருவே": 4495,
      "திருமுக": 4496,
      "மலன்": 4497,
      "மலையும்": 4498,
      "மலையி": 4499,
      "ஞ்சிறை": 4500,
      "இருக்கும்": 4501,
      "இருதுபன்ன": 4502,
      "பேகன்": 4503,
      "க்கிட": 4504,
      "க்கிப்": 4505,
      "க்கித்": 4506,
      "கடைய": 4507,
      "ன்னைப்": 4508,
      "வரின்": 4509,
      "வீதி": 4510,
      "மருங்குல்": 4511,
      "அருந்தொழில்": 4512,
      "கேடு": 4513,
      "கேழ்": 4514,
      "னுந்": 4515,
      "தன்மேல்": 4516,
      "டையில்": 4517,
      "வாய்வாள்": 4518,
      "வியு": 4519,
      "வியது": 4520,
      "வியின்": 4521,
      "த்தாழிசை": 4522,
      "நெடுநகர்": 4523,
      "கண்ணீ": 4524,
      "கண்ணகன்": 4525,
      "பின்னும்": 4526,
      "மூல": 4527,
      "ற்கொ": 4528,
      "ற்கோ": 4529,
      "ற்கொண்டு": 4530,
      "சூடு": 4531,
      "ணர்ந்த": 4532,
      "கருவி": 4533,
      "பிறந்து": 4534,
      "ப்பிற": 4535,
      "றியி": 4536,
      "யேனை": 4537,
      "யேனே": 4538,
      "பரப்பின்": 4539,
      "யுய்த்த": 4540,
      "ச்சினை": 4541,
      "வந்தன்று": 4542,
      "மன்னோ": 4543,
      "இரங்கு": 4544,
      "மடவரல்": 4545,
      "மணந்த": 4546,
      "மணற்": 4547,
      "விளங்கி": 4548,
      "விளக்கமும்": 4549,
      "உள்ளும்": 4550,
      "உள்ளத்து": 4551,
      "நம்ம": 4552,
      "நம்மூர்": 4553,
      "கெழ": 4554,
      "தன்னில்": 4555,
      "மின்றி": 4556,
      "மின்பதி": 4557,
      "சிறக்க": 4558,
      "அல்லமோ": 4559,
      "புறவே": 4560,
      "க்கொடி": 4561,
      "க்கொண்டி": 4562,
      "தனக்கு": 4563,
      "பைம்": 4564,
      "கண்டே": 4565,
      "கண்டும்": 4566,
      "யோரே": 4567,
      "ம்தரவே": 4568,
      "நிலையே": 4569,
      "குறுந்தொடி": 4570,
      "நான்கு": 4571,
      "கல்வி": 4572,
      "ட்கை": 4573,
      "ஆயிர": 4574,
      "கலித்தாழிசை": 4575,
      "இலங்கை": 4576,
      "புரத்தென்": 4577,
      "ணாயே": 4578,
      "ஆகக்": 4579,
      "200": 4580,
      "வெண்பூ": 4581,
      "வெண்மணல்": 4582,
      "அணிந்த": 4583,
      "மாயனே": 4584,
      "மறுமை": 4585,
      "ரணிய": 4586,
      "பிரிந்து": 4587,
      "நகரே": 4588,
      "அம்மம்தரவே": 4589,
      "விடலை": 4590,
      "நோக்கிக்": 4591,
      "கணபுரத்தென்": 4592,
      "கழிநெடில": 4593,
      "நலனே": 4594,
      "லையதே": 4595,
      "ீஇப்": 4596,
      "ண்ணார்": 4597,
      "மகிழ்நன்": 4598,
      "அந்தக்": 4599,
      "முரச": 4600,
      "முரண்": 4601,
      "பெரும்பெயர்": 4602,
      "சிலம்ப": 4603,
      "அகலம்": 4604,
      "ரங்கமே": 4605,
      "190": 4606,
      "நினைக்க": 4607,
      "புதுப்பு": 4608,
      "நடுங்க": 4609,
      "நடுநாள்": 4610,
      "இரும்பொறை": 4611,
      "நடந்து": 4612,
      "நடவானோ": 4613,
      "ஆயர்கள்": 4614,
      "குரலே": 4615,
      "உன்னைஅறிந்து": 4616,
      "பகலும்": 4617,
      "தேர்ந்து": 4618,
      "ஆடவர்": 4619,
      "செவ்வாய்": 4620,
      "பெருங்கடுங்கோ": 4621,
      "புன்புல": 4622,
      "அவினி": 4623,
      "பகைவர்": 4624,
      "அவ்வாறு": 4625,
      "உணர்ந்த": 4626,
      "அரும்படர்": 4627,
      "அரும்பெறல்": 4628,
      "மனைவி": 4629,
      "வீழ்ந்து": 4630,
      "பறவை": 4631,
      "கனவு": 4632,
      "றோம்": 4633,
      "வெள்வேல்": 4634,
      "தாமரைப்": 4635,
      "கரும்பு": 4636,
      "செல்லல்": 4637,
      "வேண்டினும்": 4638,
      "கூடலே": 4639,
      "காணாது": 4640,
      "எண்ணம்": 4641,
      "அரங்கத்தர": 4642,
      "நன்னாட்டுப்": 4643,
      "அருளிச்செய்த": 4644,
      "செவிலி": 4645,
      "தெய்வம்": 4646,
      "நொந்து": 4647,
      "வண்டின்": 4648,
      "கிளவி": 4649,
      "தென்னன்": 4650,
      "விண்ணப்பம்": 4651,
      "செய்கோ": 4652,
      "கொளீஇ": 4653,
      "எழிலி": 4654,
      "நினையா": 4655,
      "கூடிடு": 4656,
      "ஒழுகு": 4657,
      "பற்றையும்": 4658,
      "புகாள்": 4659,
      "ப்பொருள்": 4660,
      "தொண்டர்": 4661,
      "ஆடுகவே": 4662,
      "ஆடுகஆடுகவே": 4663,
      "கொண்கன்": 4664,
      "கோவிந்தா": 4665,
      "களுக்கு": 4666,
      "மள்ளர்": 4667,
      "உனக்குஅஞ்சுவன்": 4668,
      "முல்லையார்": 4669,
      "வைகறை": 4670,
      "கேட்ப": 4671,
      "மறையோர்": 4672,
      "ங்களையும்": 4673,
      "திருவடிகளே": 4674,
      "வேட்கை": 4675,
      "அனைத்து": 4676,
      "கொச்சகக்க": 4677,
      "பீடுகெழு": 4678,
      "அள்ளூர்": 4679,
      "வெரூஉம்": 4680,
      "பெருஞ்சித்திரனார்": 4681,
      "தியேல்": 4682,
      "--------------": 4683,
      "ஆர்கலி": 4684,
      "வெல்போர்": 4685,
      "இன்னிசை": 4686,
      "விற்றுவக்கோட்": 4687,
      "விட்டிடுதி": 4688,
      "திருவள்ளுவர்": 4689,
      "தலையாலங்கா": 4690,
      "ணாசலத்திற்": 4691,
      "தளர்நடைநடவானோ": 4692,
      "ம்கடிநகரே": 4693,
      "கண்டமென்னும்கடிநகரே": 4694,
      "தோழீநான்": 4695,
      "கோவர்த்தனமென்னும்கொற்றக்குடையே": 4696,
      "மின்பதிப்பு": 4697,
      "கழிநெடிலடி": 4698,
      "உன்னைஅறிந்துகொண்டேன்": 4699,
      "அரங்கத்தரவணைப்பள்ள": 4700,
      "உனக்குஅஞ்சுவன்அம்மம்தரவே": 4701,
      "கொச்சகக்கலிப்பா": 4702,
      "தலையாலங்கானத்துச்": 4703,
      "215": 4704,
      "230": 4705,
      "225": 4706,
      "51": 4707,
      "52": 4708,
      "?-": 4709,
      "Ba": 4710,
      "ck": 4711,
      "அஞ்": 4712,
      "அல்லா": 4713,
      "அறா": 4714,
      "அவரு": 4715,
      "அவல": 4716,
      "அச்ச": 4717,
      "அந்தோ": 4718,
      "அண்ணா": 4719,
      "அத்தன்": 4720,
      "அற்றே": 4721,
      "ஆண்டி": 4722,
      "ஆதியா": 4723,
      "இட்டு": 4724,
      "இன்றே": 4725,
      "ஈதல்": 4726,
      "ஈண்டி": 4727,
      "ஈண்டிய": 4728,
      "உடு": 4729,
      "உது": 4730,
      "உடல்": 4731,
      "உயர": 4732,
      "உடையாய்": 4733,
      "எட்டு": 4734,
      "எண்ணா": 4735,
      "எப்படி": 4736,
      "ஏற்": 4737,
      "ஐது": 4738,
      "ஒண்ட": 4739,
      "ஒள்த": 4740,
      "ஒன்றோ": 4741,
      "ஒன்ப": 4742,
      "கவா": 4743,
      "கன்ற": 4744,
      "கமே": 4745,
      "கற்று": 4746,
      "கையா": 4747,
      "டங்க": 4748,
      "தப்": 4749,
      "தக்": 4750,
      "தவள": 4751,
      "தங்கை": 4752,
      "நரும்": 4753,
      "நணி": 4754,
      "நமன்": 4755,
      "நல்த": 4756,
      "நடைப்": 4757,
      "னூ": 4758,
      "பனை": 4759,
      "பல்க": 4760,
      "பன்னி": 4761,
      "பச்சை": 4762,
      "மடிய": 4763,
      "மந்": 4764,
      "மகட": 4765,
      "மண்ணும்": 4766,
      "யீ": 4767,
      "யத்": 4768,
      "யேன்": 4769,
      "யனார்": 4770,
      "யசோதை": 4771,
      "ரச": 4772,
      "ரர்": 4773,
      "ரவு": 4774,
      "ரவின்": 4775,
      "றப்": 4776,
      "றத்த": 4777,
      "றைய": 4778,
      "றந்து": 4779,
      "லன்ன": 4780,
      "ளக்": 4781,
      "ளனை": 4782,
      "ளையும்": 4783,
      "ளவும்": 4784,
      "ளோடு": 4785,
      "வங்க": 4786,
      "வறி": 4787,
      "வள்ளி": 4788,
      "வல்லி": 4789,
      "வள்ளை": 4790,
      "வர்க்கும்": 4791,
      "ஷ்": 4792,
      "ுமோ": 4793,
      "ூழ்": 4794,
      "ெம்": 4795,
      "ெடுத்து": 4796,
      "ேலோர்": 4797,
      "ோடி": 4798,
      "்கும்": 4799,
      "ந்தல்": 4800,
      "ந்ததன்": 4801,
      "ந்தீப": 4802,
      "ியர்": 4803,
      "த்தையும்": 4804,
      "த்தனன்": 4805,
      "ங்க்": 4806,
      "ங்கன்": 4807,
      "க்கட": 4808,
      "க்கெ": 4809,
      "றுங்": 4810,
      "விடிய": 4811,
      "விற்கு": 4812,
      "விடர்": 4813,
      "துடி": 4814,
      "துண்ட": 4815,
      "துன்ப": 4816,
      "புரா": 4817,
      "புதை": 4818,
      "புல்லி": 4819,
      "வாண்": 4820,
      "வாட்ட": 4821,
      "வானி": 4822,
      "வாதே": 4823,
      "வாரண": 4824,
      "வார்கு": 4825,
      "பாறு": 4826,
      "பாயல்": 4827,
      "பாம்பின்": 4828,
      "பாசிலை": 4829,
      "திப்": 4830,
      "திகை": 4831,
      "திறல்": 4832,
      "மாற": 4833,
      "மாவே": 4834,
      "மாயி": 4835,
      "மாட்டா": 4836,
      "மாலைய": 4837,
      "மாகில்": 4838,
      "மாமைக்": 4839,
      "ட்பின்": 4840,
      "முளி": 4841,
      "முதை": 4842,
      "முதம்": 4843,
      "முன்றி": 4844,
      "முகிழ்": 4845,
      "குழு": 4846,
      "குரை": 4847,
      "குணம்": 4848,
      "காதை": 4849,
      "ப்பணி": 4850,
      "செம்ப": 4851,
      "வேளை": 4852,
      "வேடன்": 4853,
      "ரிப்": 4854,
      "கொம்பு": 4855,
      "நால்": 4856,
      "நாளு": 4857,
      "ர்கள்த": 4858,
      "போக்கு": 4859,
      "போதார்": 4860,
      "பெற்": 4861,
      "பெற்றிய": 4862,
      "ன்றூர்": 4863,
      "தாங்க": 4864,
      "தாளி": 4865,
      "தாரா": 4866,
      "தாங்கி": 4867,
      "தாங்கிய": 4868,
      "பொய்த்த": 4869,
      "பொன்னு": 4870,
      "பொத்தியார்": 4871,
      "கிர்": 4872,
      "யாதும்": 4873,
      "யாயினும்": 4874,
      "டைந்து": 4875,
      "டைந்தான்": 4876,
      "ற்றம்ப": 4877,
      "வெறிய": 4878,
      "வெண்ணி": 4879,
      "னாம்": 4880,
      "னார்க்கு": 4881,
      "நீதி": 4882,
      "நிதி": 4883,
      "கூர": 4884,
      "கூத்த": 4885,
      "கூட்ட": 4886,
      "கூடும்": 4887,
      "மேக": 4888,
      "மேல": 4889,
      "மேலே": 4890,
      "மேய்ந்த": 4891,
      "மேய்த்து": 4892,
      "தோளி": 4893,
      "தோறும்": 4894,
      "மிக்கு": 4895,
      "மில்லா": 4896,
      "மிளிர்": 4897,
      "னிரு": 4898,
      "தேற": 4899,
      "தேறி": 4900,
      "தேனே": 4901,
      "ள்ளா": 4902,
      "ள்ளே": 4903,
      "ராக": 4904,
      "ராம": 4905,
      "நின்னு": 4906,
      "வுரு": 4907,
      "ணைக்": 4908,
      "த்திட்டு": 4909,
      "த்திற்கு": 4910,
      "பெருமானே": 4911,
      "பெருந்தோள்": 4912,
      "சேட்": 4913,
      "ியானை": 4914,
      "மெய்த்த": 4915,
      "பூவை": 4916,
      "பூம்பு": 4917,
      "ல்லார்": 4918,
      "தெள்ள": 4919,
      "தெளிர்ப்ப": 4920,
      "ந்தினை": 4921,
      "ந்திட்ட": 4922,
      "தொல்ல": 4923,
      "திருந்தி": 4924,
      "திருப்பா": 4925,
      "திருச்ச": 4926,
      "பாடலும்": 4927,
      "இருநில": 4928,
      "ந்தானே": 4929,
      "பேரா": 4930,
      "க்கினேன்": 4931,
      "கடம்": 4932,
      "கடனே": 4933,
      "ப்புண்": 4934,
      "ப்புலி": 4935,
      "தீது": 4936,
      "வரம்": 4937,
      "வரப்": 4938,
      "வரவே": 4939,
      "வரகின்": 4940,
      "மருக": 4941,
      "மருத்து": 4942,
      "மருந்": 4943,
      "அருளு": 4944,
      "அருளும்": 4945,
      "கேளிர்": 4946,
      "வளைய": 4947,
      "சொன்னால்": 4948,
      "ல்கண்": 4949,
      "ல்கெழு": 4950,
      "வ்வே": 4951,
      "வியை": 4952,
      "த்தானே": 4953,
      "கண்ணகி": 4954,
      "வருத்த": 4955,
      "வருமே": 4956,
      "வருணை": 4957,
      "வருவது": 4958,
      "நோக்கின்": 4959,
      "பின்ன": 4960,
      "மூன்ற": 4961,
      "ப்பாடி": 4962,
      "இயம்ப": 4963,
      "ண்கள்": 4964,
      "சூழ்க": 4965,
      "புலத்து": 4966,
      "புலர்ந்து": 4967,
      "கருமணியே": 4968,
      "லுற்ற": 4969,
      "அரண்": 4970,
      "எம்மூர்": 4971,
      "வலின்": 4972,
      "தம்மை": 4973,
      "தம்அன்னை": 4974,
      "சிறுவன்": 4975,
      "சிறுதினை": 4976,
      "பரத்தை": 4977,
      "வந்தனென்": 4978,
      "தூங்க": 4979,
      "ையுஞ்": 4980,
      "ையுந்": 4981,
      "மன்னி": 4982,
      "காணும்": 4983,
      "இரவு": 4984,
      "ழாம்": 4985,
      "புகழா": 4986,
      "மையோ": 4987,
      "கெட": 4988,
      "நிலைமண்டி": 4989,
      "வல்வினை": 4990,
      "அன்னோ": 4991,
      "அல்லனோ": 4992,
      "மணிப்பூ": 4993,
      "னோரே": 4994,
      "மலர்ச்": 4995,
      "அவைய": 4996,
      "நன்முல்லையார்": 4997,
      "தனரே": 4998,
      "கண்டீரே": 4999,
      "ளுக்": 5000,
      "நின்றேன்": 5001,
      "எழுந்த": 5002,
      "த்தேர்": 5003,
      "ம்து": 5004,
      "ம்தரு": 5005,
      "நிலவு": 5006,
      "நிலையில்": 5007,
      "குறுகி": 5008,
      "ற்றால்": 5009,
      "வம்மோ": 5010,
      "வரில்": 5011,
      "வரிசை": 5012,
      "கானத்து": 5013,
      "இளமை": 5014,
      "கடுங்கண்": 5015,
      "ல்து": 5016,
      "உருப்ப": 5017,
      "முன்பு": 5018,
      "யென்ன": 5019,
      "வதுகொல்": 5020,
      "சேர்ப்பன்": 5021,
      "ப்பெற்ற": 5022,
      "இலங்க": 5023,
      "தமிழன்": 5024,
      "தமிழர்கள்": 5025,
      "வல்லரே": 5026,
      "ப்போக்கினேன்": 5027,
      "நளனது": 5028,
      "ஆகவே": 5029,
      "ஆகவும்": 5030,
      "இன்மை": 5031,
      "நேச": 5032,
      "அன்பின்": 5033,
      "குருகு": 5034,
      "பெயர": 5035,
      "பொன்செய்": 5036,
      "கின்றன": 5037,
      "ொருவன்": 5038,
      "வானவர்": 5039,
      "ஆர்வ": 5040,
      "ண்தி": 5041,
      "மனத்தே": 5042,
      "வனொடு": 5043,
      "பிரிவு": 5044,
      "பிரிந்தோர்": 5045,
      "குழல்க": 5046,
      "கணவன்": 5047,
      "கழிந்து": 5048,
      "ின்றேன்": 5049,
      "அந்தர": 5050,
      "செல்வமும்": 5051,
      "மற்றும்": 5052,
      "வர்களும்": 5053,
      "வர்களின்": 5054,
      "வர்களுக்கு": 5055,
      "செம்மல": 5056,
      "செம்மல்": 5057,
      "195": 5058,
      "பருவம்": 5059,
      "நெஞ்சமே": 5060,
      "இரும்புலி": 5061,
      "அறுக்கும்": 5062,
      "அறுசீர்க்கழிநெடிலடியாசிரியவிருத்தம்": 5063,
      "நறுங்": 5064,
      "சூழ்ந்து": 5065,
      "காலைப்": 5066,
      "பகர்": 5067,
      "தன்னைப்": 5068,
      "பண்பு": 5069,
      "பண்பி": 5070,
      "போர்வை": 5071,
      "இவ்வாறு": 5072,
      "நயந்த": 5073,
      "வணங்கி": 5074,
      "அடுக்க": 5075,
      "அமைந்த": 5076,
      "புரிந்து": 5077,
      "முழவின்": 5078,
      "ீபஞ்": 5079,
      "விறற்": 5080,
      "விறலி": 5081,
      "இறைவன்": 5082,
      "ந்தலைச்": 5083,
      "வினவு": 5084,
      "பொலிக": 5085,
      "தியால்": 5086,
      "முடியுமா": 5087,
      "புள்ளின்": 5088,
      "முழுதும்": 5089,
      "அடைகரை": 5090,
      "விசும்பி": 5091,
      "நரம்பின்": 5092,
      "வாழ்த்தியல்": 5093,
      "காணாய்": 5094,
      "தோன்றினும்": 5095,
      "புணரி": 5096,
      "செந்நா": 5097,
      "பொழிந்த": 5098,
      "நின்றார்": 5099,
      "நின்னொடு": 5100,
      "தமயந்தியை": 5101,
      "உண்டோ": 5102,
      "ச்சியர்": 5103,
      "கழுநீர்": 5104,
      "அளியர்": 5105,
      "நல்கிய": 5106,
      "இருக்கையும்": 5107,
      "டேமே": 5108,
      "வெண்ணெல்": 5109,
      "சோணகிரி": 5110,
      "வெற்பிற்": 5111,
      "நோன்தாள்": 5112,
      "பங்கய": 5113,
      "செல்லாது": 5114,
      "அவிழ்ந்த": 5115,
      "ஆட்கொ": 5116,
      "உரிமை": 5117,
      "எல்லாரும்": 5118,
      "கொண்கநின்": 5119,
      "மருங்கில்": 5120,
      "அரைசு": 5121,
      "தண்துறை": 5122,
      "வலம்புரி": 5123,
      "நிமிர்": 5124,
      "கஞ்சன்": 5125,
      "சுமந்த": 5126,
      "சுமந்து": 5127,
      "எத்தனை": 5128,
      "தோழியென்": 5129,
      "பூங்குழ": 5130,
      "வினையேன்": 5131,
      "வைகுந்த": 5132,
      "ஒருங்குடன்": 5133,
      "ண்கிணி": 5134,
      "ஒவ்வொரு": 5135,
      "ழையீர்": 5136,
      "திருச்சிற்றம்ப": 5137,
      "முலையுணாயே": 5138,
      "பெருங்காஞ்சி": 5139,
      "========": 5140,
      "மஞ்சன": 5141,
      "தாமோதர": 5142,
      "க்கண்ணனார்": 5143,
      "ஐம்புலன்": 5144,
      "இன்னுயிர்": 5145,
      "பரதவர்": 5146,
      "தமிழரிடையே": 5147,
      "பட்டினம்கா": 5148,
      "இடும்பை": 5149,
      "ிடுமின்": 5150,
      "எல்லேபாவமே": 5151,
      "சிதாஅர்": 5152,
      "லையெந்தாய்": 5153,
      "நரகம்புகாள்": 5154,
      "போதராயே": 5155,
      "அரங்கத்தரவணைப்பள்ளியானே": 5156,
      "Back": 5157,
      "தம்அன்னைநரகம்புகாள்": 5158,
      "நிலைமண்டில": 5159,
      "திருச்சிற்றம்பலம்": 5160,
      ").": 5161,
      "53": 5162,
      "54": 5163,
      "61": 5164,
      "62": 5165,
      "63": 5166,
      "64": 5167,
      "71": 5168,
      "72": 5169,
      "73": 5170,
      "74": 5171,
      "81": 5172,
      "82": 5173,
      "83": 5174,
      "84": 5175,
      "91": 5176,
      "92": 5177,
      "93": 5178,
      "94": 5179,
      "96": 5180,
      "98": 5181,
      "99": 5182,
      "அள்": 5183,
      "அப்பா": 5184,
      "அயர்": 5185,
      "அல்லி": 5186,
      "அத்தம்": 5187,
      "ஆன்": 5188,
      "ஆண்": 5189,
      "ஆவி": 5190,
      "ஆனை": 5191,
      "ஆலி": 5192,
      "ஆக்கு": 5193,
      "ஆம்ப": 5194,
      "ஆறா": 5195,
      "ஆட்டி": 5196,
      "ஆவது": 5197,
      "ஆர்த்து": 5198,
      "ஆவூர்": 5199,
      "இந்து": 5200,
      "இப்போது": 5201,
      "இந்திரன்": 5202,
      "ஈகைக்": 5203,
      "உத்த": 5204,
      "உலை": 5205,
      "உழி": 5206,
      "உடையா": 5207,
      "உபதே": 5208,
      "ஊர்ந்த": 5209,
      "எனா": 5210,
      "எயில்": 5211,
      "எல்வளை": 5212,
      "ஏன": 5213,
      "ஏழ": 5214,
      "ஐந்து": 5215,
      "ஒன்றா": 5216,
      "ஒலிய": 5217,
      "ஓய்": 5218,
      "ஓசை": 5219,
      "ஓதை": 5220,
      "கஞ்": 5221,
      "கறை": 5222,
      "கற்றி": 5223,
      "கையி": 5224,
      "கென": 5225,
      "கவின்": 5226,
      "கவரி": 5227,
      "கற்ப": 5228,
      "கன்னிய": 5229,
      "சந்": 5230,
      "சியும்": 5231,
      "சையின்": 5232,
      "தந்": 5233,
      "தழை": 5234,
      "தடம்": 5235,
      "நரை": 5236,
      "நங்": 5237,
      "நடைய": 5238,
      "நள்ளி": 5239,
      "நச்சு": 5240,
      "னன்ன": 5241,
      "னங்": 5242,
      "னரங்க": 5243,
      "பயில்": 5244,
      "பற்ப": 5245,
      "பன்னாள்": 5246,
      "மந்த": 5247,
      "மழி": 5248,
      "மத்து": 5249,
      "மளி": 5250,
      "மங்": 5251,
      "மட்டு": 5252,
      "மணர்": 5253,
      "யன": 5254,
      "ரடி": 5255,
      "ரமும்": 5256,
      "றின்": 5257,
      "றவு": 5258,
      "லீ": 5259,
      "லக்": 5260,
      "லடி": 5261,
      "லத்தி": 5262,
      "லையும்": 5263,
      "லகம்": 5264,
      "ளீ": 5265,
      "ள்கு": 5266,
      "ளருவி": 5267,
      "வக்க": 5268,
      "வதி": 5269,
      "வத்து": 5270,
      "வற்ற": 5271,
      "வர்த": 5272,
      "வலும்": 5273,
      "வல்லை": 5274,
      "வச்சி": 5275,
      "வனைக்": 5276,
      "வனைப்": 5277,
      "வந்தாய்": 5278,
      "வதியும்": 5279,
      "ீர்த்த": 5280,
      "ெய்": 5281,
      "ெயிற்று": 5282,
      "ேனே": 5283,
      "ோரும்": 5284,
      "ருவம்": 5285,
      "த்தரு": 5286,
      "த்தகு": 5287,
      "த்தேன்": 5288,
      "டுங்": 5289,
      "ங்கர்": 5290,
      "க்கள்": 5291,
      "க்கச்": 5292,
      "க்கரை": 5293,
      "க்களை": 5294,
      "க்கண்டா": 5295,
      "வித்தி": 5296,
      "வினும்": 5297,
      "வில்லா": 5298,
      "விரிய": 5299,
      "விழை": 5300,
      "விடைய": 5301,
      "வின்றி": 5302,
      "விண்த": 5303,
      "விதர்": 5304,
      "துவை": 5305,
      "துன்னி": 5306,
      "புன்ற": 5307,
      "புடைய": 5308,
      "வாக்": 5309,
      "வானை": 5310,
      "வானே": 5311,
      "வானு": 5312,
      "வாய்க": 5313,
      "வாளா": 5314,
      "வாணு": 5315,
      "வாரணம்": 5316,
      "வாய்தி": 5317,
      "பாலி": 5318,
      "பாலும்": 5319,
      "பாணா": 5320,
      "திண்ண": 5321,
      "தித்தி": 5322,
      "திரே": 5323,
      "திரிய": 5324,
      "மாற்று": 5325,
      "மாலே": 5326,
      "மாற்றா": 5327,
      "மாந்தர": 5328,
      "முதே": 5329,
      "முனைய": 5330,
      "குடைய": 5331,
      "குன்றே": 5332,
      "சில்ல": 5333,
      "சிவந்த": 5334,
      "காத்த": 5335,
      "காப்ப": 5336,
      "காயா": 5337,
      "காவு": 5338,
      "கார்தொடங்": 5339,
      "ப்பற்று": 5340,
      "ப்படும்": 5341,
      "றிச்": 5342,
      "றித்து": 5343,
      "றிவுற": 5344,
      "செத்து": 5345,
      "செஞ்சு": 5346,
      "செழும்": 5347,
      "செலினும்": 5348,
      "ழிக்": 5349,
      "ரிந்து": 5350,
      "ரிகை": 5351,
      "கொய்த": 5352,
      "கொல்லி": 5353,
      "நார்": 5354,
      "நாற்ற": 5355,
      "நாளை": 5356,
      "நாட்டா": 5357,
      "ர்களும்": 5358,
      "ர்கொண்டு": 5359,
      "போன்": 5360,
      "போகு": 5361,
      "போலி": 5362,
      "போல்வ": 5363,
      "போகம்": 5364,
      "போற்றா": 5365,
      "போதில்": 5366,
      "த்துணை": 5367,
      "னைப்பாடிப்பற": 5368,
      "ண்டம்": 5369,
      "தாட": 5370,
      "தாவது": 5371,
      "பொர": 5372,
      "பொடி": 5373,
      "பொறா": 5374,
      "ளிக்": 5375,
      "கிக்": 5376,
      "கிடை": 5377,
      "யாதே": 5378,
      "யாமும்": 5379,
      "யாவது": 5380,
      "யார்கொல்": 5381,
      "ற்றொடு": 5382,
      "வெஞ்": 5383,
      "வெயில்": 5384,
      "வெளிய": 5385,
      "வெட்சி": 5386,
      "னாட்டு": 5387,
      "னாலும்": 5388,
      "னார்கள்": 5389,
      "றைநின்றாய்": 5390,
      "நீரி": 5391,
      "நீரில்": 5392,
      "நிவந்த": 5393,
      "நிணம்": 5394,
      "ழ்ந்த": 5395,
      "மேன": 5396,
      "மேய்": 5397,
      "மேந்து": 5398,
      "மேனிய": 5399,
      "ன்றுபட்டினம்கா": 5400,
      "தோகை": 5401,
      "ங்குவளை": 5402,
      "லிப்": 5403,
      "மிலை": 5404,
      "மினோ": 5405,
      "மிசைய": 5406,
      "க்குமா": 5407,
      "க்குடி": 5408,
      "சுனை": 5409,
      "சுவல்": 5410,
      "தேடி": 5411,
      "தேரும்": 5412,
      "ராதே": 5413,
      "நின்னே": 5414,
      "கைக்கி": 5415,
      "ற்றுப்படை": 5416,
      "கோட": 5417,
      "வுந்": 5418,
      "வைக்கு": 5419,
      "வைத்துக்": 5420,
      "த்தினும்": 5421,
      "லாய": 5422,
      "லாமே": 5423,
      "பெருவிறல்": 5424,
      "சேய": 5425,
      "சேஎய்": 5426,
      "ியாதன்": 5427,
      "ற்றிப்": 5428,
      "பூட்டி": 5429,
      "சாதிய": 5430,
      "சாய்த்து": 5431,
      "சாரற்": 5432,
      "தென்னா": 5433,
      "திருக்க": 5434,
      "ரேன்": 5435,
      "ோன்றி": 5436,
      "ஞ்சிறு": 5437,
      "இருநிலம்": 5438,
      "இருடீ": 5439,
      "ந்தாது": 5440,
      "ந்தாரை": 5441,
      "ஞ்சமம்": 5442,
      "பேசா": 5443,
      "ரியேன்": 5444,
      "ங்கின": 5445,
      "ங்கில்": 5446,
      "ங்கிற்": 5447,
      "ழைத்த": 5448,
      "ப்புள்": 5449,
      "தீமே": 5450,
      "தலைப்பெ": 5451,
      "வீழ்த": 5452,
      "வீழ்த்த": 5453,
      "வீமரா": 5454,
      "மருவு": 5455,
      "அருங்": 5456,
      "அருளா": 5457,
      "அருவரை": 5458,
      "அருளாய்": 5459,
      "கேளே": 5460,
      "மகனை": 5461,
      "வளர்ந்த": 5462,
      "சொற்": 5463,
      "தன்றி": 5464,
      "சோறும்": 5465,
      "வியே": 5466,
      "கண்ணும்": 5467,
      "கண்ணனை": 5468,
      "கண்ணனே": 5469,
      "வருதி": 5470,
      "நோக்கும்": 5471,
      "ெனின்": 5472,
      "கருங்க": 5473,
      "லுமே": 5474,
      "பிறவா": 5475,
      "பிறப்பு": 5476,
      "தோழிநம்": 5477,
      "ர்க்குத்": 5478,
      "அரவின்": 5479,
      "ங்காள்": 5480,
      "மரல்": 5481,
      "மரர்": 5482,
      "மரீஇய": 5483,
      "மரபிற்": 5484,
      "செய்தா": 5485,
      "செய்தது": 5486,
      "க்கான்": 5487,
      "க்காள்": 5488,
      "பரமன்": 5489,
      "பரம்பர": 5490,
      "பலவும்": 5491,
      "பலவுடன்": 5492,
      "யுல": 5493,
      "யுடைய": 5494,
      "தூது": 5495,
      "மன்னவன்": 5496,
      "மலைப்": 5497,
      "டாதே": 5498,
      "குறிப்பி": 5499,
      "காண்த": 5500,
      "காணின்": 5501,
      "காணீர்": 5502,
      "மடந்த": 5503,
      "104": 5504,
      "தமிழில்": 5505,
      "புகழும்": 5506,
      "விளங்கிய": 5507,
      "உள்ளார்": 5508,
      "ம்கூ": 5509,
      "ம்கொல்": 5510,
      "மையன்": 5511,
      "மையனே": 5512,
      "களின்": 5513,
      "மீமிசை": 5514,
      "அறியார்": 5515,
      "கொண்டது": 5516,
      "அல்லேம்": 5517,
      "புறத்": 5518,
      "புறங்": 5519,
      "படையும்": 5520,
      "மாலைச்": 5521,
      "அவன": 5522,
      "ச்சனார்": 5523,
      "பைங்கி": 5524,
      "பைதல்": 5525,
      "னெறி": 5526,
      "னெஞ்சே": 5527,
      "எழுது": 5528,
      "எழுந்தி": 5529,
      "உலகி": 5530,
      "கியரோ": 5531,
      "ம்தொ": 5532,
      "ம்தம்": 5533,
      "களிற": 5534,
      "களிறும்": 5535,
      "ள்கள்": 5536,
      "கானத்": 5537,
      "சென்றோர்": 5538,
      "இளங்க": 5539,
      "இளமுலை": 5540,
      "ஆயிரம்": 5541,
      "கடுப்ப": 5542,
      "ல்தி": 5543,
      "பாடிக்": 5544,
      "கிழவோன்": 5545,
      "இலனே": 5546,
      "புரைய": 5547,
      "உறந்தை": 5548,
      "திரள்": 5549,
      "நளனை": 5550,
      "இன்பம்": 5551,
      "205": 5552,
      "அன்ப": 5553,
      "அன்பி": 5554,
      "விரித்த": 5555,
      "பெயர்த": 5556,
      "பாலைபாடிய": 5557,
      "மறுகின்": 5558,
      "ொருகால்": 5559,
      "வானோர்": 5560,
      "வேறுபாடும்": 5561,
      "வனப்பு": 5562,
      "கீர": 5563,
      "கீர்த்தி": 5564,
      "நகர்க்": 5565,
      "தரவண": 5566,
      "லையோ": 5567,
      "ீஇக்": 5568,
      "க்கோல்": 5569,
      "கொள்ளு": 5570,
      "தடவரை": 5571,
      "வர்கொல்": 5572,
      "விழுங்கி": 5573,
      "185": 5574,
      "இன்னம்": 5575,
      "வாழ்கின்ற": 5576,
      "புதுவைய": 5577,
      "நடுங்கு": 5578,
      "நடுகல்": 5579,
      "காதலன்": 5580,
      "தண்பணை": 5581,
      "தண்புனல்": 5582,
      "இரும்பேர்": 5583,
      "புகழ்ந்த": 5584,
      "புகழ்சால்": 5585,
      "240": 5586,
      "களைப்": 5587,
      "பீதக": 5588,
      "ஆயமொடு": 5589,
      "திறவாய்": 5590,
      "ரெதிர்": 5591,
      "மாய்ந்": 5592,
      "கண்ணிப்": 5593,
      "முடித்த": 5594,
      "முதற்": 5595,
      "உன்னைப்": 5596,
      "தென்திருமாலிருஞ்சோ": 5597,
      "விரைந்தே": 5598,
      "பெருங்கடல்": 5599,
      "ஒளித்தும்": 5600,
      "பண்பே": 5601,
      "பண்பின்": 5602,
      "முயங்க": 5603,
      "முயங்கி": 5604,
      "வெள்ளறைநின்றாய்": 5605,
      "வயங்கு": 5606,
      "வயமான்": 5607,
      "பணிந்து": 5608,
      "துறந்த": 5609,
      "தனித்த": 5610,
      "வணங்கு": 5611,
      "அழிந்து": 5612,
      "ஆய்ச்சி": 5613,
      "திரிதரு": 5614,
      "விரவு": 5615,
      "தேவர்கள்": 5616,
      "ய்க்கே": 5617,
      "அரும்பு": 5618,
      "பற்றிப்": 5619,
      "உரவோர்": 5620,
      "விலக்கி": 5621,
      "புரிசை": 5622,
      "வாயின": 5623,
      "முதல்வன்": 5624,
      "வடக்கி": 5625,
      "மிகுந்த": 5626,
      "மிகுதியா": 5627,
      "த்தியர்": 5628,
      "தமிழ்நாட்டில்": 5629,
      "னென்ப": 5630,
      "கொள்கையின்": 5631,
      "புணர்ந்த": 5632,
      "பொலிந்து": 5633,
      "மலிந்த": 5634,
      "லென்று": 5635,
      "ஐயூர்": 5636,
      "தாமரைக்": 5637,
      "தெரிந்த": 5638,
      "வாழியே": 5639,
      "வாழியர்": 5640,
      "மயிற்": 5641,
      "விழவு": 5642,
      "பெறூஉம்": 5643,
      "ற்றைத்": 5644,
      "அரங்கத்தம்": 5645,
      "நன்னாகையார்": 5646,
      "ியுறு": 5647,
      "ஆண்டுகொண்ட": 5648,
      "உவப்ப": 5649,
      "உயிர்க்கும்": 5650,
      "பண்டை": 5651,
      "பண்டன்றுபட்டினம்கா": 5652,
      "அளித்த": 5653,
      "அளிதோ": 5654,
      "இறுக்கும்": 5655,
      "அயலது": 5656,
      "மல்லல்": 5657,
      "கறங்க": 5658,
      "புதல்வர்": 5659,
      "தொடலை": 5660,
      "கடியும்": 5661,
      "மதியம்": 5662,
      "நினக்கே": 5663,
      "வூர்கிழார்": 5664,
      "தாழ்ந்த": 5665,
      "அத்தகைய": 5666,
      "துயில": 5667,
      "வெற்பி": 5668,
      "விளையாடு": 5669,
      "செய்கு": 5670,
      "பயன்படு": 5671,
      "ஆட்கொண்டு": 5672,
      "இழிதரும்": 5673,
      "தண்கமழ்": 5674,
      "பிரம": 5675,
      "ஞாலத்து": 5676,
      "இங்கேவாராய்": 5677,
      "இங்கேபோதராயே": 5678,
      "நுடங்கும்": 5679,
      "க்கின்றேன்": 5680,
      "வில்லிபுத்தூர்": 5681,
      "தழீஇப்": 5682,
      "வைகலும்": 5683,
      "போற்றுதும்": 5684,
      "அனையை": 5685,
      "சிறியி": 5686,
      "திருமாலிருஞ்சோலையெந்தாய்": 5687,
      "பேய்ச்சி": 5688,
      "நாரணா": 5689,
      "சூட்டவாராய்": 5690,
      "நந்தகோ": 5691,
      "வேட்டுவன்": 5692,
      "அதிகாரி": 5693,
      "உம்பர்": 5694,
      "னல்லையே": 5695,
      "துன்னரும்": 5696,
      "அருளியும்": 5697,
      "அருங்கலம்": 5698,
      "ற்கிள்ளி": 5699,
      "மாணிக்க": 5700,
      "குமரனார்": 5701,
      "பதைத்து": 5702,
      "தடாரி": 5703,
      "வினாவியது": 5704,
      "சேயிழை": 5705,
      "தெவ்வர்": 5706,
      "மகிழ்நநின்": 5707,
      "இழுமென": 5708,
      "நள்ளென்": 5709,
      "மல்லிகை": 5710,
      "வார்த்தை": 5711,
      "சொல்வது": 5712,
      "மோசிகீரனார்": 5713,
      "ஆராய்ந்து": 5714,
      "குட்டுவன்": 5715,
      "பிசிரா": 5716,
      "வீதியார்": 5717,
      "ஆங்கிலே": 5718,
      "வெற்பன்": 5719,
      "வெஞ்சின": 5720,
      "ப்பிடவாராய்": 5721,
      "கச்சிப்பே": 5722,
      "நக்கீரனார்": 5723,
      "குமரி": 5724,
      "யுய்த்திடுமின்": 5725,
      "ஆயர்கள்போரேறே": 5726,
      "ஒண்டொடி": 5727,
      "றிவுறூஉ": 5728,
      "கைக்கிளை": 5729,
      "தரவணையில்": 5730,
      "தென்திருமாலிருஞ்சோலையே": 5731,
      "பண்டன்றுபட்டினம்காப்பே": 5732,
      ",’": 5733,
      "214": 5734,
      "235": 5735,
      "234": 5736,
      "97": 5737,
      "அஃ": 5738,
      "அக்": 5739,
      "அச்": 5740,
      "அத்": 5741,
      "அட்டு": 5742,
      "அல்லை": 5743,
      "அத்தா": 5744,
      "அம்க": 5745,
      "அமுது": 5746,
      "அடுத்த": 5747,
      "ஆடை": 5748,
      "ஆணி": 5749,
      "ஆசை": 5750,
      "ஆலும்": 5751,
      "ஆளும்": 5752,
      "ஆடல்": 5753,
      "ஆர்க்கும்": 5754,
      "ஆண்மை": 5755,
      "இளி": 5756,
      "இமய": 5757,
      "இலாத": 5758,
      "ஈயா": 5759,
      "உண்டி": 5760,
      "உகளும்": 5761,
      "ஊரும்": 5762,
      "எற்": 5763,
      "எது": 5764,
      "எற்று": 5765,
      "எறும்": 5766,
      "எனைப்": 5767,
      "எஞ்சா": 5768,
      "எயிறு": 5769,
      "எவனோ": 5770,
      "ஏதி": 5771,
      "ஏற்று": 5772,
      "ஏனல்": 5773,
      "ஒர": 5774,
      "ஒப்ப": 5775,
      "ஒல்லா": 5776,
      "ஒள்ளி": 5777,
      "ஓது": 5778,
      "ஓடை": 5779,
      "ஓங்கி": 5780,
      "ஓதம்": 5781,
      "ஓட்டிய": 5782,
      "கறு": 5783,
      "கங்கு": 5784,
      "கந்": 5785,
      "கரா": 5786,
      "கையே": 5787,
      "கன்றி": 5788,
      "களா": 5789,
      "கயல்": 5790,
      "கத்தில்": 5791,
      "டத": 5792,
      "டச்": 5793,
      "டர்த்த": 5794,
      "டல்கி": 5795,
      "ணைய": 5796,
      "ணர்க்": 5797,
      "தல்ல": 5798,
      "தயி": 5799,
      "தட்ட": 5800,
      "தளை": 5801,
      "தம்ப": 5802,
      "ததும்": 5803,
      "தவிர": 5804,
      "தறியா": 5805,
      "தலால்": 5806,
      "தன்றியும்": 5807,
      "நள்": 5808,
      "நப்ப": 5809,
      "நலி": 5810,
      "நமோ": 5811,
      "பவ": 5812,
      "பட்": 5813,
      "பழிய": 5814,
      "பதிய": 5815,
      "பல்கா": 5816,
      "மகி": 5817,
      "மண்க": 5818,
      "யடு": 5819,
      "ரந்த": 5820,
      "ரத்த": 5821,
      "ரண்டா": 5822,
      "ரென": 5823,
      "ரென்": 5824,
      "றன்ன": 5825,
      "றத்து": 5826,
      "லஞ்": 5827,
      "லவன்": 5828,
      "லென": 5829,
      "லத்தில்": 5830,
      "ளையே": 5831,
      "ழந்த": 5832,
      "வகு": 5833,
      "வதோ": 5834,
      "வர்க்க": 5835,
      "வலு": 5836,
      "வழா": 5837,
      "வற்றை": 5838,
      "ீழ்": 5839,
      "ெழி": 5840,
      "ென்ற": 5841,
      "ென்றா": 5842,
      "ெடுத்த": 5843,
      "ென்னும்": 5844,
      "ேறு": 5845,
      "ோல்": 5846,
      "ோடும்": 5847,
      "்து": 5848,
      "்தன்": 5849,
      "ந்தப்": 5850,
      "ருக்": 5851,
      "ியக்": 5852,
      "த்தோன்": 5853,
      "ங்கலி": 5854,
      "ங்களும்": 5855,
      "ங்கமழ்": 5856,
      "க்கட்": 5857,
      "விப்": 5858,
      "விப்ப": 5859,
      "வினைக்": 5860,
      "வித்திய": 5861,
      "துற்ற": 5862,
      "துரை": 5863,
      "துடிய": 5864,
      "துப்பு": 5865,
      "துப்பின்": 5866,
      "துவலை": 5867,
      "துயின்ற": 5868,
      "புரம்": 5869,
      "புனைய": 5870,
      "புத்தூ": 5871,
      "வாத": 5872,
      "வாம்": 5873,
      "வாகி": 5874,
      "வானா": 5875,
      "வாக்கி": 5876,
      "வாழை": 5877,
      "பான": 5878,
      "பாசி": 5879,
      "பாம்ப": 5880,
      "பாலே": 5881,
      "பாதிரி": 5882,
      "பாரியும்": 5883,
      "தித்": 5884,
      "மாப்": 5885,
      "மாடு": 5886,
      "மாந்து": 5887,
      "மாலி": 5888,
      "மாசா": 5889,
      "மானு": 5890,
      "மாகிய": 5891,
      "மாடம்": 5892,
      "மாட்டிய": 5893,
      "மாறோ": 5894,
      "ய்ப்": 5895,
      "முந்து": 5896,
      "முந்தை": 5897,
      "முற்றம்": 5898,
      "முத்தின்": 5899,
      "முடையாய்": 5900,
      "குந்த": 5901,
      "குரா": 5902,
      "குன்றா": 5903,
      "குற்றம்": 5904,
      "குடியே": 5905,
      "சிவன்": 5906,
      "காஅ": 5907,
      "காப்பு": 5908,
      "கார்க்க": 5909,
      "காமன்": 5910,
      "ப்பண்": 5911,
      "ப்பதி": 5912,
      "ப்பற்ற": 5913,
      "ப்பகை": 5914,
      "றிசினே": 5915,
      "செர": 5916,
      "செகு": 5917,
      "செப்ப": 5918,
      "செங்": 5919,
      "செந்தா": 5920,
      "சென்றி": 5921,
      "செம்பு": 5922,
      "சென்னிய": 5923,
      "வேர": 5924,
      "வேறா": 5925,
      "ல்லையே": 5926,
      "ரிந்": 5927,
      "ச்சூட்டவாராய்": 5928,
      "கொன்": 5929,
      "கொய்து": 5930,
      "நாளி": 5931,
      "நானே": 5932,
      "நாய்க": 5933,
      "நாட்க": 5934,
      "நாட்டை": 5935,
      "நாப்பண்": 5936,
      "ர்கை": 5937,
      "போற்ற": 5938,
      "போன்று": 5939,
      "போந்தை": 5940,
      "போய்க்": 5941,
      "த்துள்": 5942,
      "த்துக்கு": 5943,
      "தாஅ": 5944,
      "தானா": 5945,
      "தானு": 5946,
      "தாதை": 5947,
      "தாமர": 5948,
      "தாலோ": 5949,
      "தானைய": 5950,
      "தாகிய": 5951,
      "தாள்த": 5952,
      "பொங்க": 5953,
      "ண்ணனார்": 5954,
      "கிளிய": 5955,
      "யாள": 5956,
      "யால்": 5957,
      "யாடு": 5958,
      "யாறு": 5959,
      "யாழி": 5960,
      "யாற்று": 5961,
      "டைத்த": 5962,
      "ற்றன்": 5963,
      "யிருந்த": 5964,
      "ட்டோ": 5965,
      "வென்னும்": 5966,
      "வெந்திறல்": 5967,
      "னாதி": 5968,
      "றைக்": 5969,
      "நீயி": 5970,
      "நீலம்": 5971,
      "நிடத": 5972,
      "கூன்": 5973,
      "கூரி": 5974,
      "கூறை": 5975,
      "கூடிய": 5976,
      "கூனி": 5977,
      "கூட்டு": 5978,
      "கூத்தா": 5979,
      "கூடா": 5980,
      "கூதிர்": 5981,
      "கூடல்": 5982,
      "கூட்டம்": 5983,
      "கூஉம்": 5984,
      "மேவு": 5985,
      "மேலும்": 5986,
      "நெஞ்": 5987,
      "தோளும்": 5988,
      "ங்குறை": 5989,
      "ங்குழை": 5990,
      "டியு": 5991,
      "டியில்": 5992,
      "லிணை": 5993,
      "லிட்டு": 5994,
      "மிவ்": 5995,
      "சுவர்": 5996,
      "சுற்றி": 5997,
      "தேய": 5998,
      "தேர": 5999,
      "ராட்டி": 6000,
      "ராயினும்": 6001,
      "ரும்பு": 6002,
      "நின்றி": 6003,
      "கைவண்": 6004,
      "கைகளால்": 6005,
      "கோட்": 6006,
      "கோமள": 6007,
      "கோப்பெரும்": 6008,
      "வுழி": 6009,
      "வுரை": 6010,
      "வுடைய": 6011,
      "ணிப்": 6012,
      "ர்து": 6013,
      "ையாற்": 6014,
      "ையாள்": 6015,
      "வைக்": 6016,
      "வைச்": 6017,
      "வைத்துப்": 6018,
      "ளைத்": 6019,
      "ளைத்து": 6020,
      "த்திட்": 6021,
      "த்திரி": 6022,
      "த்திடை": 6023,
      "த்தினால்": 6024,
      "த்திருந்த": 6025,
      "லானே": 6026,
      "பெருந்த": 6027,
      "பெருமி": 6028,
      "பெருந்தி": 6029,
      "பெருமலை": 6030,
      "பெருவரை": 6031,
      "பெருந்தே": 6032,
      "சேறு": 6033,
      "சேனை": 6034,
      "சேர்த்து": 6035,
      "மெல்லா": 6036,
      "பூநாறு": 6037,
      "பூட்கை": 6038,
      "சார": 6039,
      "சால": 6040,
      "சாத்த": 6041,
      "சாலை": 6042,
      "ல்லாத": 6043,
      "ல்லாண்டு": 6044,
      "தெண்": 6045,
      "ந்திடு": 6046,
      "திருவா": 6047,
      "திருமடந்தை": 6048,
      "மல்க": 6049,
      "மலம்": 6050,
      "மலையின்": 6051,
      "இருந்தும்": 6052,
      "ந்தாற்": 6053,
      "பேணு": 6054,
      "பேச்சை": 6055,
      "ரியம்": 6056,
      "க்கில்": 6057,
      "க்கிடந்த": 6058,
      "கடன்": 6059,
      "கடற்": 6060,
      "கடலே": 6061,
      "ழைக்": 6062,
      "தீண்டி": 6063,
      "தீர்க்கும்": 6064,
      "தலைச்": 6065,
      "வரம்பு": 6066,
      "மருப்": 6067,
      "மருந்து": 6068,
      "மருதன்": 6069,
      "அருஞ்": 6070,
      "வளவ": 6071,
      "வளர்த்த": 6072,
      "வளையே": 6073,
      "வளையு": 6074,
      "வளர்த்து": 6075,
      "சொல்லை": 6076,
      "னுடன்": 6077,
      "ல்கே": 6078,
      "த்தாற்": 6079,
      "தைக்": 6080,
      "கண்ணை": 6081,
      "கண்ணியும்": 6082,
      "கண்ணார்": 6083,
      "வருதல்": 6084,
      "வருகின்ற": 6085,
      "ஒருவ": 6086,
      "ஒருபால்": 6087,
      "ஒருதனி": 6088,
      "ஒருவனை": 6089,
      "நோயி": 6090,
      "நோக்கு": 6091,
      "நோயே": 6092,
      "நோக்கிய": 6093,
      "ண்டார்": 6094,
      "பின்னு": 6095,
      "பின்னர்": 6096,
      "மூரி": 6097,
      "மூவர்": 6098,
      "மூன்றா": 6099,
      "மூழ்கி": 6100,
      "செய்வ": 6101,
      "ற்கண்": 6102,
      "ற்கையும்": 6103,
      "ற்கால்": 6104,
      "இயக்க": 6105,
      "ழியர்": 6106,
      "ழியப்": 6107,
      "சூர்": 6108,
      "சூரிய": 6109,
      "சூழ்த": 6110,
      "புலர்": 6111,
      "புலரா": 6112,
      "புலர்ந்த": 6113,
      "லேயே": 6114,
      "கருதிய": 6115,
      "கருங்கோட்டு": 6116,
      "கருங்குழல்": 6117,
      "லுள்ள": 6118,
      "தியோ": 6119,
      "பிறப்ப": 6120,
      "பிறரும்": 6121,
      "பொருட்டா": 6122,
      "பொருந்திய": 6123,
      "அரவ": 6124,
      "மான்பிணை": 6125,
      "எம்மொடு": 6126,
      "எம்வயின்": 6127,
      "வலம்படு": 6128,
      "ூர்ப்": 6129,
      "கின்று": 6130,
      "கின்றார்கள்": 6131,
      "தம்ம": 6132,
      "மொழிக்கும்": 6133,
      "ங்காற்": 6134,
      "நுசு": 6135,
      "நுகர்": 6136,
      "சிறுவெள்": 6137,
      "மரங்க": 6138,
      "மரகத": 6139,
      "ல்வந்து": 6140,
      "க்காமல்": 6141,
      "பரல்": 6142,
      "பரந்": 6143,
      "ற்குக்": 6144,
      "ற்குஓர்கோல்கொண்டுவா": 6145,
      "யுள்": 6146,
      "நீர்மை": 6147,
      "நீர்வார்": 6148,
      "கலக்க": 6149,
      "வந்தன": 6150,
      "வந்தனன்": 6151,
      "வந்தனர்": 6152,
      "தூய்": 6153,
      "மறப்ப": 6154,
      "மறையா": 6155,
      "ையுறை": 6156,
      "தலையே": 6157,
      "தலையார்": 6158,
      "மலைந்த": 6159,
      "மலைக்": 6160,
      "மலைகெழு": 6161,
      "காணலாம்": 6162,
      "இரவி": 6163,
      "மணியும்": 6164,
      "மணலினும்": 6165,
      "101": 6166,
      "102": 6167,
      "103": 6168,
      "106": 6169,
      "107": 6170,
      "108": 6171,
      "109": 6172,
      "புகல்": 6173,
      "விளங்க": 6174,
      "விளக்கு": 6175,
      "உள்ளிய": 6176,
      "ம்கோ": 6177,
      "கென்று": 6178,
      "நிலைப்": 6179,
      "நிலைக்": 6180,
      "நிலைத்துறை": 6181,
      "கள்த": 6182,
      "படுத்து": 6183,
      "மீள": 6184,
      "மீர்": 6185,
      "தன்னொடும்": 6186,
      "மின்ன": 6187,
      "சிறைய": 6188,
      "சிறப்ப": 6189,
      "அறனில்": 6190,
      "லோடு": 6191,
      "புறக்கணி": 6192,
      "மணிக்": 6193,
      "மணிநிற": 6194,
      "என்னி": 6195,
      "என்னே": 6196,
      "படக்": 6197,
      "க்கொழு": 6198,
      "நன்மலை": 6199,
      "தனியன்": 6200,
      "தனியே": 6201,
      "முகன்": 6202,
      "முகந்து": 6203,
      "பரிந்து": 6204,
      "பரிசு": 6205,
      "பரிசே": 6206,
      "வான்பூ": 6207,
      "பைந்": 6208,
      "னெஞ்ச": 6209,
      "கண்டனம்": 6210,
      "ளுடைய": 6211,
      "மதிள்த": 6212,
      "த்தைத்": 6213,
      "வேந்தர்க்கு": 6214,
      "யோடு": 6215,
      "யோளே": 6216,
      "உலகே": 6217,
      "ம்தீ": 6218,
      "ம்தன்": 6219,
      "மார்பி": 6220,
      "மார்வில்": 6221,
      "நிலத்து": 6222,
      "நிலையும்": 6223,
      "கையற": 6224,
      "கையர்": 6225,
      "கையடு": 6226,
      "வளைக்": 6227,
      "வரிக்": 6228,
      "கானவர்": 6229,
      "கானலம்": 6230,
      "இளையர்": 6231,
      "இளநாகனார்": 6232,
      "ஆயினார்க்கு": 6233,
      "கடுக்கும்": 6234,
      "கடுங்கோ": 6235,
      "ல்தொ": 6236,
      "உருமின்": 6237,
      "யென்றான்": 6238,
      "கலிழும்": 6239,
      "கலிநிலைத்துறை": 6240,
      "பாடிச்": 6241,
      "நல்லு": 6242,
      "பழக்க": 6243,
      "புரவு": 6244,
      "கரந்து": 6245,
      "அரிசில்": 6246,
      "அரிவைய": 6247,
      "அரிக்குரல்": 6248,
      "டம்மா": 6249,
      "111": 6250,
      "112": 6251,
      "113": 6252,
      "114": 6253,
      "116": 6254,
      "117": 6255,
      "118": 6256,
      "119": 6257,
      "பாடுநர்க்கு": 6258,
      "வல்லு": 6259,
      "வல்லவர்": 6260,
      "வல்லமை": 6261,
      "திரண்ட": 6262,
      "ப்போம்": 6263,
      "ப்போதும்": 6264,
      "டையாளம்": 6265,
      "நளனைத்": 6266,
      "ஆகப்": 6267,
      "இவர்கள்": 6268,
      "ந்தோம்": 6269,
      "ந்தோடி": 6270,
      "முன்னு": 6271,
      "முன்னின்று": 6272,
      "குருளை": 6273,
      "பெயர்த்த": 6274,
      "பொன்போல்": 6275,
      "ூஉப்": 6276,
      "மாயை": 6277,
      "பல்சான்": 6278,
      "154": 6279,
      "மன்றம்": 6280,
      "ெழுத்து": 6281,
      "ெழுந்": 6282,
      "மனத்த": 6283,
      "வனமுலை": 6284,
      "நகர்க்கே": 6285,
      "என்னைக்": 6286,
      "நோக்கிப்": 6287,
      "ீஇச்": 6288,
      "க்கோப்": 6289,
      "க்கோள்": 6290,
      "நாடனொடு": 6291,
      "ர்த்துக்": 6292,
      "அந்தண": 6293,
      "செல்வல்": 6294,
      "174": 6295,
      "தடமென்": 6296,
      "முரசும்": 6297,
      "ற்றியே": 6298,
      "மற்றவன்": 6299,
      "விழுங்கிய": 6300,
      "நல்வினை": 6301,
      "வையகம்": 6302,
      "செம்பொன்": 6303,
      "194": 6304,
      "பருகு": 6305,
      "பருகி": 6306,
      "நெஞ்சத்து": 6307,
      "நெஞ்சமொடு": 6308,
      "நர்ப்": 6309,
      "நினைத்து": 6310,
      "புதுமலர்": 6311,
      "தண்பனி": 6312,
      "அறுத்த": 6313,
      "அடிப்ப": 6314,
      "269": 6315,
      "ப்பூச்சூட்டவாராய்": 6316,
      "உயர்ந்தோர்": 6317,
      "அணியும்": 6318,
      "ஆயம்": 6319,
      "ிருக்கோட்டியூர்": 6320,
      "நூற்று": 6321,
      "மாய்ந்த": 6322,
      "இதுவே": 6323,
      "காலைக்": 6324,
      "கண்ணிக்": 6325,
      "கொழுமுகை": 6326,
      "இறந்து": 6327,
      "முதலில்": 6328,
      "குரூஉ": 6329,
      "எய்திய": 6330,
      "செருப்பு": 6331,
      "உணவு": 6332,
      "அவிர்": 6333,
      "----------------": 6334,
      "கடிந்த": 6335,
      "கொடித்தேர்": 6336,
      "லிருந்து": 6337,
      "ஆய்நலம்": 6338,
      "மதுரைப்": 6339,
      "அடுபோர்": 6340,
      "அடுக்கிய": 6341,
      "அழே": 6342,
      "அழகிய": 6343,
      "ப்பொழு": 6344,
      "அளந்து": 6345,
      "உளன்": 6346,
      "விலங்கிய": 6347,
      "புரிந்த": 6348,
      "முழவு": 6349,
      "வடம": 6350,
      "ீபந்": 6351,
      "ப்பேர்": 6352,
      "ருந்தேன்": 6353,
      "புலம்பி": 6354,
      "தமிழ்மாலை": 6355,
      "இந்தத்": 6356,
      "மெல்லம்": 6357,
      "ஆகிக்": 6358,
      "வினையே": 6359,
      "தந்தையும்": 6360,
      "பொன்னின்": 6361,
      "த்தொழு": 6362,
      "த்தொறும்": 6363,
      "காண்கி": 6364,
      "அடங்கா": 6365,
      "அடங்கிய": 6366,
      "புள்ளு": 6367,
      "ழியான்": 6368,
      "க்கின்றார்கள்": 6369,
      "முழுவதும்": 6370,
      "நம்பிக்கு": 6371,
      "ப்பெருங்": 6372,
      "இல்லையா": 6373,
      "இல்லோர்": 6374,
      "என்னார்": 6375,
      "வள்ளல்": 6376,
      "வேண்டிப்": 6377,
      "ந்தொறும்": 6378,
      "வேள்வி": 6379,
      "வேள்விய": 6380,
      "நாட்டையும்": 6381,
      "நாட்டரசன்": 6382,
      "பிணிக்கும்": 6383,
      "ஒழிக்க": 6384,
      "தண்ணிய": 6385,
      "விழவின்": 6386,
      "முலையே": 6387,
      "பொழுதின்": 6388,
      "கடவுமதி": 6389,
      "சோலைத்": 6390,
      "பெரியோர்": 6391,
      "சுடர்நுதல்": 6392,
      "காதலர்ப்": 6393,
      "வேண்டுமா": 6394,
      "வேண்டுமே": 6395,
      "பொறித்த": 6396,
      "ந்திருந்து": 6397,
      "மகளிரொடு": 6398,
      "நொச்சி": 6399,
      "வஞ்சியும்": 6400,
      "அயரும்": 6401,
      "மாலிருஞ்": 6402,
      "சலையார்": 6403,
      "யூர": 6404,
      "ரொளி": 6405,
      "ரொடும்": 6406,
      "விண்ணவர்": 6407,
      "மிகச்": 6408,
      "இன்னாது": 6409,
      "கல்லாடனார்": 6410,
      "நினக்கு": 6411,
      "புலம்பன்": 6412,
      "நல்கூர்": 6413,
      "இருக்கலாம்": 6414,
      "ஓங்குமலை": 6415,
      "பந்தர்": 6416,
      "வேங்கைப்": 6417,
      "ஆகுக": 6418,
      "ஒழுகும்": 6419,
      "கொண்டான்": 6420,
      "தீர்ந்து": 6421,
      "பொய்கைத்": 6422,
      "மாலிருஞ்சோலையதே": 6423,
      "ந்தருளி": 6424,
      "ல்குல்": 6425,
      "எனக்குஒருகால்": 6426,
      "விளையாட": 6427,
      "விளையாடும்": 6428,
      "புகாரே": 6429,
      "முடவனார்": 6430,
      "சிறைக்குடி": 6431,
      "பேரமர்": 6432,
      "அமரர்": 6433,
      "பெய்ம்": 6434,
      "நெகிழ்த்த": 6435,
      "வுலகம்": 6436,
      "பண்ணன்": 6437,
      "வெளிமான்": 6438,
      "எண்சீர்க்கழிநெடிலடியாசிரியவிருத்தம்": 6439,
      "கண்டிகும்": 6440,
      "விழ்ந்த": 6441,
      "நறும்புகை": 6442,
      "நிமிர்ந்து": 6443,
      "தெரியல்": 6444,
      "முல்லையும்": 6445,
      "காண்டம்": 6446,
      "பொலியச்": 6447,
      "பூதனார்": 6448,
      "உழுத": 6449,
      "தயங்கு": 6450,
      "மகிழ்த": 6451,
      "செறுவின்": 6452,
      "செவியறிவுறூஉ": 6453,
      "வெருவரு": 6454,
      "நம்மைப்": 6455,
      "ஓம்புமதி": 6456,
      "அழைத்தல்": 6457,
      "நறவு": 6458,
      "நெஞ்சில்": 6459,
      "கேசவா": 6460,
      "ஒள்வாள்": 6461,
      "பத்திரிகை": 6462,
      "சுற்றமொடு": 6463,
      "புலவுநாறு": 6464,
      "நீராட": 6465,
      "வாழ்தல்": 6466,
      "புட்கர": 6467,
      "புட்கரன்": 6468,
      "மலையமான்": 6469,
      "ஞ்சூல்": 6470,
      "கொள்ளாது": 6471,
      "ஒக்கூர்": 6472,
      "முதலான": 6473,
      "பசும்பொன்": 6474,
      "சிறிதே": 6475,
      "காட்சிய": 6476,
      "பொதியில்": 6477,
      "வையாவிக்": 6478,
      "வாணிகன்": 6479,
      "நாள்தொறும்": 6480,
      "மென்பதுவே": 6481,
      "டைக்கன்றின்பின்": 6482,
      "முயற்சி": 6483,
      "அயோத்தி": 6484,
      "ஓரடையாளம்": 6485,
      "திண்தேர்": 6486,
      "சிக்கென": 6487,
      "பெருநற்கிள்ளி": 6488,
      "கேண்மதி": 6489,
      "இயல்தேர்": 6490,
      "பெருங்களிறு": 6491,
      "ஆண்டாள்": 6492,
      "விம்மி": 6493,
      "வெள்ளாங்க்": 6494,
      "உலோச்சனார்": 6495,
      "நன்றாக": 6496,
      "பெரியாழ்வார்": 6497,
      "இருதுபன்னன்": 6498,
      "மூலங்கிழார்": 6499,
      "உதுக்காண்": 6500,
      "ர்கள்தம்": 6501,
      "வீமராசன்": 6502,
      "நப்பசலையார்": 6503,
      "மாறோக்கத்து": 6504,
      "எனக்குஒருகால்ஆடுகசெங்கீரை": 6505,
      "124": 6506,
      "126": 6507,
      "127": 6508,
      "134": 6509,
      "128": 6510,
      "129": 6511,
      "136": 6512,
      "137": 6513,
      "138": 6514,
      "139": 6515,
      "122": 6516,
      "123": 6517,
      "211": 6518,
      "217": 6519,
      "216": 6520,
      "219": 6521,
      "218": 6522,
      "224": 6523,
      "226": 6524,
      "227": 6525,
      "228": 6526,
      "229": 6527,
      "213": 6528,
      "212": 6529,
      "::": 6530,
      "அத்து": 6531,
      "அலம்": 6532,
      "அழிய": 6533,
      "அடும்": 6534,
      "அமைய": 6535,
      "அடல்": 6536,
      "அமையா": 6537,
      "அங்கே": 6538,
      "அயர": 6539,
      "ஆகா": 6540,
      "ஆர்த்த": 6541,
      "ஆய்க": 6542,
      "ஆரல்": 6543,
      "ஆங்கே": 6544,
      "இரிய": 6545,
      "இங்கி": 6546,
      "இன்றும்": 6547,
      "இவளை": 6548,
      "இடர்": 6549,
      "இங்ங": 6550,
      "ஈச": 6551,
      "ஈனும்": 6552,
      "ஈர்ந்த": 6553,
      "ஈவோர்": 6554,
      "உந்த": 6555,
      "உற்று": 6556,
      "உப்பு": 6557,
      "உண்க": 6558,
      "உடும்": 6559,
      "உச்சி": 6560,
      "உதிர": 6561,
      "உன்றன்": 6562,
      "உய்ந்த": 6563,
      "உமணர்": 6564,
      "ஊரு": 6565,
      "ஊண்": 6566,
      "ஊட்ட": 6567,
      "ஊர்தி": 6568,
      "எப்ப": 6569,
      "எல்லி": 6570,
      "எங்கோ": 6571,
      "எங்கள": 6572,
      "ஏத": 6573,
      "ஏத்து": 6574,
      "ஏனை": 6575,
      "ஏனோ": 6576,
      "ஏத்தும்": 6577,
      "ஏமம்": 6578,
      "ஏழுல": 6579,
      "ஐந்தும்": 6580,
      "ஒத்த": 6581,
      "ஒல்லை": 6582,
      "ஒழியா": 6583,
      "ஓடும்": 6584,
      "ஓரம்": 6585,
      "ஓம்பா": 6586,
      "கமு": 6587,
      "கவள": 6588,
      "கதை": 6589,
      "கமும்": 6590,
      "கென்": 6591,
      "கச்ச": 6592,
      "கவனே": 6593,
      "கச்சை": 6594,
      "சியா": 6595,
      "சந்தி": 6596,
      "சங்கி": 6597,
      "சடைய": 6598,
      "சையே": 6599,
      "சந்திர": 6600,
      "டூ": 6601,
      "டையார்": 6602,
      "ணங்கி": 6603,
      "ணியும்": 6604,
      "ணையான்": 6605,
      "தழி": 6606,
      "தனா": 6607,
      "தமை": 6608,
      "தசை": 6609,
      "தகைய": 6610,
      "நக்க": 6611,
      "நல்வ": 6612,
      "நொடி": 6613,
      "னந்த": 6614,
      "னஞ்": 6615,
      "னவன்": 6616,
      "னவ்": 6617,
      "னியும்": 6618,
      "பன": 6619,
      "பௌ": 6620,
      "பக்க": 6621,
      "பந்து": 6622,
      "பத்": 6623,
      "பள்ள": 6624,
      "பனு": 6625,
      "பத்தா": 6626,
      "பன்றி": 6627,
      "படும்": 6628,
      "பற்றா": 6629,
      "படியா": 6630,
      "பழுது": 6631,
      "பற்றும்": 6632,
      "பஞ்சா": 6633,
      "படியே": 6634,
      "மன்று": 6635,
      "மவ்": 6636,
      "மறிய": 6637,
      "மையார்": 6638,
      "மனைக்": 6639,
      "மனைப்": 6640,
      "மையிற்": 6641,
      "மங்குல்": 6642,
      "யறி": 6643,
      "யந்": 6644,
      "யொடு": 6645,
      "ரத்தில்": 6646,
      "ரடிப்ப": 6647,
      "றீ": 6648,
      "றக்க": 6649,
      "றென்": 6650,
      "றையு": 6651,
      "லரி": 6652,
      "லனே": 6653,
      "லியும்": 6654,
      "லையார்": 6655,
      "ளூ": 6656,
      "ளந்த": 6657,
      "ளைய": 6658,
      "ளந்": 6659,
      "ளொடு": 6660,
      "ளென்": 6661,
      "ளியும்": 6662,
      "ளென்று": 6663,
      "ழம்": 6664,
      "ழகு": 6665,
      "ழந்து": 6666,
      "ழந்": 6667,
      "ழல்கள்": 6668,
      "வௌ": 6669,
      "வச்": 6670,
      "வன்று": 6671,
      "வசு": 6672,
      "வியா": 6673,
      "வனு": 6674,
      "வமும்": 6675,
      "வங்கா": 6676,
      "வையு": 6677,
      "வர்த்": 6678,
      "வதோர்": 6679,
      "வனோடு": 6680,
      "ூடு": 6681,
      "ைச்": 6682,
      "ொண்": 6683,
      "ோட்": 6684,
      "ம்புக": 6685,
      "ம்பால்": 6686,
      "ந்தீ": 6687,
      "ந்தையும்": 6688,
      "ருகு": 6689,
      "ருஞ்": 6690,
      "ருந்தா": 6691,
      "ண்பக": 6692,
      "ியி": 6693,
      "ியனார்": 6694,
      "த்தீ": 6695,
      "த்தர்": 6696,
      "த்தக்க": 6697,
      "த்தவன்": 6698,
      "த்தையே": 6699,
      "த்தூர்": 6700,
      "த்தழும்": 6701,
      "த்தீபம்": 6702,
      "ங்களி": 6703,
      "க்கோர்": 6704,
      "ையூர்": 6705,
      "ையைக்": 6706,
      "ையைப்": 6707,
      "விடி": 6708,
      "விஞ்ச": 6709,
      "விலும்": 6710,
      "விடம்": 6711,
      "விண்ணி": 6712,
      "துட": 6713,
      "துகள": 6714,
      "ின்றான்": 6715,
      "ின்றாய்": 6716,
      "புய": 6717,
      "புழ": 6718,
      "புன்ன": 6719,
      "புலா": 6720,
      "புதன்": 6721,
      "புரோ": 6722,
      "புதைய": 6723,
      "வாம": 6724,
      "வாடி": 6725,
      "வாளர்": 6726,
      "வாள்த": 6727,
      "பாலு": 6728,
      "பார்த்தி": 6729,
      "திமி": 6730,
      "திர்த்த": 6731,
      "திரியும்": 6732,
      "திரும்ப": 6733,
      "மாதி": 6734,
      "மாறா": 6735,
      "மார்க்க": 6736,
      "மாறன்": 6737,
      "ட்சிய": 6738,
      "முன்னை": 6739,
      "முன்னா": 6740,
      "முயர்": 6741,
      "முழா": 6742,
      "குது": 6743,
      "குலை": 6744,
      "குங்கு": 6745,
      "குமி": 6746,
      "குதிர": 6747,
      "சிற்": 6748,
      "சிமைய": 6749,
      "லைத்": 6750,
      "காதி": 6751,
      "காசி": 6752,
      "காடி": 6753,
      "காலி": 6754,
      "காரே": 6755,
      "காமரு": 6756,
      "காரியா": 6757,
      "ப்பர்": 6758,
      "ப்பழி": 6759,
      "ப்பள்ளி": 6760,
      "சென்ன": 6761,
      "செந்து": 6762,
      "செஞ்ச": 6763,
      "செப்பு": 6764,
      "செலு": 6765,
      "செப்பி": 6766,
      "செறிய": 6767,
      "வேம்": 6768,
      "வேட்": 6769,
      "வேனி": 6770,
      "வேலின்": 6771,
      "வேனிற்": 6772,
      "ழிக்க": 6773,
      "ரிது": 6774,
      "ச்சே": 6775,
      "ச்செய்": 6776,
      "கொத்த": 6777,
      "கொழி": 6778,
      "கொளி": 6779,
      "கொம்ப": 6780,
      "கொள்ளி": 6781,
      "கொடியா": 6782,
      "கொழும்": 6783,
      "கொள்த": 6784,
      "நாடர்": 6785,
      "நாமம்": 6786,
      "நாஞ்சில்": 6787,
      "ர்கட": 6788,
      "ர்கூ": 6789,
      "போலு": 6790,
      "த்துஆங்கு": 6791,
      "பெடை": 6792,
      "பெற்றா": 6793,
      "பெண்டே": 6794,
      "பிழ": 6795,
      "பிசை": 6796,
      "தாம": 6797,
      "தாகு": 6798,
      "தாக்": 6799,
      "தாயி": 6800,
      "தாயர்": 6801,
      "தாராய்": 6802,
      "தாஅய்": 6803,
      "தாபத": 6804,
      "பொற": 6805,
      "பொங்கி": 6806,
      "பொடியா": 6807,
      "பொற்றே": 6808,
      "ளித்த": 6809,
      "யார": 6810,
      "யாழ": 6811,
      "யாரும்": 6812,
      "யாமை": 6813,
      "யானு": 6814,
      "யானெ": 6815,
      "யாரோ": 6816,
      "யாளர்": 6817,
      "யார்க்கும்": 6818,
      "ற்றைப்": 6819,
      "யிரா": 6820,
      "யிர்க்கு": 6821,
      "வெகு": 6822,
      "வெம்ப": 6823,
      "வென்னை": 6824,
      "வெம்மை": 6825,
      "வெனப்": 6826,
      "னாது": 6827,
      "னாங்கு": 6828,
      "னாவேனே": 6829,
      "றைஞ்சி": 6830,
      "நீண்": 6831,
      "நீறு": 6832,
      "நீள்க": 6833,
      "ரைத்து": 6834,
      "நிகழ்": 6835,
      "னேனே": 6836,
      "கூல": 6837,
      "கூலி": 6838,
      "கூறும்": 6839,
      "கூட்டும்": 6840,
      "கூர்ந்த": 6841,
      "மேழு": 6842,
      "மேந்தி": 6843,
      "மேய்த்த": 6844,
      "மேய்ந்து": 6845,
      "மேடையில்": 6846,
      "தோம்": 6847,
      "தோளா": 6848,
      "ங்குப்": 6849,
      "டியேன்": 6850,
      "மிரு": 6851,
      "மிற்": 6852,
      "மிகப்": 6853,
      "னிப்": 6854,
      "னினை": 6855,
      "னிடம்": 6856,
      "க்குர": 6857,
      "க்குல": 6858,
      "க்குவம்": 6859,
      "சுட்ட": 6860,
      "சுட்டி": 6861,
      "சுற்றம்": 6862,
      "தேஎ": 6863,
      "தேச": 6864,
      "தேர்த": 6865,
      "தேமொழி": 6866,
      "தேற்றா": 6867,
      "தேவனே": 6868,
      "தேரொடு": 6869,
      "ராத": 6870,
      "ராம்": 6871,
      "ரும்பி": 6872,
      "நின்கண்": 6873,
      "கோமா": 6874,
      "கோடிய": 6875,
      "கோனாட்டு": 6876,
      "ர்தரும்": 6877,
      "மைக்கும்": 6878,
      "மைந்தன்": 6879,
      "மைத்தட": 6880,
      "ையாகி": 6881,
      "ய்தா": 6882,
      "ளைந்த": 6883,
      "த்தினை": 6884,
      "த்திட்ட": 6885,
      "த்திணை": 6886,
      "த்திசை": 6887,
      "ட்டுக்க": 6888,
      "பெருஞ்சா": 6889,
      "பெருஞ்சோ": 6890,
      "பெருநிரை": 6891,
      "பெருந்தேன்": 6892,
      "பெருந்தண்": 6893,
      "பெருந்தலைச்": 6894,
      "சேரு": 6895,
      "சேரும்": 6896,
      "சேர்த்தி": 6897,
      "மென்னும்": 6898,
      "மெய்தி": 6899,
      "ற்றிக்": 6900,
      "ற்றித்": 6901,
      "பூக்": 6902,
      "பூணா": 6903,
      "பூவாளி": 6904,
      "சாஅ": 6905,
      "சாடு": 6906,
      "சாறு": 6907,
      "சாய்": 6908,
      "சாந்து": 6909,
      "சாபம்": 6910,
      "சாத்தன்": 6911,
      "சாந்தம்": 6912,
      "தெறி": 6913,
      "தென்னை": 6914,
      "ந்திட": 6915,
      "ந்திசின்": 6916,
      "தொறு": 6917,
      "தொடை": 6918,
      "தொடிய": 6919,
      "தொலைய": 6920,
      "ம்பைக்": 6921,
      "திருக்": 6922,
      "திருமுடி": 6923,
      "திருமேனி": 6924,
      "திருக்குற": 6925,
      "ரேம்": 6926,
      "மல்கு": 6927,
      "மலர்த்த": 6928,
      "மலையே": 6929,
      "மலரின்": 6930,
      "என்பு": 6931,
      "மொரு": 6932,
      "ஞ்சிப்": 6933,
      "பாடப்": 6934,
      "இருந்திரு": 6935,
      "இருந்தாலும்": 6936,
      "சைக்": 6937,
      "ஞ்சும்": 6938,
      "பேணா": 6939,
      "ரியே": 6940,
      "கடக்கும்": 6941,
      "கடமையை": 6942,
      "கடல்வண்ணன்": 6943,
      "துறைவற்கு": 6944,
      "ப்புல": 6945,
      "ப்புடை": 6946,
      "ப்புகழ்": 6947,
      "தீங்க": 6948,
      "தீயி": 6949,
      "தீர்க்கு": 6950,
      "தீயின்": 6951,
      "தீர்ந்த": 6952,
      "தீதில்": 6953,
      "தலைஇய": 6954,
      "வரலா": 6955,
      "வரையும்": 6956,
      "வரம்பி": 6957,
      "வீட": 6958,
      "வீரம்": 6959,
      "வீரன்": 6960,
      "வீதியும்": 6961,
      "மருவி": 6962,
      "மருங்": 6963,
      "அருந்து": 6964,
      "அருளே": 6965,
      "அருகாது": 6966,
      "அருஞ்சமம்": 6967,
      "வளையும்": 6968,
      "சொந்த": 6969,
      "சொரியும்": 6970,
      "சொல்லால்": 6971,
      "னுல": 6972,
      "தன்மைய": 6973,
      "சோணா": 6974,
      "டையின்": 6975,
      "ல்கொண்ட": 6976,
      "வாய்ச்சி": 6977,
      "வியடு": 6978,
      "தைந்த": 6979,
      "தைஇய": 6980,
      "நெடுந்": 6981,
      "நெடுந்தோள்": 6982,
      "நெடுங்கொடி": 6983,
      "கண்ணிய": 6984,
      "கண்ணள்": 6985,
      "வருத்தம்": 6986,
      "நோய்க": 6987,
      "பின்னே": 6988,
      "மூட": 6989,
      "மூதூ": 6990,
      "ர்க்கண்": 6991,
      "எனின்": 6992,
      "எனக்கும்": 6993,
      "ழியக்": 6994,
      "சூட்டு": 6995,
      "சூளே": 6996,
      "தும்ஓரடையாளம்": 6997,
      "கருண": 6998,
      "கருது": 6999,
      "கருதி": 7000,
      "கருப்பு": 7001,
      "கருவூ": 7002,
      "கருமுகி": 7003,
      "லுரு": 7004,
      "லுநர்": 7005,
      "யர்ந்த": 7006,
      "ப்பிணி": 7007,
      "ப்பிணை": 7008,
      "ப்பினள்": 7009,
      "எம்பெரு": 7010,
      "எம்பிரா": 7011,
      "வலோ": 7012,
      "வலியும்": 7013,
      "கின்றி": 7014,
      "றியே": 7015,
      "மொழிவல்": 7016,
      "நுண்ணி": 7017,
      "சிறுமை": 7018,
      "சிறுகோல்": 7019,
      "மரத்து": 7020,
      "மரீஇ": 7021,
      "செய்தல்": 7022,
      "செய்தான்": 7023,
      "செய்தார்": 7024,
      "செய்தாய்": 7025,
      "ல்வகை": 7026,
      "ல்வண்ணா": 7027,
      "க்காக": 7028,
      "க்கார்": 7029,
      "க்காக்கவேண்டும்": 7030,
      "சீரா": 7031,
      "சீர்த்": 7032,
      "பரப்ப": 7033,
      "யுரை": 7034,
      "யுந்": 7035,
      "யுள்ள": 7036,
      "யுண்டு": 7037,
      "கலங்கு": 7038,
      "ளாகி": 7039,
      "வந்தென": 7040,
      "வந்தெனப்": 7041,
      "தூதே": 7042,
      "தூக்கி": 7043,
      "மலைக்கு": 7044,
      "காணு": 7045,
      "காணேன்": 7046,
      "இரத்த": 7047,
      "இரந்து": 7048,
      "இரக்கும்": 7049,
      "இரங்கி": 7050,
      "வந்துஅப்பூச்சிகாட்டுகின்றான்": 7051,
      "புகழு": 7052,
      "விளங்": 7053,
      "விளக்கம்": 7054,
      "உள்ளே": 7055,
      "உள்ளேன்": 7056,
      "ம்கண்டு": 7057,
      "ம்கெழு": 7058,
      "நம்பு": 7059,
      "நம்மொடு": 7060,
      "படுமே": 7061,
      "படுவது": 7062,
      "மீக்": 7063,
      "தன்னல": 7064,
      "சிறப்பும்": 7065,
      "அறன்": 7066,
      "கொண்டல்": 7067,
      "அல்லேன்": 7068,
      "அல்லதை": 7069,
      "புறப்": 7070,
      "னோம்": 7071,
      "னோடும்": 7072,
      "படீஇயர்": 7073,
      "மாலைபத்தும்": 7074,
      "க்கொள்கி": 7075,
      "அவரை": 7076,
      "அவலம்": 7077,
      "அவனுடைய": 7078,
      "தனன்": 7079,
      "தனையே": 7080,
      "தனவால்": 7081,
      "முகந்": 7082,
      "அறிவித்த": 7083,
      "பைங்க": 7084,
      "பைஞ்சு": 7085,
      "னென்னை": 7086,
      "னெதிர்": 7087,
      "னெடுத்து": 7088,
      "ஞாங்கர்": 7089,
      "வேந்தனொடு": 7090,
      "தருமே": 7091,
      "யோள்": 7092,
      "உலகள": 7093,
      "உலகில்": 7094,
      "நிலவரை": 7095,
      "வளைக்கை": 7096,
      "மென்தோள்": 7097,
      "குறுக": 7098,
      "குறுமுயல்": 7099,
      "அலவன்": 7100,
      "வேண்டேன்": 7101,
      "வோடு": 7102,
      "வோள்": 7103,
      "நான்கும்": 7104,
      "அதுதான்": 7105,
      "கானவன்": 7106,
      "சென்றனர்": 7107,
      "இளஞ்சே": 7108,
      "ஆயின": 7109,
      "கடுந்தேர்": 7110,
      "ல்தோ": 7111,
      "கொடுஞ்சி": 7112,
      "உருவு": 7113,
      "ரோடும்": 7114,
      "யென்னை": 7115,
      "யென்னு": 7116,
      "வழித்": 7117,
      "வதுபோல்": 7118,
      "கழல்த": 7119,
      "கழலிணை": 7120,
      "நல்லோர்": 7121,
      "நல்லூர்": 7122,
      "பழங்கா": 7123,
      "இலவந்தி": 7124,
      "உறழ்": 7125,
      "உறங்கும்": 7126,
      "தமிழரைப்": 7127,
      "பாடுநர்": 7128,
      "திரோன்": 7129,
      "டையாக": 7130,
      "மெய்யே": 7131,
      "இன்புறு": 7132,
      "ந்தோய்": 7133,
      "201": 7134,
      "202": 7135,
      "203": 7136,
      "204": 7137,
      "206": 7138,
      "207": 7139,
      "208": 7140,
      "209": 7141,
      "அன்புடை": 7142,
      "முன்னும்": 7143,
      "முன்னோர்": 7144,
      "குருதிய": 7145,
      "பெயரிய": 7146,
      "மாயன்": 7147,
      "மறுகில்": 7148,
      "ொருநாள்": 7149,
      "151": 7150,
      "152": 7151,
      "153": 7152,
      "156": 7153,
      "157": 7154,
      "158": 7155,
      "159": 7156,
      "நெய்தற்": 7157,
      "பயனே": 7158,
      "பயங்கெழு": 7159,
      "வேறுவேறு": 7160,
      "மக்களு": 7161,
      "வனென்": 7162,
      "பிரிதல்": 7163,
      "கடைந்த": 7164,
      "கடைத்தலை": 7165,
      "என்னைக்காக்கவேண்டும்": 7166,
      "விடர": 7167,
      "விடல்": 7168,
      "விடத்": 7169,
      "நாடுதிரே": 7170,
      "நோக்கித்": 7171,
      "ந்தியொடு": 7172,
      "குழலி": 7173,
      "கணம்": 7174,
      "கணங்க": 7175,
      "கணக்கா": 7176,
      "250": 7177,
      "மகிழ்ந்த": 7178,
      "141": 7179,
      "142": 7180,
      "143": 7181,
      "144": 7182,
      "146": 7183,
      "147": 7184,
      "148": 7185,
      "149": 7186,
      "அந்தம்": 7187,
      "அந்தப்": 7188,
      "செல்வக்": 7189,
      "செல்வத்": 7190,
      "171": 7191,
      "172": 7192,
      "173": 7193,
      "176": 7194,
      "177": 7195,
      "178": 7196,
      "179": 7197,
      "தடக்க": 7198,
      "தடவு": 7199,
      "புனற்": 7200,
      "பெரும்பே": 7201,
      "161": 7202,
      "162": 7203,
      "163": 7204,
      "164": 7205,
      "166": 7206,
      "167": 7207,
      "168": 7208,
      "169": 7209,
      "சிலவே": 7210,
      "என்பதும்": 7211,
      "மற்றொரு": 7212,
      "மாதவ": 7213,
      "மாதவன்": 7214,
      "மாதரார்": 7215,
      "ரங்கம்": 7216,
      "வையக": 7217,
      "வையை": 7218,
      "வையம்": 7219,
      "வையின்": 7220,
      "191": 7221,
      "192": 7222,
      "193": 7223,
      "196": 7224,
      "197": 7225,
      "198": 7226,
      "199": 7227,
      "181": 7228,
      "182": 7229,
      "183": 7230,
      "184": 7231,
      "186": 7232,
      "187": 7233,
      "188": 7234,
      "189": 7235,
      "பருந்து": 7236,
      "முதுகண்ணன்": 7237,
      "நெஞ்சின்": 7238,
      "நிறத்து": 7239,
      "நினைவில்": 7240,
      "விட்டுக்": 7241,
      "காதலின்": 7242,
      "இரும்பல்": 7243,
      "விளைக்கும்": 7244,
      "கொள்வான்": 7245,
      "245": 7246,
      "அறுசீர்க்": 7247,
      "அடிசில்": 7248,
      "களைந்து": 7249,
      "நடத்தி": 7250,
      "பீடி": 7251,
      "பனிக்க": 7252,
      "காண்ப": 7253,
      "காண்பரிய": 7254,
      "260": 7255,
      "நறுவீ": 7256,
      "நறுமலர்": 7257,
      "குன்றியனார்": 7258,
      "அணங்கி": 7259,
      "திறன்": 7260,
      "ரென்று": 7261,
      "ரெல்லாம்": 7262,
      "ரென்றான்": 7263,
      "உண்மையும்": 7264,
      "காதற்": 7265,
      "காலைத்": 7266,
      "கொழுநிழல்": 7267,
      "கொழுங்கொடி": 7268,
      "கொழுங்குறை": 7269,
      "இறங்கு": 7270,
      "இறந்": 7271,
      "குரீஇ": 7272,
      "குரம்பை": 7273,
      "பகட்டு": 7274,
      "மறைந்து": 7275,
      "தேர்வேந்தன்": 7276,
      "ஆடஆட": 7277,
      "ஆடேலோர்": 7278,
      "எய்தல்": 7279,
      "தன்னைக்": 7280,
      "செருமிகு": 7281,
      "அறியாத": 7282,
      "அறியாப்": 7283,
      "உணரா": 7284,
      "பண்புக": 7285,
      "வெள்ளெ": 7286,
      "உடையோர்": 7287,
      "உடையவர்கள்": 7288,
      "வயங்கி": 7289,
      "போர்பு": 7290,
      "பெயர்ந்து": 7291,
      "இவ்வூர்": 7292,
      "துறையும்": 7293,
      "பார்ப்பன": 7294,
      "இடைக்கு": 7295,
      "இசைக்கும்": 7296,
      "பாணியும்": 7297,
      "பாணரொடு": 7298,
      "மாகத்": 7299,
      "குடையும்": 7300,
      "குடந்தை": 7301,
      "குடக்கோ": 7302,
      "அவ்வள": 7303,
      "வழக்கு": 7304,
      "வழங்கும்": 7305,
      "திரிந்து": 7306,
      "செலல்": 7307,
      "அடுக்கத்து": 7308,
      "அரும்பனி": 7309,
      "அரும்பொருள்": 7310,
      "இருந்தது": 7311,
      "பற்றிக்": 7312,
      "உரவு": 7313,
      "உரவோன்": 7314,
      "விலங்கி": 7315,
      "மிகுதி": 7316,
      "உழந்து": 7317,
      "பணைத்தோ": 7318,
      "த்தியோ": 7319,
      "விறகின்": 7320,
      "விறலியர்": 7321,
      "சுரனி": 7322,
      "சுரக்கும்": 7323,
      "இந்தியா": 7324,
      "இறைவா": 7325,
      "தீபந்": 7326,
      "அழுத": 7327,
      "ஆகிப்": 7328,
      "பள்ளித்": 7329,
      "தியாகம்": 7330,
      "ரியாய்": 7331,
      "றோளே": 7332,
      "மலிர்": 7333,
      "பிடித்து": 7334,
      "பொன்னடி": 7335,
      "முடியவில்லை": 7336,
      "முனிவன்": 7337,
      "ஐயவி": 7338,
      "அடைந்தது": 7339,
      "வள்ளியோர்": 7340,
      "பிணித்த": 7341,
      "பிள்ளைகள்": 7342,
      "221": 7343,
      "222": 7344,
      "223": 7345,
      "உறைக்கும்": 7346,
      "பசுங்க": 7347,
      "புடைசூழ்": 7348,
      "மொழியையும்": 7349,
      "எருவை": 7350,
      "தண்ணடை": 7351,
      "மயிர்க்": 7352,
      "ங்கலந்த": 7353,
      "பாண்டிய": 7354,
      "மாடத்து": 7355,
      "மாடலன்": 7356,
      "பொழுதி": 7357,
      "பொழுதில்": 7358,
      "131": 7359,
      "132": 7360,
      "133": 7361,
      "இல்லாமல்": 7362,
      "நன்னாடு": 7363,
      "புனைந்து": 7364,
      "பிணைய": 7365,
      "ையைத்": 7366,
      "மாரிப்": 7367,
      "கூறுதல்": 7368,
      "231": 7369,
      "232": 7370,
      "233": 7371,
      "உயிர்க்க": 7372,
      "கதவம்": 7373,
      "காரிக்கண்ணனார்": 7374,
      "மகளிரும்": 7375,
      "மகளிரின்": 7376,
      "விரும்பிய": 7377,
      "இறுதி": 7378,
      "எவ்வி": 7379,
      "நொது": 7380,
      "தமயந்தியர்": 7381,
      "தமயந்தியைக்": 7382,
      "உனக்கே": 7383,
      "வஞ்சன": 7384,
      "வஞ்சம்": 7385,
      "புல்லு": 7386,
      "நுண்பூண்": 7387,
      "எண்ணிப்பார்": 7388,
      "டோரே": 7389,
      "கறங்கு": 7390,
      "பல்லாயிர": 7391,
      "றெவனோ": 7392,
      "செய்கின்ற": 7393,
      "அளியள்": 7394,
      "எழினி": 7395,
      "121": 7396,
      "வில்லும்": 7397,
      "வில்லையா": 7398,
      "நெருநல்": 7399,
      "இலங்குவளை": 7400,
      "கொண்மோ": 7401,
      "பந்தம்": 7402,
      "ளெல்லாம்": 7403,
      "குவளைக்": 7404,
      "கிள்ளிவளவன்": 7405,
      "ஞெகிழ்": 7406,
      "நன்றுமன்": 7407,
      "முகில்காள்": 7408,
      "கூர்வேல்": 7409,
      "போகியார்": 7410,
      "விளையாடி": 7411,
      "இராகவனே": 7412,
      "ஏறிக்": 7413,
      "பணைய": 7414,
      "குடைந்து": 7415,
      "முறையோ": 7416,
      "குணதிசை": 7417,
      "மருள்மாலை": 7418,
      "புருவ": 7419,
      "நிரையி": 7420,
      "பேரூர்": 7421,
      "இயல்பி": 7422,
      "பழம்பெருமை": 7423,
      "வழியில்": 7424,
      "பொதிந்த": 7425,
      "வுலகு": 7426,
      "வுலகி": 7427,
      "அமளி": 7428,
      "தண்து": 7429,
      "பொற்சுண்ணம்": 7430,
      "தொடர்பு": 7431,
      "நுடங்கி": 7432,
      "அறிவுடை": 7433,
      "நைந்து": 7434,
      "பல்லோர்": 7435,
      "காண்டல்": 7436,
      "பேரிசாத்தனார்": 7437,
      "மறையோன்": 7438,
      "கதுவாய்": 7439,
      "தயங்க": 7440,
      "கூடுவ": 7441,
      "ஆலத்தூர்": 7442,
      "இடையூ": 7443,
      "எத்தனைப்": 7444,
      "நமரே": 7445,
      "நமச்சி": 7446,
      "யாமத்": 7447,
      "ல்கொள்": 7448,
      "கங்கைக்": 7449,
      "நறவின்": 7450,
      "வண்டினம்": 7451,
      "நாரத": 7452,
      "கோடுயர்": 7453,
      "வைகுந்தம்": 7454,
      "நெடுங்கடை": 7455,
      "ஒவ்வாய்": 7456,
      "பதுக்கை": 7457,
      "றன்னைத்": 7458,
      "துரப்ப": 7459,
      "ர்தாமே": 7460,
      "ற்காக": 7461,
      "ஒல்லுமோ": 7462,
      "மாஅத்து": 7463,
      "சுணங்கு": 7464,
      "என்னுடைய": 7465,
      "நன்மாறன்": 7466,
      "ஆட்சிமொழியா": 7467,
      "சிற்றில்": 7468,
      "போன்றன": 7469,
      "நில்லாது": 7470,
      "அடையல்": 7471,
      "எங்கோன்": 7472,
      "குடுமிப்": 7473,
      "பிள்ளாய்": 7474,
      "சொரிந்த": 7475,
      "செந்தீ": 7476,
      "நாராயணா": 7477,
      "மறக்கள": 7478,
      "எழுதியிரு": 7479,
      "கலுழ்": 7480,
      "பெருந்தோட்": 7481,
      "நுதலே": 7482,
      "துன்பம்": 7483,
      "பரிசிலர்க்கு": 7484,
      "அஞ்சனவண்ண": 7485,
      "மாமதீ": 7486,
      "போயினான்": 7487,
      "மைத்துனன்": 7488,
      "ட்டாய்சப்பாணி": 7489,
      "பல்லாண்டுகூறு": 7490,
      "எமக்கும்": 7491,
      "காளையொடு": 7492,
      "தேம்பாய்": 7493,
      "ப்பொற்சுண்ணம்": 7494,
      "ஒண்தொடி": 7495,
      "திளைக்கும்": 7496,
      "மாளிகை": 7497,
      "வீற்றிருந்த": 7498,
      "-......": 7499,
      "வதன்முன்னம்": 7500,
      "நிரம்பா": 7501,
      "புதுப்புனல்": 7502,
      "ஒள்தொடி": 7503,
      "விடியல்": 7504,
      "மூன்றெழு": 7505,
      "அவையத்து": 7506,
      "போர்வைக்கோப்": 7507,
      "தாமோதரனார்": 7508,
      "உபதேசம்": 7509,
      "விண்தோய்": 7510,
      "புன்றலைச்": 7511,
      "வாய்திற": 7512,
      "எழுந்திராய்": 7513,
      "சிறியிலை": 7514,
      "பிசிராந்தையார்": 7515,
      "கச்சிப்பேட்டு": 7516,
      "மாசாத்தியார்": 7517,
      "கைகளால்சப்பாணி": 7518,
      "தனியன்கள்": 7519,
      "ரடிப்பொடி": 7520,
      "புரோகி": 7521,
      "கொளினே": 7522,
      "இளஞ்சேட்": 7523,
      "இலவந்திகைப்": 7524,
      "நாடுதிரேல்": 7525,
      "236": 7526,
      "237": 7527,
      "238": 7528,
      "239": 7529,
      "310": 7530,
      "311": 7531,
      "320": 7532,
      "315": 7533,
      "330": 7534,
      "325": 7535,
      "314": 7536,
      "335": 7537,
      "317": 7538,
      "316": 7539,
      "319": 7540,
      "318": 7541,
      "324": 7542,
      "326": 7543,
      "327": 7544,
      "334": 7545,
      "328": 7546,
      "329": 7547,
      "336": 7548,
      "337": 7549,
      "338": 7550,
      "339": 7551,
      "322": 7552,
      "313": 7553,
      "323": 7554,
      "312": 7555,
      "321": 7556,
      "?\"": 7557,
      "he": 7558,
      "அற்று": 7559,
      "அவிய": 7560,
      "அதிர்": 7561,
      "அகலி": 7562,
      "அடர்": 7563,
      "அதிர": 7564,
      "அழுது": 7565,
      "அம்பின்": 7566,
      "அசுர": 7567,
      "அதில்": 7568,
      "அசைய": 7569,
      "ஆள": 7570,
      "ஆழ்": 7571,
      "ஆன்று": 7572,
      "ஆற்றி": 7573,
      "ஆசா": 7574,
      "ஆரிய": 7575,
      "ஆழிய": 7576,
      "ஆக்கை": 7577,
      "ஆகல்": 7578,
      "ஆனாய்": 7579,
      "ஆழியான்": 7580,
      "இறும்": 7581,
      "இகல்": 7582,
      "இம்மை": 7583,
      "இசைய": 7584,
      "ஈறு": 7585,
      "ஈரை": 7586,
      "உரும்": 7587,
      "உந்தி": 7588,
      "உதை": 7589,
      "உவந்து": 7590,
      "உதிர்": 7591,
      "உரோ": 7592,
      "உடுத்து": 7593,
      "உம்மை": 7594,
      "உடையான்": 7595,
      "உன்னுடைய": 7596,
      "ஊறி": 7597,
      "ஊட்டி": 7598,
      "ஊடல்": 7599,
      "ஊங்கே": 7600,
      "ஊரின்": 7601,
      "எனும்": 7602,
      "எட்டா": 7603,
      "எமக்க": 7604,
      "எலாம்": 7605,
      "எயிற்று": 7606,
      "எங்ங": 7607,
      "எத்தனையும்": 7608,
      "ஏய்": 7609,
      "ஏரா": 7610,
      "ஏதும்": 7611,
      "ஏவல்": 7612,
      "ஏதாவது": 7613,
      "ஐந்தா": 7614,
      "ஐயு": 7615,
      "ஒள": 7616,
      "ஒல்": 7617,
      "ஒத்து": 7618,
      "ஒள்ள": 7619,
      "ஒத்தி": 7620,
      "ஒய்ய": 7621,
      "ஒத்தன": 7622,
      "ஒப்பாய்": 7623,
      "ஓடிய": 7624,
      "ஓட்டி": 7625,
      "ஓச்சி": 7626,
      "ஓங்கல்": 7627,
      "க்த": 7628,
      "கசி": 7629,
      "கற்க": 7630,
      "கதிய": 7631,
      "கல்லி": 7632,
      "கரம்": 7633,
      "கன்றே": 7634,
      "கனிய": 7635,
      "கரன்": 7636,
      "கவரும்": 7637,
      "கையான்": 7638,
      "கட்டில்": 7639,
      "கழியும்": 7640,
      "கசிந்து": 7641,
      "சன": 7642,
      "சமு": 7643,
      "சையி": 7644,
      "சையு": 7645,
      "சமம்": 7646,
      "சகடம்": 7647,
      "ஜரா": 7648,
      "ஜப்பா": 7649,
      "டரு": 7650,
      "டழி": 7651,
      "டத்து": 7652,
      "டரே": 7653,
      "டன்றே": 7654,
      "டத்தை": 7655,
      "டனனே": 7656,
      "தன்ற": 7657,
      "தனே": 7658,
      "தவை": 7659,
      "தன்னா": 7660,
      "தலு": 7661,
      "தனால்": 7662,
      "தின்ற": 7663,
      "தயம்": 7664,
      "தந்தான்": 7665,
      "தன்றால்": 7666,
      "தழ்க்": 7667,
      "நிய": 7668,
      "நய்": 7669,
      "நன்ற": 7670,
      "நட்ட": 7671,
      "நஞ்ச": 7672,
      "நறிய": 7673,
      "நன்றி": 7674,
      "நனைய": 7675,
      "நனைக்": 7676,
      "நந்தன்": 7677,
      "நமக்கே": 7678,
      "னறி": 7679,
      "னென": 7680,
      "னடியா": 7681,
      "பக்": 7682,
      "பவர்": 7683,
      "பலம்": 7684,
      "பத்தே": 7685,
      "பனிய": 7686,
      "பயிர்": 7687,
      "பகைத்த": 7688,
      "பகழி": 7689,
      "பதுவே": 7690,
      "மட்ட": 7691,
      "மண்டு": 7692,
      "மச்ச": 7693,
      "மஞ்சு": 7694,
      "யழி": 7695,
      "யரும்": 7696,
      "ரையா": 7697,
      "ரவம்": 7698,
      "ரரங்க": 7699,
      "றந்தி": 7700,
      "லப்ப": 7701,
      "லந்து": 7702,
      "லவர்": 7703,
      "லையா": 7704,
      "லியா": 7705,
      "லரே": 7706,
      "லவும்": 7707,
      "லமும்": 7708,
      "லொரு": 7709,
      "ளங்கு": 7710,
      "ழன்": 7711,
      "ழக்": 7712,
      "ழத்": 7713,
      "ழலே": 7714,
      "வட்டி": 7715,
      "வன்றா": 7716,
      "வதன": 7717,
      "வந்திரு": 7718,
      "வந்தால்": 7719,
      "வறிது": 7720,
      "வனாக": 7721,
      "ாண": 7722,
      "ாழ்": 7723,
      "ிழை": 7724,
      "ிலே": 7725,
      "ிறார்கள்": 7726,
      "ீரக்": 7727,
      "ுந்": 7728,
      "ெழில்": 7729,
      "ேர்க்": 7730,
      "ொன்": 7731,
      "ொள்": 7732,
      "ோட": 7733,
      "ன்சொல்": 7734,
      "்கா": 7735,
      "ர்ப்ப": 7736,
      "ந்தலைய": 7737,
      "ருங்க": 7738,
      "ருறு": 7739,
      "ருட்": 7740,
      "ருறை": 7741,
      "ருடன்": 7742,
      "ியங்": 7743,
      "ியலும்": 7744,
      "ியைக்": 7745,
      "த்ததே": 7746,
      "த்தரும்": 7747,
      "த்தகை": 7748,
      "த்தழை": 7749,
      "த்தமன்": 7750,
      "த்தீப": 7751,
      "டுவான்": 7752,
      "டுங்கொலோ": 7753,
      "ங்கழி": 7754,
      "ங்களா": 7755,
      "ங்கையின்": 7756,
      "க்கனி": 7757,
      "க்கரம்": 7758,
      "ையடி": 7759,
      "ையஞ்": 7760,
      "ையோர்": 7761,
      "ையென்": 7762,
      "ற்பி": 7763,
      "ள்வி": 7764,
      "விரா": 7765,
      "விலா": 7766,
      "விக்கும்": 7767,
      "விக்கி": 7768,
      "விவ்": 7769,
      "வித்தா": 7770,
      "வினைப்": 7771,
      "விண்ணும்": 7772,
      "விமலா": 7773,
      "துடு": 7774,
      "துங்க": 7775,
      "துக்க": 7776,
      "துனி": 7777,
      "துவர்": 7778,
      "துண்ணும்": 7779,
      "ின்மேல்": 7780,
      "புலை": 7781,
      "புண்ண": 7782,
      "புத்தே": 7783,
      "வாட": 7784,
      "வாங்க": 7785,
      "வாவி": 7786,
      "வாக்கு": 7787,
      "வாரே": 7788,
      "வாறும்": 7789,
      "வாரம்": 7790,
      "வாளு": 7791,
      "வானில்": 7792,
      "வாளைப்": 7793,
      "வாசம்": 7794,
      "வாணன்": 7795,
      "வாடையும்": 7796,
      "பாய்த": 7797,
      "பாலா": 7798,
      "பாஞ்ச": 7799,
      "பாங்கா": 7800,
      "பாவம்": 7801,
      "பாட்டும்": 7802,
      "பானாள்": 7803,
      "திண": 7804,
      "திடு": 7805,
      "திக்க": 7806,
      "திறை": 7807,
      "திலா": 7808,
      "திதலை": 7809,
      "திரன்": 7810,
      "திர்த்": 7811,
      "தித்தன்": 7812,
      "திகிரி": 7813,
      "திசினே": 7814,
      "மார": 7815,
      "மாள": 7816,
      "மாயா": 7817,
      "மாட்ட": 7818,
      "மாமே": 7819,
      "மாண்டு": 7820,
      "மாங்": 7821,
      "மாப்பு": 7822,
      "மாறிய": 7823,
      "மாநீர்": 7824,
      "மாறும்": 7825,
      "மார்கள்": 7826,
      "மாநில": 7827,
      "மாயிரு": 7828,
      "மாட்டே": 7829,
      "மாட்சிய": 7830,
      "முப்ப": 7831,
      "முசு": 7832,
      "முந்தி": 7833,
      "முழை": 7834,
      "முதலை": 7835,
      "முத்தா": 7836,
      "முதிய": 7837,
      "முள்ளி": 7838,
      "முற்றா": 7839,
      "முத்தும்": 7840,
      "முட்டா": 7841,
      "முன்னாள்": 7842,
      "குத": 7843,
      "குய்": 7844,
      "குவர்": 7845,
      "குன்றும்": 7846,
      "குநரும்": 7847,
      "குஜரா": 7848,
      "சிலைய": 7849,
      "சிற்றம்": 7850,
      "சிரீ": 7851,
      "சிவலோ": 7852,
      "லைக்க": 7853,
      "காம்": 7854,
      "காயி": 7855,
      "காசு": 7856,
      "காளிய": 7857,
      "காந்திய": 7858,
      "கார்க்கோ": 7859,
      "காரெதிர்": 7860,
      "காப்பிடவாராய்": 7861,
      "ப்பய": 7862,
      "ப்பழ": 7863,
      "ப்பரி": 7864,
      "ப்பனே": 7865,
      "ப்பதன்": 7866,
      "ப்படா": 7867,
      "ப்பருகி": 7868,
      "டிரு": 7869,
      "றில்": 7870,
      "றிந்த": 7871,
      "றிரு": 7872,
      "வேதம்": 7873,
      "வேய்ந்த": 7874,
      "வேலான்": 7875,
      "ல்லேன்": 7876,
      "ழினும்": 7877,
      "ரிசி": 7878,
      "ரித்து": 7879,
      "ரிடை": 7880,
      "ரிடம்": 7881,
      "கொரு": 7882,
      "கொவ்": 7883,
      "கொல்லை": 7884,
      "கொட்டி": 7885,
      "கொடும்": 7886,
      "கொளு": 7887,
      "கொக்கின்": 7888,
      "கொம்மை": 7889,
      "நாச": 7890,
      "நாந்த": 7891,
      "நாறி": 7892,
      "நாழி": 7893,
      "நாவு": 7894,
      "நானு": 7895,
      "நாதன்": 7896,
      "நாயே": 7897,
      "நாள்க": 7898,
      "நாட்டிய": 7899,
      "ர்களை": 7900,
      "போய": 7901,
      "போடு": 7902,
      "போதா": 7903,
      "போக்கும்": 7904,
      "போர்த்த": 7905,
      "போர்க்": 7906,
      "போனான்": 7907,
      "போதாது": 7908,
      "போழ்ந்து": 7909,
      "த்துயில்": 7910,
      "த்துநாமே": 7911,
      "னைத்தும்": 7912,
      "பெண்டு": 7913,
      "பெடைய": 7914,
      "பெண்ணு": 7915,
      "பெண்டின்": 7916,
      "பிட்ட": 7917,
      "பினனே": 7918,
      "பிழையா": 7919,
      "பிண்டம்": 7920,
      "தாள": 7921,
      "தாவி": 7922,
      "தாங்கவும்": 7923,
      "பொற்றி": 7924,
      "பொழியும்": 7925,
      "ளிட": 7926,
      "ளிற்": 7927,
      "கிண": 7928,
      "கிரு": 7929,
      "கிற்றி": 7930,
      "கிறா": 7931,
      "கிள்ளை": 7932,
      "கிறார்": 7933,
      "கிண்கிணி": 7934,
      "யாக்": 7935,
      "யாடி": 7936,
      "யாயும்": 7937,
      "யானைப்": 7938,
      "யாகப்": 7939,
      "ற்றோ": 7940,
      "யிற்ற": 7941,
      "யிட்ட": 7942,
      "யிவன்": 7943,
      "யிலும்": 7944,
      "யிர்த்து": 7945,
      "யினவே": 7946,
      "ட்டக்": 7947,
      "வெல்ல": 7948,
      "வெந்": 7949,
      "வென்றான்": 7950,
      "வெள்கி": 7951,
      "ழுதாள்": 7952,
      "னாட்": 7953,
      "னாதே": 7954,
      "னானும்": 7955,
      "னாக்கண்டேன்": 7956,
      "நீவி": 7957,
      "நீர்த": 7958,
      "நீட்டி": 7959,
      "நீவாராய்": 7960,
      "நீரிற்": 7961,
      "நீள்கு": 7962,
      "நிறுத்த": 7963,
      "ழ்ப்": 7964,
      "கூவி": 7965,
      "கூத்து": 7966,
      "கூவு": 7967,
      "கூவாய்": 7968,
      "கூம்பி": 7969,
      "கூருகி": 7970,
      "மேதி": 7971,
      "மேலு": 7972,
      "மேதிக்": 7973,
      "நென்ன": 7974,
      "நெக்கு": 7975,
      "நெய்ய": 7976,
      "தோன்": 7977,
      "தோயே": 7978,
      "தோளு": 7979,
      "தோள்க": 7980,
      "தோர்க்கே": 7981,
      "ங்குக்": 7982,
      "டியை": 7983,
      "மிது": 7984,
      "மிகத்": 7985,
      "னிது": 7986,
      "னிரை": 7987,
      "க்குறு": 7988,
      "க்குள்": 7989,
      "க்குடை": 7990,
      "சுழி": 7991,
      "சுண்ண": 7992,
      "சுற்றிய": 7993,
      "சுருக்கி": 7994,
      "தேரை": 7995,
      "தேனி": 7996,
      "தேனும்": 7997,
      "தேனார்": 7998,
      "தேவிய": 7999,
      "தேவர்க": 8000,
      "ள்ளும்": 8001,
      "ராள்": 8002,
      "ராக்": 8003,
      "ரானே": 8004,
      "ராங்கு": 8005,
      "ராகில்": 8006,
      "நின்றும்": 8007,
      "நின்னோடு": 8008,
      "நின்னினும்": 8009,
      "நின்மலா": 8010,
      "ற்றுச்": 8011,
      "வன்மை": 8012,
      "வன்கண்": 8013,
      "கோப": 8014,
      "கோள": 8015,
      "கோம்": 8016,
      "கோங்கின்": 8017,
      "கோவூர்கிழார்": 8018,
      "ர்தங்": 8019,
      "ர்தீப": 8020,
      "ர்தம்மை": 8021,
      "ையான": 8022,
      "ையாமை": 8023,
      "ணைமேல்": 8024,
      "ணைக்கிடந்த": 8025,
      "வைந்": 8026,
      "வைக்கும்": 8027,
      "ளைந்து": 8028,
      "த்திற": 8029,
      "த்தித்": 8030,
      "த்தினில்": 8031,
      "த்திற்குப்": 8032,
      "லாட": 8033,
      "லாற்": 8034,
      "லாதே": 8035,
      "லாதன்": 8036,
      "லாகிய": 8037,
      "லாலொ": 8038,
      "பெருஞ்ச": 8039,
      "பெருங்கி": 8040,
      "பெருவள": 8041,
      "பெருநீர்": 8042,
      "பெருங்கை": 8043,
      "பெருங்கோ": 8044,
      "பெருஞ்செய்": 8045,
      "பெருவழுதி": 8046,
      "பெருவளம்": 8047,
      "சேறும்": 8048,
      "சேக்கை": 8049,
      "ியாள்": 8050,
      "மெய்த": 8051,
      "மென்னா": 8052,
      "மெல்லி": 8053,
      "மெலிய": 8054,
      "பூவி": 8055,
      "பூந்து": 8056,
      "பூக்கும்": 8057,
      "பூதல": 8058,
      "சாப": 8059,
      "சாற்ற": 8060,
      "சான்று": 8061,
      "சாற்று": 8062,
      "சாற்றி": 8063,
      "சாதல்": 8064,
      "சாந்தும்": 8065,
      "ல்லாத்": 8066,
      "ல்லாரும்": 8067,
      "தெற்ற": 8068,
      "தெண்க": 8069,
      "தெண்டி": 8070,
      "தெய்ய": 8071,
      "தெண்கி": 8072,
      "தொழ": 8073,
      "தொரு": 8074,
      "தொகை": 8075,
      "தொன்றி": 8076,
      "தொன்னி": 8077,
      "தொடுத்து": 8078,
      "ம்பட": 8079,
      "ம்பயில்": 8080,
      "திருவ": 8081,
      "திருக்கு": 8082,
      "திருத்தி": 8083,
      "திருமணி": 8084,
      "திருமாலை": 8085,
      "திருமுகத்து": 8086,
      "திருமணம்": 8087,
      "ரேத்த": 8088,
      "மலர்க்கு": 8089,
      "மலர்தலை": 8090,
      "என்ஆ": 8091,
      "என்மகளை": 8092,
      "மொன்ற": 8093,
      "மொய்கு": 8094,
      "ஞ்சிக்": 8095,
      "பாடா": 8096,
      "இருக்கு": 8097,
      "இருவரும்": 8098,
      "சைஇ": 8099,
      "சைக்கும்": 8100,
      "பேக": 8101,
      "பேரன்": 8102,
      "பேசும்": 8103,
      "பேரெ": 8104,
      "பேதைய": 8105,
      "பேஎய்": 8106,
      "ரியது": 8107,
      "ங்கிருள்": 8108,
      "க்கிச்": 8109,
      "க்கிறார்கள்": 8110,
      "க்கிறாய்": 8111,
      "க்கிறது": 8112,
      "கடலும்": 8113,
      "கடற்க": 8114,
      "ப்புறு": 8115,
      "ப்புத்": 8116,
      "ப்புள்ள": 8117,
      "ப்புடைய": 8118,
      "ர்த்தே": 8119,
      "றான": 8120,
      "றாள்": 8121,
      "றாயே": 8122,
      "தீங்கு": 8123,
      "தீயே": 8124,
      "தீயு": 8125,
      "தீமோ": 8126,
      "தீங்கனி": 8127,
      "தலைஇ": 8128,
      "தலைத்": 8129,
      "தலைமை": 8130,
      "தலைவனை": 8131,
      "வரச்": 8132,
      "வரையி": 8133,
      "வீச": 8134,
      "வீண்": 8135,
      "வீழ்க": 8136,
      "வீசிய": 8137,
      "மருள": 8138,
      "அருங்கல": 8139,
      "வளன்": 8140,
      "வள்தன்": 8141,
      "சொற்க": 8142,
      "சொன்னா": 8143,
      "னுயி": 8144,
      "தன்குழல்வாராய்அக்காக்காய்": 8145,
      "ல்கை": 8146,
      "வாய்ப்பு": 8147,
      "வ்விட": 8148,
      "வியல": 8149,
      "வியம்": 8150,
      "வியேன்": 8151,
      "த்தாலும்": 8152,
      "த்தானால்இன்றுமுற்றும்": 8153,
      "தைஇத்": 8154,
      "நெடுந்த": 8155,
      "நெடுங்கி": 8156,
      "நெடுவெண்": 8157,
      "நெடுநல்": 8158,
      "நெடுநீர்ப்": 8159,
      "நெடுங்கோட்டு": 8160,
      "ையில": 8161,
      "ையிடு": 8162,
      "வருள்": 8163,
      "வருஞ்": 8164,
      "வருவர்": 8165,
      "வருங்": 8166,
      "வருநர்": 8167,
      "வருநர்க்கு": 8168,
      "வருவானை": 8169,
      "ஒருகண்": 8170,
      "ஒருமுறை": 8171,
      "நோவ": 8172,
      "நோக்": 8173,
      "பின்னி": 8174,
      "மூள": 8175,
      "மூத்த": 8176,
      "மூவா": 8177,
      "மூர்த்த": 8178,
      "மூர்க்க": 8179,
      "ப்பாக": 8180,
      "ப்பாடு": 8181,
      "ப்பாள்": 8182,
      "ர்க்கள": 8183,
      "ர்க்கா": 8184,
      "ர்க்கோன்": 8185,
      "செய்வான்": 8186,
      "ற்கீழ்": 8187,
      "இயலி": 8188,
      "இயற்கை": 8189,
      "சூட": 8190,
      "சூது": 8191,
      "சூட்டிய": 8192,
      "சூடிக்": 8193,
      "புலந்து": 8194,
      "புலியும்": 8195,
      "புலம்பல்": 8196,
      "புலவீர்": 8197,
      "லேனை": 8198,
      "கருத": 8199,
      "கருவிளை": 8200,
      "லுடை": 8201,
      "லுடைய": 8202,
      "தியு": 8203,
      "தியை": 8204,
      "பிறங்கிய": 8205,
      "பிறங்கல்": 8206,
      "ர்க்குச்": 8207,
      "ப்பித்": 8208,
      "ப்பினை": 8209,
      "அரைய": 8210,
      "அரசா": 8211,
      "அரியாய்": 8212,
      "எம்மானே": 8213,
      "வலவன்": 8214,
      "வலியுறு": 8215,
      "ூர்ந்து": 8216,
      "நுண": 8217,
      "நுண்ண": 8218,
      "நுந்தை": 8219,
      "நுண்த": 8220,
      "சிறுமீன்": 8221,
      "சிறுநெறி": 8222,
      "ப்பட்டேன்": 8223,
      "மரபு": 8224,
      "மரபின": 8225,
      "செய்தனன்": 8226,
      "ல்வரும்": 8227,
      "க்காரி": 8228,
      "க்காதே": 8229,
      "சீர்த்த": 8230,
      "சீதை": 8231,
      "சீரார்": 8232,
      "பரம": 8233,
      "பரவு": 8234,
      "பரூஉ": 8235,
      "பலவு": 8236,
      "யுள்ளி": 8237,
      "கலங்கா": 8238,
      "என்றுகொலோ": 8239,
      "ச்சில்": 8240,
      "வந்தோர்": 8241,
      "வந்தருளி": 8242,
      "தூற்ற": 8243,
      "தூங்கும்": 8244,
      "தூம்பு": 8245,
      "தூவெள்": 8246,
      "வாழா": 8247,
      "வாழவேண்டும்": 8248,
      "வாழியாதன்": 8249,
      "மறவா": 8250,
      "மறவன்": 8251,
      "மறக்கும்": 8252,
      "மறவரும்": 8253,
      "மறையோ": 8254,
      "மறந்தனர்": 8255,
      "ையுற்ற": 8256,
      "ையுள்கி": 8257,
      "தலையும்": 8258,
      "தலையை": 8259,
      "மலைச்": 8260,
      "டாய்": 8261,
      "காணவே": 8262,
      "இரண்ட": 8263,
      "இரவின்": 8264,
      "இரப்போ": 8265,
      "இரட்டும்": 8266,
      "மடமா": 8267,
      "மடவாய்": 8268,
      "மடமான்": 8269,
      "மடவாள்": 8270,
      "மோத": 8271,
      "மணியின்": 8272,
      "ழாது": 8273,
      "பாடப்பட்டோர்": 8274,
      "வந்துநின்": 8275,
      "வந்துகுழல்வாராய்அக்காக்காய்": 8276,
      "புகண்": 8277,
      "புகழ்க்": 8278,
      "புகழே": 8279,
      "விளர்": 8280,
      "விளரி": 8281,
      "விளக்கும்": 8282,
      "விளக்கி": 8283,
      "விளக்கே": 8284,
      "உள்ளமொடு": 8285,
      "உள்ளத்தில்": 8286,
      "ம்கே": 8287,
      "நம்மே": 8288,
      "நம்வயின்": 8289,
      "மையேன்": 8290,
      "கெண்டை": 8291,
      "நிலைமை": 8292,
      "களன்": 8293,
      "படுமணி": 8294,
      "மீண்டு": 8295,
      "மீண்டே": 8296,
      "அறல்": 8297,
      "அறத்து": 8298,
      "அறையும்": 8299,
      "அறம்பு": 8300,
      "அன்னன்": 8301,
      "கொண்டே": 8302,
      "புறங்க": 8303,
      "புறத்து": 8304,
      "புறந்": 8305,
      "புறவு": 8306,
      "புறத்திணை": 8307,
      "மாலைத்": 8308,
      "மலர்ப்பா": 8309,
      "மலர்மேல்": 8310,
      "அவனே": 8311,
      "அவரே": 8312,
      "ச்சியும்": 8313,
      "முகத்த": 8314,
      "முகக்குவம்": 8315,
      "பரிசும்": 8316,
      "அறிவும்": 8317,
      "அறிந்தனை": 8318,
      "வான்தோய்": 8319,
      "வரைந்தனை": 8320,
      "கண்பனி": 8321,
      "பைத": 8322,
      "பைங்கால்": 8323,
      "கண்டவர்": 8324,
      "கண்டீர்": 8325,
      "மதிள": 8326,
      "மதித்து": 8327,
      "ஞானம்": 8328,
      "ஞான்றை": 8329,
      "நின்றது": 8330,
      "எழுத்து": 8331,
      "எழுவர்": 8332,
      "ப்பின்னே": 8333,
      "வேந்தற்": 8334,
      "தரும": 8335,
      "தருந்": 8336,
      "தருகுவன்": 8337,
      "கியர்": 8338,
      "களிறே": 8339,
      "மார்பன்": 8340,
      "நிலையு": 8341,
      "வார்ந்": 8342,
      "கையது": 8343,
      "கையொடு": 8344,
      "கையெழுத்து": 8345,
      "மென்புல": 8346,
      "குறுகல்": 8347,
      "குறுந்தாள்": 8348,
      "குறுங்கால்": 8349,
      "குறுங்கலி": 8350,
      "அலர்ந்த": 8351,
      "அலமரல்": 8352,
      "ற்றாது": 8353,
      "வோளே": 8354,
      "வம்மின்": 8355,
      "வரிக்கும்": 8356,
      "வரிநிழல்": 8357,
      "அதுபோல்": 8358,
      "றேர்": 8359,
      "கானற்": 8360,
      "கானக்": 8361,
      "இளந்த": 8362,
      "இளவெளிமான்": 8363,
      "ஆயிடை": 8364,
      "ஆயிற்று": 8365,
      "ஆயிழை": 8366,
      "ஆயினன்": 8367,
      "கடுவன்": 8368,
      "கடுந்திறல்": 8369,
      "மன்பதை": 8370,
      "ல்தோள்": 8371,
      "ல்தோன்றி": 8372,
      "விருந்": 8373,
      "விருந்தின்": 8374,
      "உருவின்": 8375,
      "வண்ணமே": 8376,
      "வண்ணமும்": 8377,
      "முன்நாள்": 8378,
      "யென்ற": 8379,
      "வழிக்": 8380,
      "வழிச்": 8381,
      "கலிங்க": 8382,
      "கலிவிருத்தம்": 8383,
      "கலிங்கம்": 8384,
      "கலித்துறை": 8385,
      "பாடினி": 8386,
      "பாடிப்பாடி": 8387,
      "சேர்ந்": 8388,
      "கழும்": 8389,
      "கழலே": 8390,
      "கழற்கு": 8391,
      "அதர்": 8392,
      "நல்லேறு": 8393,
      "புரக்கும்": 8394,
      "புரவலர்": 8395,
      "கரப்ப": 8396,
      "கரஞ்சொ": 8397,
      "உறவு": 8398,
      "தமிழகத்தில்": 8399,
      "பொதுநலம்": 8400,
      "வல்லர்": 8401,
      "திரைய": 8402,
      "திரண்டு": 8403,
      "திரங்கிய": 8404,
      "டையால்": 8405,
      "டையாள்": 8406,
      "நளனைக்": 8407,
      "நளனுக்கு": 8408,
      "நளதமயந்தியர்": 8409,
      "ஆகத்": 8410,
      "இன்சொல்லும்": 8411,
      "ந்தோட": 8412,
      "நேர்ந்த": 8413,
      "அன்பா": 8414,
      "அன்பர்": 8415,
      "விரிந்த": 8416,
      "விரித்து": 8417,
      "முன்னர்": 8418,
      "ங்கொண்ட": 8419,
      "ங்கொளி": 8420,
      "ங்கொண்டு": 8421,
      "பெயர்க்கும்": 8422,
      "ூஉத்": 8423,
      "மாயமே": 8424,
      "முல்லைப்": 8425,
      "மறுகு": 8426,
      "மறுத்தல்": 8427,
      "வானத்": 8428,
      "வானவன்": 8429,
      "மன்றத்து": 8430,
      "வாள்நுதல்": 8431,
      "வாழ்ந்து": 8432,
      "மக்களுக்கு": 8433,
      "மனையுறை": 8434,
      "பிரிந்தே": 8435,
      "பிரிந்தென": 8436,
      "கடைஇ": 8437,
      "கடைக்": 8438,
      "கடைசிய": 8439,
      "என்னைப்": 8440,
      "தரூஉ": 8441,
      "300": 8442,
      "301": 8443,
      "302": 8444,
      "303": 8445,
      "304": 8446,
      "305": 8447,
      "306": 8448,
      "307": 8449,
      "308": 8450,
      "309": 8451,
      "கும்ப": 8452,
      "வினைக்கு": 8453,
      "குழலும்": 8454,
      "குழீஇய": 8455,
      "குழலூ": 8456,
      "னாய்ப்": 8457,
      "கணே": 8458,
      "251": 8459,
      "252": 8460,
      "253": 8461,
      "254": 8462,
      "255": 8463,
      "256": 8464,
      "257": 8465,
      "258": 8466,
      "259": 8467,
      "நாடனை": 8468,
      "நாடகம்": 8469,
      "ர்த்துச்": 8470,
      "350": 8471,
      "351": 8472,
      "352": 8473,
      "353": 8474,
      "354": 8475,
      "355": 8476,
      "356": 8477,
      "357": 8478,
      "358": 8479,
      "359": 8480,
      "புனல": 8481,
      "சோழனது": 8482,
      "சிலரே": 8483,
      "கூந்தன்": 8484,
      "கூந்தற்": 8485,
      "அகத்து": 8486,
      "அகற்ற": 8487,
      "மற்றொ": 8488,
      "மற்றதன்": 8489,
      "வர்களே": 8490,
      "வர்களாக": 8491,
      "விழுமிய": 8492,
      "நல்யாழ்": 8493,
      "மழைக்": 8494,
      "செம்பொற்": 8495,
      "இன்னே": 8496,
      "பருவ": 8497,
      "பருந்தின்": 8498,
      "முதுவாய்": 8499,
      "முதுமொழிக்": 8500,
      "கிடந்து": 8501,
      "கிடக்கும்": 8502,
      "பட்டோ": 8503,
      "நிறம்": 8504,
      "வடிவு": 8505,
      "சொல்லோ": 8506,
      "என்றூழ்": 8507,
      "நடுவு": 8508,
      "நடுங்கி": 8509,
      "நடுங்கும்": 8510,
      "க்கேட்டு": 8511,
      "கொல்லன்": 8512,
      "241": 8513,
      "242": 8514,
      "243": 8515,
      "244": 8516,
      "246": 8517,
      "247": 8518,
      "248": 8519,
      "249": 8520,
      "அறுவை": 8521,
      "அடிகள்": 8522,
      "களைந்த": 8523,
      "பனிப்ப": 8524,
      "பனிபடு": 8525,
      "261": 8526,
      "262": 8527,
      "263": 8528,
      "264": 8529,
      "265": 8530,
      "266": 8531,
      "267": 8532,
      "268": 8533,
      "நறுநெய்": 8534,
      "ப்பூங்": 8535,
      "குன்றத்": 8536,
      "ந்தனென்": 8537,
      "270": 8538,
      "271": 8539,
      "272": 8540,
      "273": 8541,
      "274": 8542,
      "275": 8543,
      "276": 8544,
      "277": 8545,
      "278": 8546,
      "279": 8547,
      "340": 8548,
      "341": 8549,
      "342": 8550,
      "343": 8551,
      "344": 8552,
      "345": 8553,
      "346": 8554,
      "347": 8555,
      "348": 8556,
      "349": 8557,
      "ிருந்த": 8558,
      "திறந்து": 8559,
      "280": 8560,
      "281": 8561,
      "282": 8562,
      "283": 8563,
      "284": 8564,
      "285": 8565,
      "286": 8566,
      "287": 8567,
      "288": 8568,
      "289": 8569,
      "290": 8570,
      "291": 8571,
      "292": 8572,
      "293": 8573,
      "294": 8574,
      "295": 8575,
      "296": 8576,
      "297": 8577,
      "298": 8578,
      "299": 8579,
      "360": 8580,
      "361": 8581,
      "362": 8582,
      "363": 8583,
      "364": 8584,
      "365": 8585,
      "366": 8586,
      "367": 8587,
      "368": 8588,
      "369": 8589,
      "370": 8590,
      "371": 8591,
      "372": 8592,
      "373": 8593,
      "374": 8594,
      "375": 8595,
      "376": 8596,
      "377": 8597,
      "378": 8598,
      "379": 8599,
      "380": 8600,
      "381": 8601,
      "382": 8602,
      "383": 8603,
      "384": 8604,
      "385": 8605,
      "386": 8606,
      "387": 8607,
      "388": 8608,
      "389": 8609,
      "390": 8610,
      "391": 8611,
      "392": 8612,
      "393": 8613,
      "394": 8614,
      "395": 8615,
      "396": 8616,
      "397": 8617,
      "398": 8618,
      "399": 8619,
      "இதுவா": 8620,
      "உண்மையான": 8621,
      "ீஇயரோ": 8622,
      "கொழுந்து": 8623,
      "உடன்று": 8624,
      "குரவை": 8625,
      "உன்னைக்": 8626,
      "உன்னைத்": 8627,
      "பகரும்": 8628,
      "மறைக்கும்": 8629,
      "தேர்வண்": 8630,
      "தென்புலம்": 8631,
      "தென்திசை": 8632,
      "விரைமலர்": 8633,
      "காலையும்": 8634,
      "காலநேமி": 8635,
      "செவ்வழி": 8636,
      "எய்து": 8637,
      "தன்னைத்": 8638,
      "த்தின்மேல்": 8639,
      "செருக்கு": 8640,
      "வண்மை": 8641,
      "உடையேன்": 8642,
      "பெயர்ந்த": 8643,
      "பணிவும்": 8644,
      "நாட்டுக்கும்": 8645,
      "தையல்": 8646,
      "வணங்க": 8647,
      "கொடிதே": 8648,
      "ஞ்சால்": 8649,
      "வழங்க": 8650,
      "வழக்": 8651,
      "வழங்": 8652,
      "திரிந்த": 8653,
      "திரிதரும்": 8654,
      "மிசைக்": 8655,
      "சின்னீர்": 8656,
      "செலச்": 8657,
      "தேவனார்": 8658,
      "வீழ்ந்": 8659,
      "வீழ்ந்தாள்": 8660,
      "அழக": 8661,
      "அழகு": 8662,
      "பறம்பு": 8663,
      "ப்பொழுது": 8664,
      "வயிற்ற": 8665,
      "வயிற்றி": 8666,
      "உரையா": 8667,
      "உளம்": 8668,
      "தின்ன": 8669,
      "வாயினும்": 8670,
      "முழங்கும்": 8671,
      "முதல்வ": 8672,
      "கனலி": 8673,
      "வண்டுபடு": 8674,
      "திரைப்": 8675,
      "போய்ப்": 8676,
      "உழந்த": 8677,
      "உழவன்": 8678,
      "விறகு": 8679,
      "விறலிய": 8680,
      "சுரனே": 8681,
      "சுரத்திடை": 8682,
      "இறைப்": 8683,
      "இறைஞ்சி": 8684,
      "கவிகை": 8685,
      "ந்தலைப்": 8686,
      "தீபங்": 8687,
      "அரசியல்": 8688,
      "400": 8689,
      "கொள்கையும்": 8690,
      "ஆகித்": 8691,
      "இடமே": 8692,
      "பள்ளிப்": 8693,
      "பள்ளிகொள்": 8694,
      "புணர்ந்தோர்": 8695,
      "காட்டித்": 8696,
      "செங்கட்": 8697,
      "செங்கழு": 8698,
      "அடியோ": 8699,
      "கமழு": 8700,
      "தந்தனை": 8701,
      "ரியாமே": 8702,
      "றோனே": 8703,
      "பிடித்த": 8704,
      "பொன்னும்": 8705,
      "அடங்க": 8706,
      "மானத்": 8707,
      "பொய்கையும்": 8708,
      "பொய்கைப்": 8709,
      "க்கின்றான்": 8710,
      "முழுமுதல்": 8711,
      "ப்பெருஞ்": 8712,
      "இல்லோன்": 8713,
      "என்னாம்": 8714,
      "எதிர்ந்து": 8715,
      "எதிர்ந்": 8716,
      "பன்மாண்": 8717,
      "அறியு": 8718,
      "பிணிக்": 8719,
      "புடைத்": 8720,
      "மாக்கடல்": 8721,
      "மாக்கட்கு": 8722,
      "மொழியி": 8723,
      "எருத்தின்": 8724,
      "ங்கலத்து": 8725,
      "கோலத்து": 8726,
      "கோலமும்": 8727,
      "எண்ணெய்": 8728,
      "த்தனவே": 8729,
      "முலையும்": 8730,
      "பொழுதும்": 8731,
      "அங்குடிச்": 8732,
      "இழையணி": 8733,
      "நன்னாகனார்": 8734,
      "பசித்த": 8735,
      "பசிதின": 8736,
      "சோலைக்": 8737,
      "தவிழ்": 8738,
      "தவிர்த்த": 8739,
      "பெரியோன்": 8740,
      "அருளிச்": 8741,
      "அருளினை": 8742,
      "செந்நாய்": 8743,
      "நின்றாள்": 8744,
      "கேள்வ": 8745,
      "உவவு": 8746,
      "கல்லென": 8747,
      "வழுங்க": 8748,
      "த்தலைப்": 8749,
      "காரிகை": 8750,
      "செவிக்": 8751,
      "மகளிவள்": 8752,
      "வாழ்க்கைப்": 8753,
      "மாண்இழை": 8754,
      "நிற்கின்ற": 8755,
      "உயங்கு": 8756,
      "வேந்துவிடு": 8757,
      "அயன்": 8758,
      "னின்று": 8759,
      "தென்னருணை": 8760,
      "அருவிப்": 8761,
      "னுக்குப்": 8762,
      "நுண்பல்": 8763,
      "எண்ணிப்": 8764,
      "ரொக்க": 8765,
      "பல்லான்": 8766,
      "றெல்லாம்": 8767,
      "செய்கை": 8768,
      "கொளீஇய": 8769,
      "தொடங்கி": 8770,
      "தன்னுடைய": 8771,
      "தன்னுளே": 8772,
      "அளியன்": 8773,
      "எழினியும்": 8774,
      "கடும்பே": 8775,
      "கடியுடை": 8776,
      "துணையே": 8777,
      "ட்டைத்": 8778,
      "வேலிக்": 8779,
      "நினதே": 8780,
      "நெருநை": 8781,
      "அருள்செய்த": 8782,
      "புலம்பக்": 8783,
      "331": 8784,
      "332": 8785,
      "333": 8786,
      "தற்பின்": 8787,
      "த்தென்னை": 8788,
      "கொண்மூ": 8789,
      "நாணப்": 8790,
      "ஒலிப்ப": 8791,
      "வூரே": 8792,
      "வாயமுதம்": 8793,
      "முருக்கி": 8794,
      "அஞ்சுவரு": 8795,
      "தகவே": 8796,
      "சென்னிக்": 8797,
      "கற்பி": 8798,
      "ஞெலி": 8799,
      "மண்டபம்": 8800,
      "முகில்வண்ணன்": 8801,
      "சிதர்": 8802,
      "சிதறி": 8803,
      "காவிரிப்": 8804,
      "கூர்நம்பி": 8805,
      "சுடரே": 8806,
      "முன்னேறு": 8807,
      "தில்லையில்": 8808,
      "தில்லையான்": 8809,
      "வெற்பின்": 8810,
      "நல்லில்": 8811,
      "பணிய": 8812,
      "வறுமை": 8813,
      "குறும்பு": 8814,
      "குறும்பல்": 8815,
      "குறும்பொறை": 8816,
      "உரித்து": 8817,
      "தண்கயம்": 8818,
      "தண்கடற்": 8819,
      "விழித்து": 8820,
      "சிவப்ப": 8821,
      "நெய்யு": 8822,
      "கோசர்": 8823,
      "கோவிந்த": 8824,
      "எடுப்ப": 8825,
      "கன்றுகள்": 8826,
      "மங்கையர்": 8827,
      "க்கரசே": 8828,
      "தாரமும்": 8829,
      "உலகமும்": 8830,
      "அம்பர": 8831,
      "னொடும்": 8832,
      "பண்ணை": 8833,
      "சிதைந்து": 8834,
      "ம்கொள்": 8835,
      "கண்டிசின்": 8836,
      "மள்ளனார்": 8837,
      "வலம்பு": 8838,
      "தொடர்ந்து": 8839,
      "நுடங்கு": 8840,
      "இடித்துநாமே": 8841,
      "எந்தையும்": 8842,
      "வந்திசின்": 8843,
      "வம்பலர்": 8844,
      "தெரியவில்லை": 8845,
      "கொள்கைச்": 8846,
      "கதிர்க்": 8847,
      "மராஅத்த": 8848,
      "லொன்று": 8849,
      "பாரதம்க": 8850,
      "மலரப்": 8851,
      "மொழியாள்": 8852,
      "முதலியன": 8853,
      "ஆறுசெல்": 8854,
      "கஞ்சனை": 8855,
      "வாசல்": 8856,
      "தும்பிசேர்": 8857,
      "அலைக்கும்": 8858,
      "தோழியவர்": 8859,
      "ப்பிடித்து": 8860,
      "சோர்ந்து": 8861,
      "மண்டிலம்": 8862,
      "ருளிற்": 8863,
      "பெறாஅ": 8864,
      "பேய்மகள்": 8865,
      "கின்றால்": 8866,
      "கின்றார்": 8867,
      "கட்சிகளும்": 8868,
      "வண்டினங்கள்": 8869,
      "குயிலே": 8870,
      "குயிலு": 8871,
      "வென்றாள்": 8872,
      "திருந்துவேல்": 8873,
      "நெடுவரைப்": 8874,
      "நெடுவரைக்": 8875,
      "நிறையப்": 8876,
      "நந்தம்மை": 8877,
      "றன்னைக்": 8878,
      "வணிகன்": 8879,
      "புள்ளினம்": 8880,
      "திங்களில்": 8881,
      "நாயக": 8882,
      "நாயகனே": 8883,
      "அணங்குடை": 8884,
      "வாழ்த்திப்": 8885,
      "முலையுண்ட": 8886,
      "அள்ளல்": 8887,
      "க்கணங்கள்": 8888,
      "சிந்தையுள்": 8889,
      "தோன்றுகிறது": 8890,
      "கோழிக்": 8891,
      "கோயிலும்": 8892,
      "மைந்தர்": 8893,
      "பெருஞ்சினை": 8894,
      "புலம்புகொள்": 8895,
      "அண்டர்": 8896,
      "முலையீர்": 8897,
      "பெண்ணை": 8898,
      "தாமோத": 8899,
      "தாமோதரா": 8900,
      "நெறியே": 8901,
      "மருதனார்": 8902,
      "வாழ்திருக்கோட்டியூர்": 8903,
      "காண்குவம்": 8904,
      "எளிதே": 8905,
      "கந்தனார்": 8906,
      "பல்லிதழ்": 8907,
      "மடைத்தொழி": 8908,
      "சுவர்க்கி": 8909,
      "சுரும்பு": 8910,
      "புகர்முக": 8911,
      "தெரிந்தில": 8912,
      "அகன்கண்": 8913,
      "கம்பலை": 8914,
      "வசையில்": 8915,
      "வன்னெ": 8916,
      "க்களிறு": 8917,
      "பெருமாள்": 8918,
      "சொரிந்து": 8919,
      "இன்பமும்": 8920,
      "நேரிசை": 8921,
      "நாராயணன்": 8922,
      "வரையாது": 8923,
      "தமிழரிடம்": 8924,
      "பட்டினத்துக்": 8925,
      "ஆக்கவேலை": 8926,
      "மனிச": 8927,
      "மாந்தர்": 8928,
      "நெடியோன்": 8929,
      "கோவலற்கு": 8930,
      "பொருட்பிணி": 8931,
      "மணாளனை": 8932,
      "தமிழினம்": 8933,
      "அவரவர்": 8934,
      "கௌவை": 8935,
      "தினபோது": 8936,
      "குவளையும்": 8937,
      "தெறுவர": 8938,
      "நெடுங்கால": 8939,
      "அனந்த": 8940,
      "விதியின்": 8941,
      "மாலுறு": 8942,
      "யானையின்": 8943,
      "சொல்கிற": 8944,
      "சொல்கிறேன்": 8945,
      "ஒருசிறைப்": 8946,
      "இரண்டாம்": 8947,
      "மானிடசாதிய": 8948,
      "கனாக்கண்டேன்": 8949,
      "நிறுத்தி": 8950,
      "சேவகன்": 8951,
      "இருக்கிறது": 8952,
      "கருங்கைக்": 8953,
      "மதிள்சூழ்": 8954,
      "பெரும்பாலோர்": 8955,
      "இமைக்கும்": 8956,
      "பாண்டில்": 8957,
      "குழிசி": 8958,
      "கில்லேன்": 8959,
      "வெல்கொடி": 8960,
      "பெருங்குன்றூர்": 8961,
      "தெண்ணீர்ப்": 8962,
      "ள்கொலோ": 8963,
      "அவுணர்": 8964,
      "நரம்பு": 8965,
      "பாற்கட": 8966,
      "பொதும்பர்": 8967,
      "மலையிறந்": 8968,
      "நம்மூர்ப்": 8969,
      "கெழீஇய": 8970,
      "முரசமொடு": 8971,
      "நினையாது": 8972,
      "அவருடைய": 8973,
      "ஏற்படு": 8974,
      "முன்றிற்": 8975,
      "நின்னுளே": 8976,
      "திருந்திழை": 8977,
      "திருச்சந்த": 8978,
      "மருத்துவன்": 8979,
      "வருணைத்": 8980,
      "மணிப்பூண்": 8981,
      "கற்றினம்": 8982,
      "பற்பநா": 8983,
      "க்கண்டாருளர்": 8984,
      "விதர்ப்ப": 8985,
      "வாணுதல்": 8986,
      "மாந்தரஞ்": 8987,
      "முனையின்": 8988,
      "காவுந்தி": 8989,
      "இருடீகே": 8990,
      "காண்தொறும்": 8991,
      "பைங்கிளி": 8992,
      "புதுவையர்கோன்": 8993,
      "தனித்தனியே": 8994,
      "னென்பதோர்": 8995,
      "புத்தூர்க்கோன்": 8996,
      "ப்பற்றையும்": 8997,
      "பெருந்திணை": 8998,
      "மூன்றாம்": 8999,
      "பத்திரிகைகளும்": 9000,
      "ஈர்ந்தண்": 9001,
      "எங்கள்கு": 9002,
      "பனுவல்": 9003,
      "திருமுடிக்காரி": 9004,
      "திருக்குறள்": 9005,
      "அறிவித்தது": 9006,
      "கழல்தொடி": 9007,
      "மறக்களவழி": 9008,
      "ஐந்தாம்": 9009,
      "ஜப்பானிய": 9010,
      "திரன்சுவர்க்கி": 9011,
      "காந்தியடி": 9012,
      "கிறார்களா": 9013,
      "யிவன்கண்டாய்": 9014,
      "லாலொர்": 9015,
      "இரப்போர்க்கு": 9016,
      "பாரதம்கை": 9017,
      "!”": 9018,
      ",`": 9019,
      "??": 9020,
      "the": 9021,
      "அண்": 9022,
      "அபி": 9023,
      "அசோ": 9024,
      "அச்சி": 9025,
      "அதன": 9026,
      "அகழி": 9027,
      "அயல்": 9028,
      "அஞ்சே": 9029,
      "அற்றை": 9030,
      "அப்போது": 9031,
      "ஆல்": 9032,
      "ஆய்த": 9033,
      "ஆனார்": 9034,
      "ஆதல்": 9035,
      "ஆகம்": 9036,
      "ஆழ்க": 9037,
      "ஆத்திர": 9038,
      "ஆந்திர": 9039,
      "ஆக்கிய": 9040,
      "ஆனது": 9041,
      "ஆஅங்கு": 9042,
      "ஆநிரை": 9043,
      "ஆதியும்": 9044,
      "ஆடிக்": 9045,
      "ஆந்தையார்": 9046,
      "இலா": 9047,
      "இலம்": 9048,
      "இணர்": 9049,
      "இல்லி": 9050,
      "இகழ": 9051,
      "இடைப்": 9052,
      "இதற்கு": 9053,
      "இமிழ்": 9054,
      "இதழ்": 9055,
      "இன்றை": 9056,
      "இப்பிள்ளை": 9057,
      "ஈர": 9058,
      "ஈங்க": 9059,
      "ஈரி": 9060,
      "ஈண்ட": 9061,
      "ஈங்கி": 9062,
      "ஈயாது": 9063,
      "ஈசனே": 9064,
      "உற்": 9065,
      "உட்": 9066,
      "உறி": 9067,
      "உனை": 9068,
      "உளை": 9069,
      "உகள": 9070,
      "உண்த": 9071,
      "உடைப்": 9072,
      "உமிழ்": 9073,
      "உய்தி": 9074,
      "உய்க்கும்": 9075,
      "உய்தல்": 9076,
      "உகிர்": 9077,
      "ஊண": 9078,
      "ஊடு": 9079,
      "ஊர்த": 9080,
      "ஊட்டு": 9081,
      "ஊர்க்கு": 9082,
      "ஊமன்": 9083,
      "ஊட்டும்": 9084,
      "எலி": 9085,
      "எந்": 9086,
      "எம்ப": 9087,
      "எண்டி": 9088,
      "எறிய": 9089,
      "எம்க": 9090,
      "எதிர": 9091,
      "எண்ணும்": 9092,
      "எய்த்து": 9093,
      "எஞ்செய்": 9094,
      "எழாய்": 9095,
      "எறியும்": 9096,
      "எழாஅ": 9097,
      "எப்போதும்": 9098,
      "ஏது": 9099,
      "ஏர்த": 9100,
      "ஏற்றை": 9101,
      "ஏமாற்ற": 9102,
      "ஏழாம்": 9103,
      "ஐயர்": 9104,
      "ஐவனம்": 9105,
      "ஒன்": 9106,
      "ஒரி": 9107,
      "ஒத்": 9108,
      "ஓரை": 9109,
      "ஓமை": 9110,
      "ஓப்பு": 9111,
      "ஓர்க்கும்": 9112,
      "ஓம்பும்": 9113,
      "கஞ": 9114,
      "கத்த": 9115,
      "கவே": 9116,
      "கப்பா": 9117,
      "கல்வ": 9118,
      "கத்தை": 9119,
      "கத்தே": 9120,
      "கட்டா": 9121,
      "கண்த": 9122,
      "கழுது": 9123,
      "கதவ": 9124,
      "கத்தின்": 9125,
      "கயம்": 9126,
      "கதூஉம்": 9127,
      "சையில்": 9128,
      "சரண": 9129,
      "சயம்": 9130,
      "சடங்கு": 9131,
      "சக்த": 9132,
      "ஜா": 9133,
      "டர": 9134,
      "டத்த": 9135,
      "டக்க": 9136,
      "டறு": 9137,
      "டகு": 9138,
      "டேன்": 9139,
      "டலும்": 9140,
      "டீபம்": 9141,
      "ணர": 9142,
      "ணக்": 9143,
      "ணர்க": 9144,
      "ணியா": 9145,
      "ணங்கள்": 9146,
      "ணியார்": 9147,
      "ணியு": 9148,
      "தத": 9149,
      "தௌ": 9150,
      "தபு": 9151,
      "தமே": 9152,
      "தற்க": 9153,
      "தையே": 9154,
      "தப்பி": 9155,
      "தமர": 9156,
      "தமைய": 9157,
      "தனைக்": 9158,
      "தசும்": 9159,
      "தடுத்து": 9160,
      "தத்தில்": 9161,
      "ததைய": 9162,
      "ததுவே": 9163,
      "தண்கு": 9164,
      "தன்னால்": 9165,
      "தச்சன்": 9166,
      "தரணிய": 9167,
      "தள்ளா": 9168,
      "தரியேன்": 9169,
      "நதி": 9170,
      "நடி": 9171,
      "நறை": 9172,
      "நற்கு": 9173,
      "நங்கள்": 9174,
      "நளிர்": 9175,
      "நன்னி": 9176,
      "நடைக்": 9177,
      "நவின்று": 9178,
      "நண்ணார்": 9179,
      "னர": 9180,
      "னற்": 9181,
      "னக்கு": 9182,
      "னர்க்கு": 9183,
      "னையில்": 9184,
      "னந்தோ": 9185,
      "னரங்கத்": 9186,
      "பப்": 9187,
      "பவி": 9188,
      "பங்கு": 9189,
      "படிய": 9190,
      "பவன்": 9191,
      "பஞ்சி": 9192,
      "பங்கி": 9193,
      "பன்னா": 9194,
      "பறிய": 9195,
      "பங்கா": 9196,
      "பகல": 9197,
      "பனைய": 9198,
      "பகர": 9199,
      "படியும்": 9200,
      "மப்": 9201,
      "மக்": 9202,
      "மதா": 9203,
      "மதே": 9204,
      "மவன்": 9205,
      "மவை": 9206,
      "மஞ்சி": 9207,
      "மறா": 9208,
      "மதம்": 9209,
      "மடுத்த": 9210,
      "மத்தின்": 9211,
      "மலிரு": 9212,
      "மண்ணிய": 9213,
      "மழிசை": 9214,
      "மண்கொ": 9215,
      "யய": 9216,
      "யள": 9217,
      "யமு": 9218,
      "யன்ற": 9219,
      "யங்கு": 9220,
      "யவர்": 9221,
      "யணி": 9222,
      "யனும்": 9223,
      "யந்தி": 9224,
      "யஞ்சி": 9225,
      "யோர்": 9226,
      "யன்றே": 9227,
      "யீரே": 9228,
      "யவிழ்ந்த": 9229,
      "ரர": 9230,
      "ரண்": 9231,
      "ரப்ப": 9232,
      "ரண்ட": 9233,
      "ரையார்": 9234,
      "ரியார்": 9235,
      "ரருணை": 9236,
      "றழ்": 9237,
      "றன்றே": 9238,
      "றங்கும்": 9239,
      "லந்த": 9240,
      "லறு": 9241,
      "லகு": 9242,
      "லவே": 9243,
      "லந்": 9244,
      "லரா": 9245,
      "லம்ப": 9246,
      "லோன்": 9247,
      "லையி": 9248,
      "லன்றி": 9249,
      "லங்கள்": 9250,
      "லையில்": 9251,
      "ளனே": 9252,
      "ளரும்": 9253,
      "ளஞ்சி": 9254,
      "ழலை": 9255,
      "ழப்ப": 9256,
      "ழச்": 9257,
      "ழத்தி": 9258,
      "ழியார்": 9259,
      "ழையாய்": 9260,
      "ழலாய்": 9261,
      "வட்": 9262,
      "வனா": 9263,
      "வற்று": 9264,
      "வசை": 9265,
      "வையே": 9266,
      "வம்பு": 9267,
      "வடியா": 9268,
      "வமொடு": 9269,
      "வந்தார்": 9270,
      "வரால்": 9271,
      "வியால்": 9272,
      "ஹி": 9273,
      "ிட": 9274,
      "ீரனார்": 9275,
      "ுஞ்": 9276,
      "ுடைக்": 9277,
      "ூத": 9278,
      "ூர்த்": 9279,
      "ூடே": 9280,
      "ெரு": 9281,
      "ெங்கு": 9282,
      "ெறிய": 9283,
      "ென்றும்": 9284,
      "ெயில்": 9285,
      "ெண்ணி": 9286,
      "ெலாம்": 9287,
      "ெயிற்": 9288,
      "ேனை": 9289,
      "ொன்றை": 9290,
      "ோட்டு": 9291,
      "ோர்கள்": 9292,
      "ோதயம்": 9293,
      "்த்": 9294,
      "ம்என்": 9295,
      "ம்மான்": 9296,
      "ந்தக்": 9297,
      "ந்தநின்": 9298,
      "ந்தழை": 9299,
      "ருட": 9300,
      "ருக்கு": 9301,
      "ருந்தி": 9302,
      "ருடைய": 9303,
      "ருளே": 9304,
      "ருக்கை": 9305,
      "ருளால்": 9306,
      "ருளாய்": 9307,
      "த்தற்": 9308,
      "த்தமா": 9309,
      "த்தியும்": 9310,
      "த்தமனி": 9311,
      "டுக்க": 9312,
      "டுப்ப": 9313,
      "டுந்": 9314,
      "ங்கலம்": 9315,
      "ங்கையில்": 9316,
      "க்கைய": 9317,
      "க்கலை": 9318,
      "க்கத்": 9319,
      "க்கலும்": 9320,
      "ையேன்": 9321,
      "ையனார்": 9322,
      "ையவிழ்": 9323,
      "ற்பட": 9324,
      "றுகண்": 9325,
      "விக்க": 9326,
      "விண்டு": 9327,
      "விற்க": 9328,
      "வில்வ": 9329,
      "விழா": 9330,
      "வினால்": 9331,
      "விட்டா": 9332,
      "விண்ணா": 9333,
      "விச்சை": 9334,
      "விதான": 9335,
      "விமலன்": 9336,
      "துவ": 9337,
      "துய்": 9338,
      "துனை": 9339,
      "துமே": 9340,
      "துமி": 9341,
      "துண்டு": 9342,
      "துவன்": 9343,
      "துடைய": 9344,
      "துள்ளி": 9345,
      "துழா": 9346,
      "துகில்": 9347,
      "புத": 9348,
      "புத்தி": 9349,
      "புகல": 9350,
      "புயல்": 9351,
      "புகார்": 9352,
      "வாசி": 9353,
      "வாடும்": 9354,
      "வாயே": 9355,
      "வாளும்": 9356,
      "வாளிய": 9357,
      "வாங்கிய": 9358,
      "வாமன": 9359,
      "வாலிய": 9360,
      "வாலெ": 9361,
      "வாகப்": 9362,
      "வாளின்": 9363,
      "வாவென்று": 9364,
      "வால்வளை": 9365,
      "வார்களே": 9366,
      "பாள்": 9367,
      "பாது": 9368,
      "பாங்கு": 9369,
      "பாளை": 9370,
      "பாவடி": 9371,
      "பாலன்": 9372,
      "பார்கா": 9373,
      "பாஅல்": 9374,
      "பால்வகை": 9375,
      "பாவியேன்": 9376,
      "திகி": 9377,
      "திக்கு": 9378,
      "தினைக்": 9379,
      "திமில்": 9380,
      "மாள்": 9381,
      "மாசி": 9382,
      "மாமை": 9383,
      "மால்வ": 9384,
      "மாவின்": 9385,
      "மாந்தும்": 9386,
      "மாட்சி": 9387,
      "மாவலி": 9388,
      "மாரொடு": 9389,
      "மாநகர்": 9390,
      "மாநிலம்": 9391,
      "மார்கா": 9392,
      "மாமணிவண்ணன்": 9393,
      "மாவிந்த": 9394,
      "மாச்சினை": 9395,
      "ட்டைப்": 9396,
      "ய்வம்": 9397,
      "முட்": 9398,
      "முரி": 9399,
      "முஞ்": 9400,
      "முண்டு": 9401,
      "முதன்": 9402,
      "முட்டை": 9403,
      "ன்னம்": 9404,
      "குஞ்": 9405,
      "குண்ட": 9406,
      "குணி": 9407,
      "குஞ்ச": 9408,
      "குண்டி": 9409,
[...]
