{
  "version": "1.0",
  "truncation": null,
  "padding": null,
  "added_tokens": [
    {
      "id": 0,
      "content": "[UNK]",
      "single_word": false,
      "lstrip": false,
      "rstrip": false,
      "normalized": false,
      "special": true
    },
    {
      "id": 1,
      "content": "[CLS]",
      "single_word": false,
      "lstrip": false,
      "rstrip": false,
      "normalized": false,
      "special": true
    },
    {
      "id": 2,
      "content": "[SEP]",
      "single_word": false,
      "lstrip": false,
      "rstrip": false,
      "normalized": false,
      "special": true
    },
    {
      "id": 3,
      "content": "[PAD]",
      "single_word": false,
      "lstrip": false,
      "rstrip": false,
      "normalized": false,
      "special": true
    },
    {
      "id": 4,
      "content": "[MASK]",
      "single_word": false,
      "lstrip": false,
      "rstrip": false,
      "normalized": false,
      "special": true
    }
  ],
  "normalizer": null,
  "pre_tokenizer": {
    "type": "Whitespace"
  },
  "post_processor": null,
  "decoder": null,
  "model": {
    "type": "Unigram",
    "unk_id": null,
    "vocab": [
      [
        "[UNK]",
        0.0
      ],
      [
        "[CLS]",
        0.0
      ],
      [
        "[SEP]",
        0.0
      ],
      [
        "[PAD]",
        0.0
      ],
      [
        "[MASK]",
        0.0
      ],
      [
        ".",
        -3.235585323699512
      ],
      [
        ",",
        -3.6933964832208304
      ],
      [
        "க்",
        -4.4506743362634955
      ],
      [
        ":",
        -4.4633086586138475
      ],
      [
        "ம்",
        -4.465275583937737
      ],
      [
        "ப்",
        -4.469911591455528
      ],
      [
        "ன்",
        -4.4725250396337515
      ],
      [
        "்",
        -4.597823743252675
      ],
      [
        "ே",
        -4.686921516290622
      ],
      [
        "த்",
        -4.730925002157565
      ],
      [
        "ும்",
        -4.776400018441534
      ],
      [
        "-",
        -4.94882622136301
      ],
      [
        "ு",
        -5.091684007295214
      ],
      [
        "ய",
        -5.111741018325215
      ],
      [
        "ல்",
        -5.187851684044255
      ],
      [
        ";",
        -5.2142135705565105
      ],
      [
        "து",
        -5.248406763032644
      ],
      [
        "ச்",
        -5.285125309369944
      ],
      [
        "ப",
        -5.347025463966762
      ],
      [
        "க",
        -5.372051944824668
      ],
      [
        "!",
        -5.40888357748284
      ],
      [
        "ர்",
        -5.616958019051916
      ],
      [
        "வ",
        -5.719035241618885
      ],
      [
        "யும்",
        -5.738483727712124
      ],
      [
        "ின்",
        -5.765803312627898
      ],
      [
        "2",
        -5.786975147732229
      ],
      [
        "த",
        -5.837098470825307
      ],
      [
        "1",
        -5.843112651140709
      ],
      [
        "ன",
        -5.934967997606951
      ],
      [
        "ா",
        -5.96159566754404
      ],
      [
        "(",
        -5.968884952925274
      ],
      [
        ")",
        -5.968884952925274
      ],
      [
        "ாய்",
        -5.9801024527661175
      ],
      [
        "துறை",
        -6.0028001311573895
      ],
      [
        "ந்",
        -6.0076128892690415
      ],
      [
        "னே",
        -6.048346994611953
      ],
      [
        "மா",
        -6.048454797473681
      ],
      [
        "ம",
        -6.079598821868493
      ],
      [
        "க்கு",
        -6.1288658075503175
      ],
      [
        "3",
        -6.133024253295534
      ],
      [
        "நின்",
        -6.138098124990852
      ],
      [
        "க்கும்",
        -6.160382643733548
      ],
      [
        "ை",
        -6.165273989404945
      ],
      [
        "?",
        -6.19857546322762
      ],
      [
        "ற்",
        -6.213081249997721
      ],
      [
        "திணை",
        -6.261122401953038
      ],
      [
        "கூற்று",
        -6.269523921440643
      ],
      [
        "மே",
        -6.27849211326768
      ],
      [
        "ங்",
        -6.283914334677228
      ],
      [
        "என்",
        -6.289665381564245
      ],
      [
        "த்து",
        -6.309485674603462
      ],
      [
        "நீ",
        -6.319427380884933
      ],
      [
        "ில்",
        -6.323174761519425
      ],
      [
        "ற",
        -6.33173130088161
      ],
      [
        "ார்",
        -6.346953021788262
      ],
      [
        "னார்",
        -6.356136533231272
      ],
      [
        "ாடியவர்",
        -6.382578676576244
      ],
      [
        "வன்",
        -6.392364185180197
      ],
      [
        "ி",
        -6.4030109845348875
      ],
      [
        "ல",
        -6.406572142906349
      ],
      [
        "யா",
        -6.42199988114009
      ],
      [
        "கள்",
        -6.461846057090073
      ],
      [
        "5",
        -6.467294378083521
      ],
      [
        "தோழி",
        -6.467515082193713
      ],
      [
        "வா",
        -6.467636216229619
      ],
      [
        "த்த",
        -6.483853291628159
      ],
      [
        "ட",
        -6.49290083489985
      ],
      [
        "4",
        -6.5085843399471175
      ],
      [
        "தே",
        -6.535904876465468
      ],
      [
        "9",
        -6.538081314838205
      ],
      [
        "யே",
        -6.547084050712565
      ],
      [
        "ர",
        -6.5505199649653525
      ],
      [
        "தன்",
        -6.551887360336475
      ],
      [
        "வாய்",
        -6.603394684812543
      ],
      [
        "வே",
        -6.605375925069651
      ],
      [
        "8",
        -6.614299880670033
      ],
      [
        "6",
        -6.626282501703207
      ],
      [
        "ோ",
        -6.6337447207710705
      ],
      [
        "கை",
        -6.646976748209625
      ],
      [
        "ள்",
        -6.656600010441489
      ],
      [
        "போற்றி",
        -6.659694340141703
      ],
      [
        "ால்",
        -6.663578442943165
      ],
      [
        "என்று",
        -6.669654363035861
      ],
      [
        "7",
        -6.67892745038901
      ],
      [
        "வும்",
        -6.697880250690451
      ],
      [
        "ொடு",
        -6.6993454347822246
      ],
      [
        "னை",
        -6.70007987588188
      ],
      [
        "கண்",
        -6.744634797299377
      ],
      [
        "வர்",
        -6.762997025929272
      ],
      [
        "யின்",
        -6.771516348486366
      ],
      [
        "ான்",
        -6.77243805631852
      ],
      [
        "தி",
        -6.77869615944628
      ],
      [
        "தா",
        -6.780434910823942
      ],
      [
        "பாடப்பட்டோ",
        -6.789541571297279
      ],
      [
        "ள",
        -6.795684300679954
      ],
      [
        "ேன்",
        -6.80373555635931
      ],
      [
        "10",
        -6.806299859813231
      ],
      [
        "அ",
        -6.8282807147576845
      ],
      [
        "வை",
        -6.8308466247230015
      ],
      [
        "ந",
        -6.832320149811858
      ],
      [
        "க்க",
        -6.847096201679103
      ],
      [
        "கு",
        -6.850138085912505
      ],
      [
        "தீ",
        -6.865535242467548
      ],
      [
        "கொண்ட",
        -6.865912070560401
      ],
      [
        "போல",
        -6.8830010151000405
      ],
      [
        "ப்ப",
        -6.903261174262192
      ],
      [
        "ஒரு",
        -6.906601617347313
      ],
      [
        "என",
        -6.909669482257263
      ],
      [
        "மை",
        -6.91205772132738
      ],
      [
        "கொண்டு",
        -6.9140599980124895
      ],
      [
        "வந்த",
        -6.919207791102642
      ],
      [
        "நிலை",
        -6.92533479328522
      ],
      [
        "யார்",
        -6.926066438709121
      ],
      [
        "தான்",
        -6.927909379001522
      ],
      [
        "மும்",
        -6.935382046099622
      ],
      [
        "ந்து",
        -6.935684761798995
      ],
      [
        "நாட",
        -6.952981525979505
      ],
      [
        "சிறு",
        -6.9553940879433345
      ],
      [
        "வந்து",
        -6.963106286591218
      ],
      [
        "நீர்",
        -6.9693874480566445
      ],
      [
        "தலை",
        -6.978932126155957
      ],
      [
        "மாலை",
        -6.989412548214834
      ],
      [
        "று",
        -7.010439269868127
      ],
      [
        "கோ",
        -7.018887674841035
      ],
      [
        "மலை",
        -7.022046057287944
      ],
      [
        "நின்ற",
        -7.038822219824656
      ],
      [
        "அன்ன",
        -7.03999940851991
      ],
      [
        "ினும்",
        -7.04201399769532
      ],
      [
        "போல்",
        -7.057457549693198
      ],
      [
        "வாழி",
        -7.060719835815763
      ],
      [
        "தலைவி",
        -7.0921699756867005
      ],
      [
        "வி",
        -7.1059769057986255
      ],
      [
        "யில்",
        -7.106958434248133
      ],
      [
        "நா",
        -7.1237365112245605
      ],
      [
        "டி",
        -7.13013706319578
      ],
      [
        "ிற்",
        -7.134858879196854
      ],
      [
        "ஆ",
        -7.157084333573717
      ],
      [
        "ோர்",
        -7.1607486015265405
      ],
      [
        "ந்த",
        -7.170464050317263
      ],
      [
        "கா",
        -7.181146155791753
      ],
      [
        "ஞ்",
        -7.195878087175731
      ],
      [
        "ரி",
        -7.210907835484114
      ],
      [
        "யோ",
        -7.222013515555417
      ],
      [
        "யானை",
        -7.2506547071753635
      ],
      [
        "பு",
        -7.250913526743063
      ],
      [
        "ாள்",
        -7.25573053927597
      ],
      [
        "ிய",
        -7.25913800316716
      ],
      [
        "படு",
        -7.273121751771742
      ],
      [
        "ண",
        -7.276298156738285
      ],
      [
        "முல்லை",
        -7.281462680039334
      ],
      [
        "னும்",
        -7.283468206229646
      ],
      [
        "த்தி",
        -7.284395513780041
      ],
      [
        "லும்",
        -7.289579063952481
      ],
      [
        "யான்",
        -7.293857877941681
      ],
      [
        "குறிஞ்சி",
        -7.2949556958459585
      ],
      [
        "திரு",
        -7.310964078452712
      ],
      [
        "பல",
        -7.31996653969794
      ],
      [
        "ோன்",
        -7.326346453570551
      ],
      [
        "’",
        -7.329409645427455
      ],
      [
        "சென்ற",
        -7.3315097431979455
      ],
      [
        "இ",
        -7.343813012288698
      ],
      [
        "நல்ல",
        -7.344958247738192
      ],
      [
        "மு",
        -7.347550188552644
      ],
      [
        "மொழி",
        -7.354613193097714
      ],
      [
        "பாடாண்",
        -7.357907545725003
      ],
      [
        "தன்ன",
        -7.361205014792367
      ],
      [
        "ண்",
        -7.362052383341767
      ],
      [
        "செய்",
        -7.3666544568848735
      ],
      [
        "கொல்",
        -7.37982359510427
      ],
      [
        "மணி",
        -7.3907830652629105
      ],
      [
        "பூ",
        -7.395792245037308
      ],
      [
        "மேல்",
        -7.4009564535467485
      ],
      [
        "டு",
        -7.4023182548825
      ],
      [
        "பாலை",
        -7.405334925322989
      ],
      [
        "மலர்",
        -7.40873800841531
      ],
      [
        "எம்",
        -7.409725102331095
      ],
      [
        "தோ",
        -7.410490235309702
      ],
      [
        "உள்ள",
        -7.413710400261648
      ],
      [
        "ரா",
        -7.415434233259176
      ],
      [
        "யல்",
        -7.41623543980006
      ],
      [
        "உ",
        -7.4194328532709966
      ],
      [
        "வு",
        -7.425144781859183
      ],
      [
        "யர்",
        -7.4258133501181485
      ],
      [
        "நின்று",
        -7.427064448572906
      ],
      [
        "20",
        -7.427528556087809
      ],
      [
        "என்ற",
        -7.428688498695465
      ],
      [
        "கி",
        -7.433858991799536
      ],
      [
        "லா",
        -7.443420261167918
      ],
      [
        "நாள்",
        -7.453053737880111
      ],
      [
        "வாகை",
        -7.454911271595027
      ],
      [
        "மதி",
        -7.455062333521504
      ],
      [
        "‘",
        -7.456445293028786
      ],
      [
        "மன்ற",
        -7.461445827799375
      ],
      [
        "றி",
        -7.471507083087623
      ],
      [
        "கண்ண",
        -7.472780481689187
      ],
      [
        "எ",
        -7.4756938270686355
      ],
      [
        "தம்",
        -7.478583348246757
      ],
      [
        "தண்",
        -7.480902263614257
      ],
      [
        "கலி",
        -7.489946557442645
      ],
      [
        "வான்",
        -7.499084623455584
      ],
      [
        "மென்",
        -7.500806130530771
      ],
      [
        "ச",
        -7.510210279725607
      ],
      [
        "மான்",
        -7.513601100773585
      ],
      [
        "ென",
        -7.516826135858471
      ],
      [
        "தரு",
        -7.519393242828384
      ],
      [
        "ணி",
        -7.52218593534022
      ],
      [
        "வர",
        -7.5221992788469505
      ],
      [
        "பல்",
        -7.532727328299447
      ],
      [
        "ையும்",
        -7.533731965355323
      ],
      [
        "அல்ல",
        -7.536409113029117
      ],
      [
        "நோக்கி",
        -7.546230084787456
      ],
      [
        "மி",
        -7.549362798731492
      ],
      [
        "ரும்",
        -7.563580245029963
      ],
      [
        "போ",
        -7.572604875137519
      ],
      [
        "ரு",
        -7.5728650796598895
      ],
      [
        "கண்ட",
        -7.5801101692078685
      ],
      [
        "வளை",
        -7.582452927971676
      ],
      [
        "அது",
        -7.582515397353543
      ],
      [
        "மாய",
        -7.583485052588325
      ],
      [
        "வார்",
        -7.583678845338261
      ],
      [
        "கெழு",
        -7.58430661832612
      ],
      [
        "30",
        -7.588227025476002
      ],
      [
        "உன்",
        -7.589572018097189
      ],
      [
        "ஆக",
        -7.590425273176031
      ],
      [
        "அணி",
        -7.595404007693875
      ],
      [
        "இரு",
        -7.5969226723141405
      ],
      [
        "அம்ம",
        -7.608445337812571
      ],
      [
        "வரி",
        -7.610056359900551
      ],
      [
        "கடல்",
        -7.617800188847687
      ],
      [
        "பா",
        -7.618070728089619
      ],
      [
        "நான்",
        -7.622463179370892
      ],
      [
        "தன",
        -7.623018203260476
      ],
      [
        "ாது",
        -7.628875961218545
      ],
      [
        "வழி",
        -7.633779586850668
      ],
      [
        "செய்த",
        -7.635323733052361
      ],
      [
        "பொன்",
        -7.640344738840431
      ],
      [
        "கண்டு",
        -7.640704304097887
      ],
      [
        "டை",
        -7.641695450175492
      ],
      [
        "யை",
        -7.6424420101340464
      ],
      [
        "கம்",
        -7.643428282461085
      ],
      [
        "மோ",
        -7.647935745586464
      ],
      [
        "முன்",
        -7.6528566899964625
      ],
      [
        "என்ன",
        -7.659341446219186
      ],
      [
        "ற்கு",
        -7.664675628111014
      ],
      [
        "வாள்",
        -7.66510141005075
      ],
      [
        "கின்ற",
        -7.667907118128297
      ],
      [
        "பம்",
        -7.669135839424596
      ],
      [
        "யி",
        -7.674099969869011
      ],
      [
        "காஞ்சி",
        -7.6788794571320595
      ],
      [
        "கான",
        -7.679142054425533
      ],
      [
        "நெய்தல்",
        -7.679935397539013
      ],
      [
        "ூர்",
        -7.686179938352979
      ],
      [
        "கார்த்திகைத்",
        -7.688591850137228
      ],
      [
        "இன்று",
        -7.689627501919659
      ],
      [
        "நன்",
        -7.691762960786497
      ],
      [
        "ீ",
        -7.6960102021389
      ],
      [
        "15",
        -7.696951302884012
      ],
      [
        "கொள்",
        -7.697004248022494
      ],
      [
        "யிற்",
        -7.698031244386743
      ],
      [
        "வெண்",
        -7.701708518121971
      ],
      [
        "பால்",
        -7.704289661599491
      ],
      [
        "பெரு",
        -7.710063738694657
      ],
      [
        "ழி",
        -7.711416144692868
      ],
      [
        "நம்",
        -7.715745422505941
      ],
      [
        "ன்று",
        -7.716156262334088
      ],
      [
        "வேண்டும்",
        -7.72133427046095
      ],
      [
        "மகளிர்",
        -7.736807703534879
      ],
      [
        "ங்க",
        -7.741535819358074
      ],
      [
        "ீர்",
        -7.744578648667178
      ],
      [
        "னி",
        -7.746873259549229
      ],
      [
        "பாட",
        -7.748570465911891
      ],
      [
        "ோடு",
        -7.752806776253678
      ],
      [
        "நல்",
        -7.764014858894022
      ],
      [
        "பாடி",
        -7.764496393543896
      ],
      [
        "ுடன்",
        -7.764548429976343
      ],
      [
        "ளே",
        -7.769361887096904
      ],
      [
        "ுங்",
        -7.770931140931082
      ],
      [
        "தல்",
        -7.771716341344154
      ],
      [
        "வான",
        -7.772351880942003
      ],
      [
        "ஓர்",
        -7.785666984350649
      ],
      [
        "வோ",
        -7.786181208177015
      ],
      [
        "யான",
        -7.786849442704841
      ],
      [
        "வரை",
        -7.789950947401147
      ],
      [
        "அவன்",
        -7.793651566292663
      ],
      [
        "லை",
        -7.795572078692483
      ],
      [
        "கள",
        -7.7961703003695
      ],
      [
        "தை",
        -7.79981713766039
      ],
      [
        "பெற்ற",
        -7.800025094735348
      ],
      [
        "இல்லை",
        -7.801455260419817
      ],
      [
        "புகழ்",
        -7.802995419265509
      ],
      [
        "வரு",
        -7.80488141226803
      ],
      [
        "கடை",
        -7.805056022030813
      ],
      [
        "காலை",
        -7.806581467390615
      ],
      [
        "ரை",
        -7.807307182613621
      ],
      [
        "நாடு",
        -7.807430836816071
      ],
      [
        "சென்று",
        -7.8076278136643955
      ],
      [
        "11",
        -7.814750386452286
      ],
      [
        "முறை",
        -7.815268880074644
      ],
      [
        "சி",
        -7.816905393083494
      ],
      [
        "40",
        -7.819745550472573
      ],
      [
        "ஆர்",
        -7.819771778428148
      ],
      [
        "மெய்",
        -7.8207153391753454
      ],
      [
        "அவர்",
        -7.822705366470479
      ],
      [
        "காண",
        -7.828285604707247
      ],
      [
        "னர்",
        -7.830246324421487
      ],
      [
        "ஆர",
        -7.838077113935251
      ],
      [
        "மின்",
        -7.844154758342691
      ],
      [
        "அம்",
        -7.844528389493089
      ],
      [
        "ோம்",
        -7.845518256356957
      ],
      [
        "படை",
        -7.854523357598415
      ],
      [
        "ுந்",
        -7.857481176448088
      ],
      [
        "வாழ",
        -7.860498775640642
      ],
      [
        "பாடிய",
        -7.866126850177516
      ],
      [
        "19",
        -7.866130843831899
      ],
      [
        "அந்த",
        -7.867513681525219
      ],
      [
        "ைக்",
        -7.867682767861096
      ],
      [
        "பின்",
        -7.870131454226927
      ],
      [
        "நெஞ்ச",
        -7.8716939540170445
      ],
      [
        "35",
        -7.87477828252812
      ],
      [
        "இன்ன",
        -7.875255312193145
      ],
      [
        "லே",
        -7.876063878154717
      ],
      [
        "மன்ன",
        -7.877325912416474
      ],
      [
        "தாள்",
        -7.880045225478901
      ],
      [
        "ழ",
        -7.890916858904544
      ],
      [
        "ஆயினும்",
        -7.891416501814154
      ],
      [
        "25",
        -7.892060815581597
      ],
      [
        "யு",
        -7.892461976293852
      ],
      [
        "கழி",
        -7.899333729024195
      ],
      [
        "செய்ய",
        -7.901033554239368
      ],
      [
        "வினை",
        -7.902529352089207
      ],
      [
        "னா",
        -7.904986797638656
      ],
      [
        "பரிசில",
        -7.905146969540332
      ],
      [
        "விட",
        -7.907560490736845
      ],
      [
        "பட்ட",
        -7.90887817291796
      ],
      [
        "கால",
        -7.908983907670144
      ],
      [
        "ென்",
        -7.910436846479171
      ],
      [
        "கூந்தல்",
        -7.912152007284154
      ],
      [
        "த்தை",
        -7.916189637757458
      ],
      [
        "கால்",
        -7.917240335691641
      ],
      [
        "முது",
        -7.918943421511285
      ],
      [
        "ஊர",
        -7.924197007647622
      ],
      [
        "பொதுவி",
        -7.928643503458769
      ],
      [
        "றா",
        -7.929409928567832
      ],
      [
        "ணை",
        -7.930775374976315
      ],
      [
        "வேறு",
        -7.940793525620332
      ],
      [
        "பி",
        -7.948475537156351
      ],
      [
        "பெருங்",
        -7.948640648192621
      ],
      [
        "யொடு",
        -7.949399097445007
      ],
      [
        "யாம்",
        -7.951897921634101
      ],
      [
        "வைத்த",
        -7.952904738497584
      ],
      [
        "வல்",
        -7.955221941248186
      ],
      [
        "தன்னை",
        -7.957330702288217
      ],
      [
        "யாய்",
        -7.958089999929712
      ],
      [
        "தர",
        -7.958214790301871
      ],
      [
        "ட்",
        -7.959488911852511
      ],
      [
        "தோள்",
        -7.960991001217484
      ],
      [
        "தேர்",
        -7.962003711483034
      ],
      [
        "தானே",
        -7.962459251328876
      ],
      [
        "ைப்",
        -7.963310671563892
      ],
      [
        "பெரும",
        -7.968282305111089
      ],
      [
        "லி",
        -7.968413605807067
      ],
      [
        "யடு",
        -7.969624824177755
      ],
      [
        "என்னை",
        -7.97286155442673
      ],
      [
        "என்ப",
        -7.974235319368593
      ],
      [
        "உடைய",
        -7.976180556626132
      ],
      [
        "இசை",
        -7.977358569229726
      ],
      [
        "பெயர்",
        -7.9774210494313245
      ],
      [
        "இனி",
        -7.977521152578195
      ],
      [
        "மொடு",
        -7.978390440788936
      ],
      [
        "வேல்",
        -7.980465447445722
      ],
      [
        "மான",
        -7.982189390918036
      ],
      [
        "ரே",
        -7.984012739114534
      ],
      [
        "சா",
        -7.98744769143219
      ],
      [
        "பர",
        -7.9891565433692255
      ],
      [
        "வார",
        -7.993640357517055
      ],
      [
        "அடி",
        -7.997046418870321
      ],
      [
        "விளை",
        -7.998131971066488
      ],
      [
        "அரச",
        -7.999082996971534
      ],
      [
        "அறியா",
        -7.999625783089493
      ],
      [
        "கதிர்",
        -8.006099187735849
      ],
      [
        "குடி",
        -8.00824087125536
      ],
      [
        "மட",
        -8.010909836092779
      ],
      [
        "நளன்",
        -8.011962515768712
      ],
      [
        "கிழார",
        -8.016913611493296
      ],
      [
        "கண்ணி",
        -8.019064370768234
      ],
      [
        "சு",
        -8.020826178554259
      ],
      [
        "பட",
        -8.023503159746276
      ],
      [
        "பத்து",
        -8.025309409150829
      ],
      [
        "17",
        -8.025718401684987
      ],
      [
        "லின்",
        -8.027289321242803
      ],
      [
        "தானை",
        -8.03179406905517
      ],
      [
        "ுடை",
        -8.032124557531313
      ],
      [
        "முக",
        -8.035690614480687
      ],
      [
        "இடை",
        -8.03883934343664
      ],
      [
        "16",
        -8.039113276882528
      ],
      [
        "ஈ",
        -8.040008589435889
      ],
      [
        "போது",
        -8.043336147154092
      ],
      [
        "சேர்",
        -8.044473489756705
      ],
      [
        "த்துக்",
        -8.046830729806715
      ],
      [
        "சே",
        -8.049044233187018
      ],
      [
        "கோதை",
        -8.051123111053602
      ],
      [
        "வனே",
        -8.053384854474746
      ],
      [
        "களை",
        -8.057403731206358
      ],
      [
        "துணை",
        -8.058725165930358
      ],
      [
        "39",
        -8.061510707484604
      ],
      [
        "மேனி",
        -8.066288668361864
      ],
      [
        "ளி",
        -8.066361110688241
      ],
      [
        "இருந்த",
        -8.067321896091176
      ],
      [
        "கரு",
        -8.069343951721034
      ],
      [
        "கட",
        -8.070047391298573
      ],
      [
        "29",
        -8.07388521766621
      ],
      [
        "இது",
        -8.07407876517903
      ],
      [
        "கொல்லோ",
        -8.077563858920087
      ],
      [
        "18",
        -8.081116034310298
      ],
      [
        "வன",
        -8.08412015000344
      ],
      [
        "ொ",
        -8.085281033619633
      ],
      [
        "புற",
        -8.088580846544911
      ],
      [
        "மர",
        -8.090623581337423
      ],
      [
        "னன்",
        -8.091720963800912
      ],
      [
        "மன்",
        -8.096511940305955
      ],
      [
        "சீர்",
        -8.097055391744313
      ],
      [
        "சூழ்",
        -8.099049459957815
      ],
      [
        "முலை",
        -8.102286664683245
      ],
      [
        "காண்",
        -8.110751365944921
      ],
      [
        "களி",
        -8.110965264637535
      ],
      [
        "என்றும்",
        -8.112163481262966
      ],
      [
        "ுறை",
        -8.115784233460815
      ],
      [
        "பொய்",
        -8.12300254869411
      ],
      [
        "ஆகி",
        -8.123148120709835
      ],
      [
        "காம",
        -8.12404147149622
      ],
      [
        "செய்து",
        -8.126766844994478
      ],
      [
        "வண்ண",
        -8.130339226791788
      ],
      [
        "நெடு",
        -8.130406122574694
      ],
      [
        "தும்",
        -8.131673642660523
      ],
      [
        "ஆயின்",
        -8.133212027494643
      ],
      [
        "உரு",
        -8.134007834597096
      ],
      [
        "பிறர்",
        -8.134572468534486
      ],
      [
        "தென்",
        -8.135273502760356
      ],
      [
        "ஐய",
        -8.136243192523914
      ],
      [
        "ாக",
        -8.137770210283907
      ],
      [
        "அதனால்",
        -8.138464600707135
      ],
      [
        "பற்றி",
        -8.140104089694965
      ],
      [
        "செல்வ",
        -8.140747276777201
      ],
      [
        "கொடி",
        -8.141414161896574
      ],
      [
        "ய்",
        -8.141598987041963
      ],
      [
        "0",
        -8.141652340784972
      ],
      [
        "ங்கள்",
        -8.141876836561519
      ],
      [
        "யன்ன",
        -8.142156721004833
      ],
      [
        "யாக",
        -8.145087200598113
      ],
      [
        "மழை",
        -8.146050572737206
      ],
      [
        "ஆய்",
        -8.147090639955845
      ],
      [
        "நெறி",
        -8.14785931362265
      ],
      [
        "பகை",
        -8.14970456267422
      ],
      [
        "சொல்",
        -8.149977977131638
      ],
      [
        "தெ",
        -8.151006433803268
      ],
      [
        "'",
        -8.153576474100666
      ],
      [
        "எல்லாம்",
        -8.15754656843616
      ],
      [
        "14",
        -8.161014506111643
      ],
      [
        "ற்ற",
        -8.164627024171152
      ],
      [
        "குன்ற",
        -8.165558112085867
      ],
      [
        "பாண",
        -8.169465708425921
      ],
      [
        "ப்பு",
        -8.169496320511044
      ],
      [
        "மண்",
        -8.171233797509156
      ],
      [
        "படி",
        -8.171452990205118
      ],
      [
        "ஒ",
        -8.172854526027745
      ],
      [
        "வண்டு",
        -8.172894480907665
      ],
      [
        "ஆங்கு",
        -8.177115053797632
      ],
      [
        "ஊர்",
        -8.177301468296818
      ],
      [
        "ஒன்று",
        -8.177698229440319
      ],
      [
        "வள",
        -8.17980180565803
      ],
      [
        "கார்",
        -8.181312736931414
      ],
      [
        "னு",
        -8.18472843452231
      ],
      [
        "50",
        -8.189230031951194
      ],
      [
        "முடி",
        -8.18979333863255
      ],
      [
        "சோழன",
        -8.190811305267326
      ],
      [
        "னென்",
        -8.191735133856636
      ],
      [
        "கேட்ட",
        -8.192271468610445
      ],
      [
        "லோ",
        -8.198047934705357
      ],
      [
        "அஞ்சி",
        -8.199953911083014
      ],
      [
        "இந்த",
        -8.200100439744944
      ],
      [
        "அரி",
        -8.200867787284356
      ],
      [
        "வில்",
        -8.200973391557195
      ],
      [
        "37",
        -8.20236119116737
      ],
      [
        "ங்கு",
        -8.202625122800443
      ],
      [
        "60",
        -8.20351486005871
      ],
      [
        "36",
        -8.204340436679608
      ],
      [
        "இவள்",
        -8.205091535780895
      ],
      [
        "கண்டாய்",
        -8.205514808597933
      ],
      [
        "கொள்ள",
        -8.207351706740027
      ],
      [
        "வல்ல",
        -8.2098956562694
      ],
      [
        "பாடு",
        -8.212821405860108
      ],
      [
        "விடு",
        -8.215192515129425
      ],
      [
        "லு",
        -8.215522215116312
      ],
      [
        "38",
        -8.21849203246556
      ],
      [
        "கொற்ற",
        -8.219554182432155
      ],
      [
        "மடந்தை",
        -8.219720445458545
      ],
      [
        "70",
        -8.221715878698737
      ],
      [
        "பார்",
        -8.221853393626013
      ],
      [
        "கபிலர",
        -8.225578165170543
      ],
      [
        "போத",
        -8.2258335533129
      ],
      [
        "மற்ற",
        -8.23024268095913
      ],
      [
        "45",
        -8.23206191093487
      ],
      [
        "26",
        -8.236357370875984
      ],
      [
        "விரி",
        -8.236611342145466
      ],
      [
        "பொரு",
        -8.2372390991092
      ],
      [
        "சிறப்பு",
        -8.238076045038692
      ],
      [
        "ெ",
        -8.25417803049547
      ],
      [
        "உற்ற",
        -8.260065528466672
      ],
      [
        "27",
        -8.260653212914168
      ],
      [
        "கண",
        -8.262277072205588
      ],
      [
        "ற்று",
        -8.262445577389062
      ],
      [
        "லோர்",
        -8.263468830036283
      ],
      [
        "வீ",
        -8.266381367210261
      ],
      [
        "ெல்லாம்",
        -8.270173565309479
      ],
      [
        "விருத்தம்",
        -8.272360680861242
      ],
      [
        "லாம்",
        -8.272472019151811
      ],
      [
        "திருமொழி",
        -8.274051606688094
      ],
      [
        "கடி",
        -8.27539384605998
      ],
      [
        "பள்ளி",
        -8.277188616282624
      ],
      [
        "வாரா",
        -8.277265984784695
      ],
      [
        "மனை",
        -8.278694075418901
      ],
      [
        "28",
        -8.279294744571342
      ],
      [
        "பேர்",
        -8.279363259305095
      ],
      [
        "ிட",
        -8.279810793664476
      ],
      [
        "சொன்ன",
        -8.282353156283838
      ],
      [
        "அன்று",
        -8.283947570346413
      ],
      [
        "பெரும்",
        -8.284781705850156
      ],
      [
        "ையார்",
        -8.292043769983245
      ],
      [
        "காண்க",
        -8.292398457066339
      ],
      [
        "மூ",
        -8.295469498846447
      ],
      [
        "ஆய",
        -8.296475492948366
      ],
      [
        "ிருந்த",
        -8.297140368229117
      ],
      [
        "மருதம்",
        -8.298617229720728
      ],
      [
        "ுஞ்",
        -8.300663441961664
      ],
      [
        "34",
        -8.300876096121682
      ],
      [
        "விட்டு",
        -8.301159507314368
      ],
      [
        "தமயந்தி",
        -8.30148142888101
      ],
      [
        "மீன்",
        -8.301634276938483
      ],
      [
        "அல்லது",
        -8.302019240222862
      ],
      [
        "தார்",
        -8.303436369648022
      ],
      [
        "வாழ்",
        -8.303590746881682
      ],
      [
        "போய்",
        -8.307152986506946
      ],
      [
        "பாத",
        -8.308359224767578
      ],
      [
        "அற",
        -8.308388622655574
      ],
      [
        "ஒளி",
        -8.309398455916275
      ],
      [
        "80",
        -8.309461445618163
      ],
      [
        "காட்டி",
        -8.309470882815724
      ],
      [
        "தூ",
        -8.309717598207083
      ],
      [
        "நனி",
        -8.310032842568313
      ],
      [
        "றே",
        -8.310356569605919
      ],
      [
        "குல",
        -8.310939771947744
      ],
      [
        "வந்",
        -8.310968030541709
      ],
      [
        "பாரி",
        -8.311368246333423
      ],
      [
        "முதல்",
        -8.312548567944798
      ],
      [
        "உறு",
        -8.317543719184648
      ],
      [
        "சோலை",
        -8.319210910874848
      ],
      [
        "ார்கள்",
        -8.320884028826207
      ],
      [
        "எழு",
        -8.322844093257878
      ],
      [
        "ாமல்",
        -8.323945516710381
      ],
      [
        "ச்சி",
        -8.323997866002951
      ],
      [
        "களிறு",
        -8.324863618659837
      ],
      [
        "குரல்",
        -8.32514711393473
      ],
      [
        "கூற",
        -8.325903203670766
      ],
      [
        "கிடந்த",
        -8.326902963864658
      ],
      [
        "நோய்",
        -8.327535182142649
      ],
      [
        "ரோ",
        -8.327573311664313
      ],
      [
        "வலி",
        -8.327637080965264
      ],
      [
        "உண்டு",
        -8.328713480109817
      ],
      [
        "திரை",
        -8.329862268304634
      ],
      [
        "கையறு",
        -8.329908613203152
      ],
      [
        "றை",
        -8.330072663221335
      ],
      [
        "காள்",
        -8.330122366432366
      ],
      [
        "வண்",
        -8.330170267692226
      ],
      [
        "னைப்",
        -8.330470681614402
      ],
      [
        "உயிர்",
        -8.331155310866292
      ],
      [
        "வெள்",
        -8.33135944828565
      ],
      [
        "என்னும்",
        -8.331462783372826
      ],
      [
        "ஆனால்",
        -8.333854410598251
      ],
      [
        "பிற",
        -8.33393551035002
      ],
      [
        "மறை",
        -8.33451350579313
      ],
      [
        "தொடி",
        -8.33583695117424
      ],
      [
        "செல்ல",
        -8.33759039998992
      ],
      [
        "தார",
        -8.342302004500265
      ],
      [
        "இல்",
        -8.342330796489799
      ],
      [
        "த்துப்",
        -8.343914844302557
      ],
      [
        "ுடைய",
        -8.34726240932812
      ],
      [
        "மாக",
        -8.348873517291022
      ],
      [
        "காதலர்",
        -8.349043494983182
      ],
      [
        "பலவ",
        -8.349552957360268
      ],
      [
        "கைய",
        -8.35106397274996
      ],
      [
        "90",
        -8.352406330428797
      ],
      [
        "குட",
        -8.35446764811211
      ],
      [
        "குவளை",
        -8.359451783329636
      ],
      [
        "சில",
        -8.359733830871761
      ],
      [
        "ுநர்",
        -8.35984538210647
      ],
      [
        "உன்னை",
        -8.361379701765884
      ],
      [
        "மங்கை",
        -8.366792966140803
      ],
      [
        "கோல்",
        -8.368332987075835
      ],
      [
        "நில",
        -8.36900432709437
      ],
      [
        "உயர்",
        -8.371304307395393
      ],
      [
        "பிள்ளை",
        -8.372564421830168
      ],
      [
        "கொடு",
        -8.375013311818087
      ],
      [
        "அன்னை",
        -8.375486046856263
      ],
      [
        "வென்",
        -8.376737977542483
      ],
      [
        "24",
        -8.37790893151285
      ],
      [
        "கல்",
        -8.378010682044046
      ],
      [
        "மார்ப",
        -8.378571100259705
      ],
      [
        "இன்",
        -8.379326620920315
      ],
      [
        "தில்லை",
        -8.381261805362646
      ],
      [
        "தாம்",
        -8.381389364744209
      ],
      [
        "மதுரை",
        -8.389587593061606
      ],
      [
        "கொண்",
        -8.39170070222321
      ],
      [
        "ாத",
        -8.394763805739862
      ],
      [
        "ஓ",
        -8.396377471075596
      ],
      [
        "பொருள்",
        -8.396671855687355
      ],
      [
        "ஏ",
        -8.399000025429356
      ],
      [
        "ுதல்",
        -8.399003730067513
      ],
      [
        "அருவி",
        -8.399335177525368
      ],
      [
        "பேர",
        -8.400113085232404
      ],
      [
        "த்தே",
        -8.400483762938059
      ],
      [
        "13",
        -8.401237458054585
      ],
      [
        "அங்கு",
        -8.402317990306898
      ],
      [
        "நீயே",
        -8.402652454884585
      ],
      [
        "சொல்ல",
        -8.403696551859264
      ],
      [
        "இட",
        -8.403890901504354
      ],
      [
        "னோ",
        -8.407695937050875
      ],
      [
        "நிரை",
        -8.408864095496696
      ],
      [
        "வள்",
        -8.410250353025349
      ],
      [
        "கொ",
        -8.416013541187858
      ],
      [
        "கொங்கை",
        -8.417634768549554
      ],
      [
        "சேர",
        -8.418028315894675
      ],
      [
        "நி",
        -8.41808562109413
      ],
      [
        "சுடர்",
        -8.418491518204522
      ],
      [
        "நடை",
        -8.42469475706829
      ],
      [
        "கூட",
        -8.426369820713305
      ],
      [
        "வேலை",
        -8.426480056971764
      ],
      [
        "க்கே",
        -8.427065983249644
      ],
      [
        "வைய",
        -8.428813452356392
      ],
      [
        "எம்பா",
        -8.42993970839429
      ],
      [
        "தாய்",
        -8.430295552634028
      ],
      [
        "தனி",
        -8.430413374693883
      ],
      [
        "மார்",
        -8.43076134161337
      ],
      [
        "இல",
        -8.43106445051056
      ],
      [
        "மாய்",
        -8.432163590331998
      ],
      [
        "12",
        -8.43295019964472
      ],
      [
        "தேவ",
        -8.435595993476094
      ],
      [
        "தந்த",
        -8.435682159635846
      ],
      [
        "துவே",
        -8.436839077795472
      ],
      [
        "வஞ்சி",
        -8.4445597167643
      ],
      [
        "நெடுங்",
        -8.446614017423357
      ],
      [
        "சிலை",
        -8.44663747795467
      ],
      [
        "வென்ற",
        -8.446943765175451
      ],
      [
        "அரிய",
        -8.44832962021409
      ],
      [
        "போர்",
        -8.448382749851916
      ],
      [
        "அத்த",
        -8.448790641332875
      ],
      [
        "ஔ",
        -8.449282115947318
      ],
      [
        "மலர",
        -8.449874018356462
      ],
      [
        "கிளை",
        -8.450210215010463
      ],
      [
        "வைத்து",
        -8.453129442065846
      ],
      [
        "யம்",
        -8.453700931867585
      ],
      [
        "ானே",
        -8.4542977867238
      ],
      [
        "பொய்கை",
        -8.45599630371123
      ],
      [
        "தோர்",
        -8.458811593168903
      ],
      [
        "தீர்",
        -8.46146097899036
      ],
      [
        "ட்ட",
        -8.462128466840909
      ],
      [
        "வேண்டி",
        -8.462646559271551
      ],
      [
        "னைக்",
        -8.462866908186738
      ],
      [
        "தமிழர்",
        -8.463597525462045
      ],
      [
        "படர்",
        -8.46384507262805
      ],
      [
        "நீர",
        -8.464219146123911
      ],
      [
        "வேத",
        -8.464311948271291
      ],
      [
        "ரங்க",
        -8.466459588851372
      ],
      [
        "பெரிய",
        -8.46670920345496
      ],
      [
        "காத",
        -8.469226613717758
      ],
      [
        "தமிழ்",
        -8.469485717904941
      ],
      [
        "வரும்",
        -8.472179644035997
      ],
      [
        "குறை",
        -8.473515487248665
      ],
      [
        "ஆனா",
        -8.473689838991804
      ],
      [
        "கார",
        -8.474882246964079
      ],
      [
        "நோ",
        -8.476841343081354
      ],
      [
        "புக்க",
        -8.477481764982526
      ],
      [
        "கழல்",
        -8.478696261555768
      ],
      [
        "ைத்",
        -8.479850950556113
      ],
      [
        "கலை",
        -8.48373740054037
      ],
      [
        "க்கி",
        -8.484999524634237
      ],
      [
        "பெயர",
        -8.48564607859847
      ],
      [
        "சை",
        -8.48583995963179
      ],
      [
        "வேலி",
        -8.485955048701616
      ],
      [
        "ஆடு",
        -8.487362955115373
      ],
      [
        "ண்டு",
        -8.48938981094723
      ],
      [
        "ருங்",
        -8.490263180221273
      ],
      [
        "ஆற்ற",
        -8.49098330962872
      ],
      [
        "உலக",
        -8.492007783460252
      ],
      [
        "ப்பா",
        -8.492713938761781
      ],
      [
        "வேங்கை",
        -8.493562482137687
      ],
      [
        "ஒலி",
        -8.493966411290188
      ],
      [
        "சிறப்பின்",
        -8.494933778128681
      ],
      [
        "தற்",
        -8.497016721028492
      ],
      [
        "தாழ்",
        -8.49733973459972
      ],
      [
        "மாற",
        -8.497673388242058
      ],
      [
        "சோழ",
        -8.499686917497797
      ],
      [
        "ரிய",
        -8.499882637346346
      ],
      [
        "நாம்",
        -8.502589638080476
      ],
      [
        "உடை",
        -8.506343940982529
      ],
      [
        "தோற்ற",
        -8.507296360873873
      ],
      [
        "எந்தை",
        -8.509127669984883
      ],
      [
        "சங்க",
        -8.511262865592968
      ],
      [
        "நீள்",
        -8.51150064590092
      ],
      [
        "தாக",
        -8.512685752466503
      ],
      [
        "நலம்",
        -8.512858967322035
      ],
      [
        "போக",
        -8.51573483569652
      ],
      [
        "மலி",
        -8.516145651392582
      ],
      [
        "நுண்",
        -8.517075658729421
      ],
      [
        "பால",
        -8.518745631453815
      ],
      [
        "பிணி",
        -8.519567997134816
      ],
      [
        "வியன்",
        -8.52270824358551
      ],
      [
        "தோன்றும்",
        -8.524141261567918
      ],
      [
        "மல்ல",
        -8.525439261795821
      ],
      [
        "துயர",
        -8.526203140851687
      ],
      [
        "இள",
        -8.5264028303633
      ],
      [
        "மண",
        -8.526779467298452
      ],
      [
        "கூடி",
        -8.528096128029336
      ],
      [
        "யென்",
        -8.52867135256307
      ],
      [
        "தான",
        -8.53110814268913
      ],
      [
        "அறி",
        -8.532614843554727
      ],
      [
        "தொறும்",
        -8.533303106005151
      ],
      [
        "மாரி",
        -8.533975337432778
      ],
      [
        "ணர்",
        -8.53503647643204
      ],
      [
        "நாட்டு",
        -8.535141919072911
      ],
      [
        "கர",
        -8.53674639881931
      ],
      [
        "`",
        -8.53922655528508
      ],
      [
        "நாண",
        -8.53955259915747
      ],
      [
        "தீப",
        -8.541276012420813
      ],
      [
        "புலி",
        -8.54206797552156
      ],
      [
        "ிடை",
        -8.54238042566595
      ],
      [
        "வேண்டா",
        -8.542913503630846
      ],
      [
        "குறு",
        -8.543221792586316
      ],
      [
        "முன்ன",
        -8.54389757028947
      ],
      [
        "ூ",
        -8.544350377950288
      ],
      [
        "விளங்கு",
        -8.544756738905502
      ],
      [
        "குறிப்பு",
        -8.545485119064786
      ],
      [
        "வளவன்",
        -8.545735995554505
      ],
      [
        "தோன்றி",
        -8.548368787497491
      ],
      [
        "மாண்",
        -8.548910892066408
      ],
      [
        "களும்",
        -8.551739754680415
      ],
      [
        "சிறந்த",
        -8.552739408156764
      ],
      [
        "முடிய",
        -8.55418586463379
      ],
      [
        "நம்பி",
        -8.55448929719564
      ],
      [
        "உருவ",
        -8.554615937781382
      ],
      [
        "த்தா",
        -8.55470920704552
      ],
      [
        "75",
        -8.55633563238058
      ],
      [
        "65",
        -8.55707576097302
      ],
      [
        "புக",
        -8.558086974197808
      ],
      [
        "தோள",
        -8.561711161300689
      ],
      [
        "னள்",
        -8.5618876563162
      ],
      [
        "\"",
        -8.563036079094605
      ],
      [
        "ினை",
        -8.563196121064435
      ],
      [
        "ில",
        -8.563359726588375
      ],
      [
        "வளர்",
        -8.5635695406272
      ],
      [
        "மகள்",
        -8.563978142332793
      ],
      [
        "நகர்",
        -8.565883105070016
      ],
      [
        "எறி",
        -8.566616295920062
      ],
      [
        "பணி",
        -8.566900171861697
      ],
      [
        "பொ",
        -8.567683410883465
      ],
      [
        "பலர்",
        -8.568593655611574
      ],
      [
        "கொலோ",
        -8.569024937969491
      ],
      [
        "மைய",
        -8.569283097034507
      ],
      [
        "புக்கு",
        -8.569987875461823
      ],
      [
        "சாத்த",
        -8.57183964831243
      ],
      [
        "33",
        -8.572054639876518
      ],
      [
        "என்னா",
        -8.572400216749738
      ],
      [
        "உண்ட",
        -8.573678782901819
      ],
      [
        "கிற",
        -8.574737052611379
      ],
      [
        "நிறை",
        -8.575807454863924
      ],
      [
        "பூங்",
        -8.578634074264768
      ],
      [
        "ிட்டு",
        -8.578956557036712
      ],
      [
        "தாமரை",
        -8.579619569966015
      ],
      [
        "விய",
        -8.581315545487415
      ],
      [
        "திரி",
        -8.58212686985372
      ],
      [
        "கீழ்",
        -8.583896874122845
      ],
      [
        "மகன்",
        -8.584085779476638
      ],
      [
        "வாழ்க்கை",
        -8.585830823123331
      ],
      [
        "தாய",
        -8.587457585058067
      ],
      [
        "தடக்கை",
        -8.587508227691952
      ],
      [
        "துஞ்சிய",
        -8.58767722428205
      ],
      [
        "தந்தை",
        -8.588102916869264
      ],
      [
        "ிலை",
        -8.588331497161711
      ],
      [
        "பாவை",
        -8.589008990521576
      ],
      [
        "காணா",
        -8.58905695837709
      ],
      [
        "எனக்",
        -8.592017165547592
      ],
      [
        "பனி",
        -8.592781635578975
      ],
      [
        "உண்ண",
        -8.59305313186065
      ],
      [
        "மருங்கின்",
        -8.593347589902372
      ],
      [
        "வேந்தர்",
        -8.595723508968156
      ],
      [
        "23",
        -8.596168268222453
      ],
      [
        "புலம்ப",
        -8.596170263716294
      ],
      [
        "யின",
        -8.597435611252818
      ],
      [
        "வீழ்",
        -8.598278327610455
      ],
      [
        "நோக்க",
        -8.599622533297008
      ],
      [
        "புறம்",
        -8.601097473883309
      ],
      [
        "கொள்கை",
        -8.604734071565929
      ],
      [
        "தேன்",
        -8.606214132952912
      ],
      [
        "ோரே",
        -8.606693080416917
      ],
      [
        "கல",
        -8.607240235703504
      ],
      [
        "ெனக்",
        -8.607721442628257
      ],
      [
        "நாட்ட",
        -8.608563646750286
      ],
      [
        "இனிய",
        -8.60936829037845
      ],
      [
        "மாறு",
        -8.609479635591935
      ],
      [
        "வேந்தன்",
        -8.611914714511139
      ],
      [
        "கிள்ளி",
        -8.612150208346502
      ],
      [
        "விட்ட",
        -8.612460581012071
      ],
      [
        "பாண்டியன்",
        -8.612464925038763
      ],
      [
        "இயன்மொழி",
        -8.612684216613818
      ],
      [
        "ஆண்ட",
        -8.612772614564868
      ],
      [
        "தழீஇ",
        -8.6129904170181
      ],
      [
        "ாடு",
        -8.613832988819015
      ],
      [
        "சொல்லி",
        -8.614996783332963
      ],
      [
        "தலைவன",
        -8.615935262755237
      ],
      [
        "அரு",
        -8.616303132304559
      ],
      [
        "இலங்கு",
        -8.616391867098095
      ],
      [
        "சுர",
        -8.618904695336315
      ],
      [
        "ழு",
        -8.621821662485516
      ],
      [
        "ஒண்",
        -8.623733981016702
      ],
      [
        "ுக்கு",
        -8.625436465241824
      ],
      [
        "கானல்",
        -8.628883890953952
      ],
      [
        "சால்",
        -8.63225399718342
      ],
      [
        "உள",
        -8.633450916932883
      ],
      [
        "இய",
        -8.636372058028117
      ],
      [
        "55",
        -8.636989146375711
      ],
      [
        "ஆம்",
        -8.638013593726393
      ],
      [
        "கொள",
        -8.638580798737342
      ],
      [
        "வீர",
        -8.638940784366394
      ],
      [
        "அமுத",
        -8.639289020910002
      ],
      [
        "விழு",
        -8.63982173789183
      ],
      [
        "கள்ள",
        -8.643302685790584
      ],
      [
        "47",
        -8.644035529444295
      ],
      [
        "செறி",
        -8.644244782795791
      ],
      [
        "சென்னி",
        -8.645074989073132
      ],
      [
        "தோரே",
        -8.645087296540183
      ],
      [
        "22",
        -8.646437011214283
      ],
      [
        "சினை",
        -8.64685062078063
      ],
      [
        "விரை",
        -8.65044096149393
      ],
      [
        "வட",
        -8.650823482796989
      ],
      [
        "யுள்",
        -8.652411802729896
      ],
      [
        "தன்றே",
        -8.653957865952382
      ],
      [
        "காதல்",
        -8.654178359575976
      ],
      [
        "தீபம்",
        -8.654413012362237
      ],
      [
        "நாக",
        -8.654727918824888
      ],
      [
        "ுள்",
        -8.655378231598771
      ],
      [
        "அன்பு",
        -8.656075955126534
      ],
      [
        "இறை",
        -8.657685521999788
      ],
      [
        "32",
        -8.660838155226156
      ],
      [
        "கிழ",
        -8.662981934898632
      ],
      [
        "மிக்க",
        -8.663862464853429
      ],
      [
        "தும்பை",
        -8.6644233711922
      ],
      [
        "செரு",
        -8.664704737245547
      ],
      [
        "கோல",
        -8.665045611306748
      ],
      [
        "மிக",
        -8.66566317367173
      ],
      [
        "ாற்",
        -8.666676509248664
      ],
      [
        "பெருந்துறை",
        -8.666884199593342
      ],
      [
        "கடு",
        -8.667049537737228
      ],
      [
        "ஆட",
        -8.667908309843835
      ],
      [
        "கேட்டு",
        -8.671274293111
      ],
      [
        "ோள்",
        -8.671721600435138
      ],
      [
        "உண்",
        -8.673256141056768
      ],
      [
        "கட்டி",
        -8.67469113701017
      ],
      [
        "மிசை",
        -8.675430001492659
      ],
      [
        "வாழ்க",
        -8.67673421596687
      ],
      [
        "பரி",
        -8.67761686628493
      ],
      [
        "ிடம்",
        -8.678137823868667
      ],
      [
        "உள்ளம்",
        -8.678344955619707
      ],
      [
        "அருளிய",
        -8.678731620260798
      ],
      [
        "தாமே",
        -8.680279674873427
      ],
      [
        "வில்லை",
        -8.680298513774648
      ],
      [
        "பெருங்க",
        -8.680927943642118
      ],
      [
        "ளை",
        -8.681199380468193
      ],
      [
        "பதி",
        -8.682328263734199
      ],
      [
        "உறை",
        -8.682846865438423
      ],
      [
        "ுறு",
        -8.683344445967254
      ],
      [
        "கூற்ற",
        -8.68771069274485
      ],
      [
        "கல்லா",
        -8.68803445406003
      ],
      [
        "நீல",
        -8.68835141840261
      ],
      [
        "ொளி",
        -8.689192453471563
      ],
      [
        "எங்கும்",
        -8.689331658716306
      ],
      [
        "மன்னன்",
        -8.690699905991645
      ],
      [
        "இன்னா",
        -8.692047027852071
      ],
      [
        "வாராய்",
        -8.692078663830886
      ],
      [
        "காட்ட",
        -8.695971061784071
      ],
      [
        "கண்ணே",
        -8.696145339489236
      ],
      [
        "புனை",
        -8.697614118395078
      ],
      [
        "னம்",
        -8.698101501814627
      ],
      [
        "85",
        -8.698297643131735
      ],
      [
        "எரி",
        -8.69954926764057
      ],
      [
        "பெருமை",
        -8.70071239698366
      ],
      [
        "ானை",
        -8.700855047646291
      ],
      [
        "பொற்",
        -8.700913861488436
      ],
      [
        "அருள்",
        -8.70299439958216
      ],
      [
        "வண்ட",
        -8.70301611840302
      ],
      [
        "மன்னர்",
        -8.703476558601766
      ],
      [
        "செய்யும்",
        -8.703747308405045
      ],
      [
        "கொள்ளும்",
        -8.70497957213356
      ],
      [
        "மேல",
        -8.706856640672763
      ],
      [
        "வது",
        -8.70783783028072
      ],
      [
        "வெள்ளி",
        -8.708785031495296
      ],
      [
        "நின்ன",
        -8.708975046362308
      ],
      [
        "மேற்",
        -8.709693898548828
      ],
      [
        "எதிர்",
        -8.710542067082212
      ],
      [
        "மருத",
        -8.71279037314421
      ],
      [
        "பொது",
        -8.71426860301537
      ],
      [
        "குண",
        -8.714952486499612
      ],
      [
        "பரந்த",
        -8.71622240852103
      ],
      [
        "ச்ச",
        -8.717047413039175
      ],
      [
        "விளக்க",
        -8.717244418945747
      ],
      [
        "பொருந",
        -8.719143577630012
      ],
      [
        "எனக்கு",
        -8.719225773324522
      ],
      [
        "பறை",
        -8.719248020193596
      ],
      [
        "பூண்",
        -8.719367326086587
      ],
      [
        "உறையூர்",
        -8.719390361050882
      ],
      [
        "சோதி",
        -8.71970549586242
      ],
      [
        "செ",
        -8.72078888796983
      ],
      [
        "உடன்",
        -8.720999799645039
      ],
      [
        "புல",
        -8.72178531140024
      ],
      [
        "மரு",
        -8.722426924536306
      ],
      [
        "அரிவை",
        -8.723099984460042
      ],
      [
        "யுடை",
        -8.724296762576856
      ],
      [
        "உரை",
        -8.7267079564206
      ],
      [
        "மற்று",
        -8.728426948079479
      ],
      [
        "21",
        -8.728942740812515
      ],
      [
        "அருளி",
        -8.72968374237369
      ],
      [
        "தவ",
        -8.72972034171554
      ],
      [
        "பாற்",
        -8.730040525933301
      ],
      [
        "கழனி",
        -8.73023008362417
      ],
      [
        "யால்",
        -8.730361449601272
      ],
      [
        "பொன்ன",
        -8.732827839814417
      ],
      [
        "மாதோ",
        -8.733262415928511
      ],
      [
        "ஏறி",
        -8.734357782160671
      ],
      [
        "பாய",
        -8.735608249697279
      ],
      [
        "தொ",
        -8.735899046250262
      ],
      [
        "அமர்",
        -8.736018700680702
      ],
      [
        "குள",
        -8.736237185484296
      ],
      [
        "தனை",
        -8.736367087588082
      ],
      [
        "நகை",
        -8.739163505648044
      ],
      [
        "குடை",
        -8.740566341174532
      ],
      [
        "த்தின்",
        -8.74168999095465
      ],
      [
        "த்தில்",
        -8.742184324428827
      ],
      [
        "யாமே",
        -8.743845964765178
      ],
      [
        "அரும்",
        -8.744993298554158
      ],
      [
        "ூஉம்",
        -8.746304949627726
      ],
      [
        "ள்ள",
        -8.746470036882098
      ],
      [
        "நெடுமா",
        -8.746517411704597
      ],
      [
        "நெஞ்சம்",
        -8.746727673093208
      ],
      [
        "·",
        -8.747759371487987
      ],
      [
        "வேந்து",
        -8.747817013021784
      ],
      [
        "அறு",
        -8.748171196673916
      ],
      [
        "புரை",
        -8.748531374691819
      ],
      [
        "கோட்டு",
        -8.748944394412934
      ],
      [
        "மயங்கி",
        -8.750168623966541
      ],
      [
        "யாணர்",
        -8.750191278733151
      ],
      [
        "புன",
        -8.750437135964802
      ],
      [
        "டா",
        -8.751288638576913
      ],
      [
        "பொழில்",
        -8.752785669040728
      ],
      [
        "ஏந்தி",
        -8.754050420694433
      ],
      [
        "குழல்",
        -8.754068076793773
      ],
      [
        "46",
        -8.754207726346303
      ],
      [
        "லர்",
        -8.754856156454494
      ],
      [
        "கட்",
        -8.755564405562852
      ],
      [
        "திற",
        -8.755867347691318
      ],
      [
        "இனிது",
        -8.75652165669227
      ],
      [
        "அறிந்து",
        -8.756920305953807
      ],
      [
        "த்தான்",
        -8.757805345394857
      ],
      [
        "வேல",
        -8.75899795154095
      ],
      [
        "நாம",
        -8.759217682299386
      ],
      [
        "மிகு",
        -8.759655070463603
      ],
      [
        "இருந்து",
        -8.760429727691552
      ],
      [
        "இருங்",
        -8.761029895446432
      ],
      [
        "பெருந்",
        -8.761912120888661
      ],
      [
        "அன்னாய்",
        -8.762530355802648
      ],
      [
        "பெறு",
        -8.76332396170382
      ],
      [
        "பசி",
        -8.76655595410846
      ],
      [
        "உயர்ந்த",
        -8.768503240316544
      ],
      [
        "பிறந்த",
        -8.768964552425329
      ],
      [
        "உள்ளி",
        -8.769012396780331
      ],
      [
        "முரச",
        -8.769097474411478
      ],
      [
        "பெருஞ்",
        -8.771024707915958
      ],
      [
        "சோர",
        -8.77320252717104
      ],
      [
        "ஞால",
        -8.773391583124845
      ],
      [
        "அங்க",
        -8.774003083132536
      ],
      [
        "அன்ற",
        -8.774339507521653
      ],
      [
        "மரம்",
        -8.775081364019368
      ],
      [
        "கின்றே",
        -8.77607325305855
      ],
      [
        "ென்று",
        -8.776439564484026
      ],
      [
        "அருள",
        -8.776630132924417
      ],
      [
        "குரு",
        -8.776947586378846
      ],
      [
        "த்தல்",
        -8.777848618834017
      ],
      [
        "தேன",
        -8.778099398037568
      ],
      [
        "பழம்",
        -8.778633833864747
      ],
      [
        "கே",
        -8.779141146754329
      ],
      [
        "அரங்க",
        -8.780157309877463
      ],
      [
        "அறிந்த",
        -8.780186779042193
      ],
      [
        "எய்த",
        -8.780960012914981
      ],
      [
        "ிசை",
        -8.781841147041478
      ],
      [
        "யோடு",
        -8.781857031663677
      ],
      [
        "31",
        -8.78405312572764
      ],
      [
        "தண்ண",
        -8.784419265968525
      ],
      [
        "முகம்",
        -8.784878582713057
      ],
      [
        "வேட்ட",
        -8.78695522542946
      ],
      [
        "கூ",
        -8.787515466006322
      ],
      [
        "கடிய",
        -8.78824678938622
      ],
      [
        "அறிய",
        -8.788392860709145
      ],
      [
        "பிழைத்த",
        -8.788998326739604
      ],
      [
        "வளி",
        -8.789037669076965
      ],
      [
        "மகிழ்",
        -8.789430411704412
      ],
      [
        "னாய்",
        -8.789484516029887
      ],
      [
        "முற்றும்",
        -8.79013726246879
      ],
      [
        "மெல்ல",
        -8.79144111593712
      ],
      [
        "மாக்கள",
        -8.792283179161974
      ],
      [
        "ஆர்ப்ப",
        -8.792335950959771
      ],
      [
        "எண்ண",
        -8.792659438494187
      ],
      [
        "பொய்ய",
        -8.793508340316853
      ],
      [
        "ரம்",
        -8.793824468408825
      ],
      [
        "க்கண்",
        -8.794801806803697
      ],
      [
        "யாங்கு",
        -8.795498987139414
      ],
      [
        "ெழு",
        -8.795731712581787
      ],
      [
        "வாய",
        -8.796796264880445
      ],
      [
        "ப்பி",
        -8.797897284582714
      ],
      [
        "கரை",
        -8.79803398185276
      ],
      [
        "மலைய",
        -8.799341853897554
      ],
      [
        "றிய",
        -8.799651616329292
      ],
      [
        "இவ்",
        -8.800197875535655
      ],
      [
        "நிழல்",
        -8.800301093131859
      ],
      [
        "ன்றே",
        -8.800964161328428
      ],
      [
        "மாட",
        -8.802871238525729
      ],
      [
        "48",
        -8.804705015371098
      ],
      [
        "நிற",
        -8.804937401428177
      ],
      [
        "முதிர்",
        -8.805362314440542
      ],
      [
        "ெதிர்",
        -8.805706103314183
      ],
      [
        "புணர்",
        -8.805921028710685
      ],
      [
        "காடு",
        -8.807604841471615
      ],
      [
        "ஞ்சி",
        -8.80774285194018
      ],
      [
        "வென்று",
        -8.807764819362646
      ],
      [
        "மையின்",
        -8.807890427350259
      ],
      [
        "லம்",
        -8.808419517764824
      ],
      [
        "பேதை",
        -8.808760869155032
      ],
      [
        "அண்ணல்",
        -8.810127138792698
      ],
      [
        "எந்த",
        -8.810588711618793
      ],
      [
        "த்தால்",
        -8.810676300659782
      ],
      [
        "தண்ட",
        -8.811953873329012
      ],
      [
        "கடந்த",
        -8.81243405378743
      ],
      [
        "44",
        -8.81331279100224
      ],
      [
        "அதன",
        -8.813832618317827
      ],
      [
        "புலவர்",
        -8.813918144935665
      ],
      [
        "மருள்",
        -8.814848556996452
      ],
      [
        "தல",
        -8.815218534767357
      ],
      [
        "திங்கள்",
        -8.815469097697028
      ],
      [
        "பெற",
        -8.816224771313095
      ],
      [
        "வென்றி",
        -8.816995365596135
      ],
      [
        "கனி",
        -8.819394263680623
      ],
      [
        "கொடிய",
        -8.819469635822793
      ],
      [
        "கூறிய",
        -8.819824680409262
      ],
      [
        "புகழ",
        -8.820774384500263
      ],
      [
        "செம்",
        -8.821565381707229
      ],
      [
        "மீ",
        -8.821592300328701
      ],
      [
        "பாக",
        -8.82254793649099
      ],
      [
        "ஆகிய",
        -8.826301832943388
      ],
      [
        "புனல்",
        -8.827596492571201
      ],
      [
        "நெடுங்கண்",
        -8.827800142343667
      ],
      [
        "ஆண்டு",
        -8.83057319126513
      ],
      [
        "யென",
        -8.830625135766374
      ],
      [
        "நன்ற",
        -8.83104232543168
      ],
      [
        "மாற்ற",
        -8.831196701198555
      ],
      [
        "ாலும்",
        -8.833516790917761
      ],
      [
        "புல்ல",
        -8.833996365661307
      ],
      [
        "உண்மை",
        -8.835103722932576
      ],
      [
        "பற்ற",
        -8.835181919253891
      ],
      [
        "கமழ்",
        -8.837534061359044
      ],
      [
        "ஆசிரிய",
        -8.838728475509226
      ],
      [
        "வோர்",
        -8.838756276889924
      ],
      [
        "போலும்",
        -8.840322830131763
      ],
      [
        "தற்கு",
        -8.840703755764334
      ],
      [
        "புன்னை",
        -8.841567672498494
      ],
      [
        "கீர",
        -8.842097539398981
      ],
      [
        "குறி",
        -8.844906817465455
      ],
      [
        "வாழிய",
        -8.847149970576218
      ],
      [
        "யார",
        -8.847655024461039
      ],
      [
        "கூறி",
        -8.847863157188215
      ],
      [
        "ட்டு",
        -8.847914815356976
      ],
      [
        "யைக்",
        -8.848592070497554
      ],
      [
        "பணை",
        -8.850304618274698
      ],
      [
        "இட்ட",
        -8.851781115892477
      ],
      [
        "பார",
        -8.85227469009077
      ],
      [
        "வாங்கி",
        -8.854457364959222
      ],
      [
        "கூர்",
        -8.854568106366466
      ],
      [
        "நெய்",
        -8.855930185773843
      ],
      [
        "நின்னை",
        -8.856728036968482
      ],
      [
        "அடு",
        -8.856743447677182
      ],
      [
        "நம்ம",
        -8.856975536859895
      ],
      [
        "வய",
        -8.857127875188192
      ],
      [
        "மன",
        -8.859010099413364
      ],
      [
        "பரண",
        -8.85984179531985
      ],
      [
        "முகை",
        -8.861018903998952
      ],
      [
        "நேர்",
        -8.861209127671746
      ],
      [
        "அன்ப",
        -8.864240953346714
      ],
      [
        "மறி",
        -8.867109969567625
      ],
      [
        "அண்ட",
        -8.871221265305813
      ],
      [
        "வேன்",
        -8.871480540453627
      ],
      [
        "குழவி",
        -8.87256004358549
      ],
      [
        "முழு",
        -8.873360488719483
      ],
      [
        "பெரிது",
        -8.87390497752234
      ],
      [
        "ுவான்",
        -8.874850617276588
      ],
      [
        "ஆழி",
        -8.875286565646244
      ],
      [
        "ிருந்து",
        -8.87582479659009
      ],
      [
        "மகள",
        -8.876217701423254
      ],
      [
        "கன்",
        -8.877443631913842
      ],
      [
        "சிந்தை",
        -8.878198547479847
      ],
      [
        "ளா",
        -8.87849270576539
      ],
      [
        "வலை",
        -8.878793868910348
      ],
      [
        "இழை",
        -8.879452527504846
      ],
      [
        "பண்ண",
        -8.88069814336163
      ],
      [
        "ஊன்",
        -8.883182281015973
      ],
      [
        "போகிய",
        -8.883283896100298
      ],
      [
        "திகழ்",
        -8.885281757615974
      ],
      [
        "ஆடுக",
        -8.88564756657189
      ],
      [
        "மனம்",
        -8.885936987562637
      ],
      [
        "வாயில்",
        -8.886822663272962
      ],
      [
        "மற",
        -8.889952869981732
      ],
      [
        "சேரமான",
        -8.891304459143672
      ],
      [
        "கலந்த",
        -8.891601442999992
      ],
      [
        "ாயே",
        -8.89265007962623
      ],
      [
        "கரி",
        -8.892938802980293
      ],
      [
        "தென்ன",
        -8.893952029147798
      ],
      [
        "இவை",
        -8.895806630157878
      ],
      [
        "வேற்",
        -8.90099144283277
      ],
      [
        "கன்று",
        -8.901195044844279
      ],
      [
        "தகை",
        -8.902327563791172
      ],
      [
        "வம்",
        -8.902681774760127
      ],
      [
        "அற்ற",
        -8.903349185214836
      ],
      [
        "ஒற்றுமை",
        -8.90432595376436
      ],
      [
        "அதிய",
        -8.904507686432668
      ],
      [
        "ஒள்",
        -8.904850030569232
      ],
      [
        "ஆம்பல",
        -8.904929102498054
      ],
      [
        "செங்கண்",
        -8.90541339883499
      ],
      [
        "நெடுந்தேர்",
        -8.9060320966302
      ],
      [
        "விடை",
        -8.906677462780603
      ],
      [
        "அமை",
        -8.909300036315843
      ],
      [
        "காப்ப",
        -8.909610447282116
      ],
      [
        "கைக்",
        -8.909799413211566
      ],
      [
        "தீர",
        -8.911128486963293
      ],
      [
        "சீர",
        -8.912747154604846
      ],
      [
        "தாது",
        -8.912771188396775
      ],
      [
        "மணல்",
        -8.913425955413917
      ],
      [
        "செந்",
        -8.913431131745098
      ],
      [
        "அகல",
        -8.91391661495555
      ],
      [
        "நாரை",
        -8.913958714830889
      ],
      [
        "வெம்",
        -8.914005198838257
      ],
      [
        "நாளும்",
        -8.91420499753573
      ],
      [
        "மால்",
        -8.915225030028203
      ],
      [
        "புடை",
        -8.916227541067283
      ],
      [
        "கல்ல",
        -8.916259352968948
      ],
      [
        "கொழு",
        -8.916521426956447
      ],
      [
        "உண்கண",
        -8.917352690120852
      ],
      [
        "கண்டா",
        -8.918121933997194
      ],
      [
        "முத",
        -8.922301153414747
      ],
      [
        "கோயில்",
        -8.923469031929649
      ],
      [
        "கொடுத்த",
        -8.923752431634473
      ],
      [
        "புகுந்து",
        -8.924425660534428
      ],
      [
        "எண்ணி",
        -8.92457692773827
      ],
      [
        "ீரே",
        -8.925168824014063
      ],
      [
        "கடற்",
        -8.927502004531503
      ],
      [
        "மட்ட",
        -8.927986372906641
      ],
      [
        "குன்று",
        -8.928896823473229
      ],
      [
        "முட",
        -8.930770631210134
      ],
      [
        "ஒன்ற",
        -8.932207173619254
      ],
      [
        "என்பது",
        -8.932435498323258
      ],
      [
        "மண்ண",
        -8.935370445504876
      ],
      [
        "காதலி",
        -8.936630682038176
      ],
      [
        "வெற்ப",
        -8.937693134203043
      ],
      [
        "பூத",
        -8.938835304613232
      ],
      [
        "ோய்",
        -8.939731824453222
      ],
      [
        "லேலோ",
        -8.94015519276579
      ],
      [
        "பிரான",
        -8.940173591101585
      ],
      [
        "போற்",
        -8.941172113752561
      ],
      [
        "எம்பிரான்",
        -8.941441436509459
      ],
      [
        "மரபின்",
        -8.941449059052228
      ],
      [
        "முற்ற",
        -8.94404285754302
      ],
      [
        "துயர்",
        -8.944764398295618
      ],
      [
        "ஏந்து",
        -8.94605929361341
      ],
      [
        "செல்லா",
        -8.946176276314567
      ],
      [
        "யென்று",
        -8.946248766188877
      ],
      [
        "இப்",
        -8.94828791295489
      ],
      [
        "உனக்கு",
        -8.949128886863704
      ],
      [
        "இவன்",
        -8.95089914582994
      ],
      [
        "அக",
        -8.950966566089622
      ],
      [
        "ணா",
        -8.951121647138365
      ],
      [
        "அளிய",
        -8.951815076232108
      ],
      [
        "ையே",
        -8.952716553190598
      ],
      [
        "பொலிய",
        -8.952973000776113
      ],
      [
        "வயின்",
        -8.953309499789425
      ],
      [
        "இருக்கை",
        -8.953702642710645
      ],
      [
        "மறு",
        -8.954288969253067
      ],
      [
        "ஈகை",
        -8.955412341617828
      ],
      [
        "காரண",
        -8.955562165168624
      ],
      [
        "புர",
        -8.956420427013818
      ],
      [
        "அஞ்ச",
        -8.95928595733699
      ],
      [
        "போலப்",
        -8.960621260349708
      ],
      [
        "பெய்த",
        -8.961664165560288
      ],
      [
        "49",
        -8.962358708444924
      ],
      [
        "வாளை",
        -8.96334819334302
      ],
      [
        "சாந்த",
        -8.963556982258412
      ],
      [
        "நசை",
        -8.964027303135007
      ],
      [
        "சீ",
        -8.964494960797339
      ],
      [
        "ானால்",
        -8.965662896529148
      ],
      [
        "அக்கா",
        -8.965836400970373
      ],
      [
        "ங்கள",
        -8.966792320044856
      ],
      [
        "னாக",
        -8.968521707441408
      ],
      [
        "ற்கே",
        -8.96955803671618
      ],
      [
        "காட்சி",
        -8.974516796812898
      ],
      [
        "யோர்",
        -8.974596747202188
      ],
      [
        "சார",
        -8.975240192615244
      ],
      [
        "இணை",
        -8.976426954436338
      ],
      [
        "எங்கள்",
        -8.976466294333811
      ],
      [
        "அல்குல்",
        -8.976545323912616
      ],
      [
        "தமிழ",
        -8.98140290817145
      ],
      [
        "னவே",
        -8.983149420338266
      ],
      [
        "சேய்",
        -8.983696758047646
      ],
      [
        "பாணர்",
        -8.984665440034359
      ],
      [
        "நுதல்",
        -8.98496425539891
      ],
      [
        "கெட",
        -8.98578974163135
      ],
      [
        "கோன்",
        -8.986092561204007
      ],
      [
        "னால்",
        -8.987192002368554
      ],
      [
        "ண்ட",
        -8.987807356312304
      ],
      [
        "கொண்க",
        -8.988789330465721
      ],
      [
        "தொடுத்த",
        -8.98930749943479
      ],
      [
        "பசு",
        -8.991691168511942
      ],
      [
        "பொலிந்த",
        -8.995738936045326
      ],
      [
        "தில்",
        -8.997145627396115
      ],
      [
        "மல",
        -8.997927447104585
      ],
      [
        "ஒழிய",
        -8.99796529428696
      ],
      [
        "கழு",
        -8.998512202108248
      ],
      [
        "நும்",
        -8.99911477795125
      ],
      [
        "தேர",
        -8.999179083821904
      ],
      [
        "விண்",
        -9.000582330737462
      ],
      [
        "இன்றி",
        -9.000772248904413
      ],
      [
        "விழ்",
        -9.001543678381086
      ],
      [
        "ஊரே",
        -9.002288448193188
      ],
      [
        "தொழில்",
        -9.002598513277006
      ],
      [
        "பைங்க",
        -9.003494523314679
      ],
      [
        "மாகி",
        -9.005771163662523
      ],
      [
        "கொடுத்து",
        -9.006138878039033
      ],
      [
        "கத்து",
        -9.006730782064652
      ],
      [
        "ினில்",
        -9.006961666374023
      ],
      [
        "ஞான",
        -9.008608400116422
      ],
      [
        "வேறுபாடு",
        -9.009569557702294
      ],
      [
        "மலர்ந்த",
        -9.01104542247032
      ],
      [
        "எழில்",
        -9.011964302254835
      ],
      [
        "செய்யுள்",
        -9.01303765195505
      ],
      [
        "மோசி",
        -9.013241543750464
      ],
      [
        "ந்தான்",
        -9.01559837120908
      ],
      [
        "செற்ற",
        -9.016092441295342
      ],
      [
        "மக்கள்",
        -9.01663390152996
      ],
      [
        "கொன்றை",
        -9.017326630695722
      ],
      [
        "காண்ட",
        -9.018710705842173
      ],
      [
        "காக்கை",
        -9.018969733420263
      ],
      [
        "கரிய",
        -9.01920993838792
      ],
      [
        "இன",
        -9.019583303134848
      ],
      [
        "ெடுத்து",
        -9.021777252425071
      ],
      [
        "சேர்ப்ப",
        -9.02191190311397
      ],
      [
        "பயந்த",
        -9.022176637372477
      ],
      [
        "யாத",
        -9.022806295875784
      ],
      [
        "இருள்",
        -9.02311174894849
      ],
      [
        "நளன",
        -9.024367868122225
      ],
      [
        "யாது",
        -9.02628147418581
      ],
      [
        "ஈர்",
        -9.026841533775846
      ],
      [
        "பாணி",
        -9.0271922329201
      ],
      [
        "ிப்",
        -9.027925328863333
      ],
      [
        "தரும்",
        -9.028319707556673
      ],
      [
        "நெல்லி",
        -9.029217832951112
      ],
      [
        "ென்னை",
        -9.030913106846867
      ],
      [
        "யானும்",
        -9.03096504091077
      ],
      [
        "கலித்த",
        -9.031009071140272
      ],
      [
        "ருள்",
        -9.031586868871504
      ],
      [
        "ஒருவன்",
        -9.032857150830312
      ],
      [
        "ஆகல",
        -9.033297934373063
      ],
      [
        "69",
        -9.03377722806206
      ],
      [
        "உலகம்",
        -9.033831729747927
      ],
      [
        "வேண்",
        -9.035037657879242
      ],
      [
        "பெய்",
        -9.03516757232288
      ],
      [
        "நு",
        -9.035596024196137
      ],
      [
        "வனோ",
        -9.035642410693455
      ],
      [
        "மெய்ய",
        -9.036645835987391
      ],
      [
        "செவி",
        -9.037203936319624
      ],
      [
        "விண்ண",
        -9.038469287869992
      ],
      [
        "வண்ணம்",
        -9.04177378741526
      ],
      [
        "மாறி",
        -9.042235736647717
      ],
      [
        "தொல்",
        -9.042783500274766
      ],
      [
        "மருங்கு",
        -9.043060179777353
      ],
      [
        "க்குங்",
        -9.04338524561801
      ],
      [
        "வடி",
        -9.044504777358812
      ],
      [
        "குருதி",
        -9.044529469508952
      ],
      [
        "செய்தி",
        -9.04489185954966
      ],
      [
        "43",
        -9.04553094749685
      ],
      [
        "யெ",
        -9.04562795284052
      ],
      [
        "கையில்",
        -9.046175798723652
      ],
      [
        "வேள்",
        -9.046908123168398
      ],
      [
        "ஆங்க",
        -9.047635341058555
      ],
      [
        "அரவ",
        -9.047677490750376
      ],
      [
        "ின்று",
        -9.04854366977705
      ],
      [
        "நெகிழ",
        -9.048604553635418
      ],
      [
        "இரும்ப",
        -9.050009585479929
      ],
      [
        "ாதே",
        -9.050609375322582
      ],
      [
        "ைய",
        -9.050653716163549
      ],
      [
        "பொறி",
        -9.051290978856011
      ],
      [
        "ஆங்கண",
        -9.052424155530344
      ],
      [
        "தம்பி",
        -9.052467737970442
      ],
      [
        "வெ",
        -9.052856492720688
      ],
      [
        "எல்லை",
        -9.053192850505384
      ],
      [
        "விர",
        -9.053618802550725
      ],
      [
        "புகுந்த",
        -9.054095784053626
      ],
      [
        "திருமாலிருஞ்சோலை",
        -9.054324707246735
      ],
      [
        "ுள்ள",
        -9.055624599483355
      ],
      [
        "எண்",
        -9.056420943890773
      ],
      [
        "தம்ம",
        -9.05689127060131
      ],
      [
        "இரவலர்",
        -9.057016054383183
      ],
      [
        "இருக்க",
        -9.057506376854151
      ],
      [
        "எவன்",
        -9.058349771230588
      ],
      [
        "செஞ்",
        -9.058475525457006
      ],
      [
        "மார்பின்",
        -9.0588176580375
      ],
      [
        "நீங்க",
        -9.059293151518943
      ],
      [
        "காமர்",
        -9.060226595290825
      ],
      [
        "மகிழ்ந்த",
        -9.061077561180586
      ],
      [
        "திர",
        -9.06111164660138
      ],
      [
        "க்கொண்டு",
        -9.061198395424572
      ],
      [
        "ாரை",
        -9.061249110241205
      ],
      [
        "செல்",
        -9.061729862746068
      ],
      [
        "உர",
        -9.06198233036416
      ],
      [
        "த்தலை",
        -9.062726298568872
      ],
      [
        "துயில்",
        -9.063225857020416
      ],
      [
        "கும்",
        -9.064359095196975
      ],
      [
        "பந்த",
        -9.064753476061703
      ],
      [
        "கள்ளி",
        -9.064767423023133
      ],
      [
        "அளி",
        -9.06548559381473
      ],
      [
        "சடை",
        -9.065593323496048
      ],
      [
        "தீய",
        -9.067260328114708
      ],
      [
        "பெரித",
        -9.067972603974392
      ],
      [
        "பேசி",
        -9.068279454757157
      ],
      [
        "பழ",
        -9.069141191672104
      ],
      [
        "இனியே",
        -9.069461079059126
      ],
      [
        "நிற்க",
        -9.069632154847415
      ],
      [
        "ிட்ட",
        -9.069702954118592
      ],
      [
        "விளி",
        -9.069754382899614
      ],
      [
        "ஆடிய",
        -9.069833554605594
      ],
      [
        "படுத்த",
        -9.070000162903964
      ],
      [
        "நீயும்",
        -9.070009076959916
      ],
      [
        "புள்",
        -9.07133618005061
      ],
      [
        "பாடல்",
        -9.071551033533993
      ],
      [
        "வருக",
        -9.071663109613803
      ],
      [
        "ினர்",
        -9.072038924681332
      ],
      [
        "நன்றும்",
        -9.072729942053073
      ],
      [
        "ஆன",
        -9.0763031325559
      ],
      [
        "அழி",
        -9.076313608526032
      ],
      [
        "ந்தி",
        -9.076888747476934
      ],
      [
        "காய்",
        -9.078260162615798
      ],
      [
        "நாள",
        -9.07955726246007
      ],
      [
        "யினும்",
        -9.080036857626954
      ],
      [
        "யாகி",
        -9.080417393826508
      ],
      [
        "யூர",
        -9.080920621261244
      ],
      [
        "காவிரி",
        -9.081164676389172
      ],
      [
        "மற்",
        -9.081446873095372
      ],
      [
        "விறல்",
        -9.082939225772954
      ],
      [
        "கலம்",
        -9.08379927687436
      ],
      [
        "ரொடு",
        -9.084448931509217
      ],
      [
        "ொலி",
        -9.084702988562457
      ],
      [
        "79",
        -9.084894558543574
      ],
      [
        "வகை",
        -9.085152689741738
      ],
      [
        "தேவர்",
        -9.08696098177167
      ],
      [
        "ஓத",
        -9.087081723371416
      ],
      [
        "செல",
        -9.0878101781358
      ],
      [
        "பன்ன",
        -9.08841397113244
      ],
      [
        "நிலம்",
        -9.088685569561925
      ],
      [
        "மிழ்",
        -9.09026310867616
      ],
      [
        "மறந்த",
        -9.090959333671911
      ],
      [
        "வாங்கு",
        -9.091057097111088
      ],
      [
        "முன்றில்",
        -9.09215669510005
      ],
      [
        "நாட்",
        -9.092503959401084
      ],
      [
        "ெறி",
        -9.093064092121413
      ],
      [
        "கடவுள்",
        -9.093092967150866
      ],
      [
        "மூன்று",
        -9.093106504725135
      ],
      [
        "மாதர்",
        -9.094230855683566
      ],
      [
        "76",
        -9.09476851283242
      ],
      [
        "முரசு",
        -9.095277003227135
      ],
      [
        "நினை",
        -9.095539645747834
      ],
      [
        "அவை",
        -9.096910775144416
      ],
      [
        "க்கின்ற",
        -9.097080524086936
      ],
      [
        "வெள்ள",
        -9.097506548469267
      ],
      [
        "வஞ்ச",
        -9.09907246825647
      ],
      [
        "பெற்று",
        -9.099089889835527
      ],
      [
        "கோழி",
        -9.099449664232235
      ],
      [
        "முற்றத்து",
        -9.09983904151352
      ],
      [
        "விற்",
        -9.099983528412723
      ],
      [
        "கண்ணன்",
        -9.100418936142956
      ],
      [
        "கூத்த",
        -9.100637969811803
      ],
      [
        "விசும்பி",
        -9.100884586386382
      ],
      [
        "உடைத்த",
        -9.101093780154306
      ],
      [
        "89",
        -9.101703513408944
      ],
      [
        "கணை",
        -9.10267340873624
      ],
      [
        "னோடு",
        -9.102720057182928
      ],
      [
        "நாளே",
        -9.102793179613265
      ],
      [
        "வின்",
        -9.104215940089066
      ],
      [
        "திண்",
        -9.104982414240755
      ],
      [
        "வல",
        -9.107633459105523
      ],
      [
        "யுங்",
        -9.108444215793453
      ],
      [
        "யாவது",
        -9.108495026674449
      ],
      [
        "வாளி",
        -9.108507466485944
      ],
      [
        "காட்டு",
        -9.108816439555468
      ],
      [
        "சூ",
        -9.10967579754387
      ],
      [
        "ுக்",
        -9.11007447040582
      ],
      [
        "க்காய்",
        -9.110333150637231
      ],
      [
        "87",
        -9.110910198705792
      ],
      [
        "மையும்",
        -9.11110048600738
      ],
      [
        "அறிவ",
        -9.111345529482868
      ],
      [
        "எய்தி",
        -9.113526414881996
      ],
      [
        "இடம்",
        -9.113555857884917
      ],
      [
        "நெடுஞ்",
        -9.114389994310605
      ],
      [
        "சின",
        -9.119282281512762
      ],
      [
        "கலங்க",
        -9.11963856444957
      ],
      [
        "திசை",
        -9.119708817680351
      ],
      [
        "கடல",
        -9.12017757249888
      ],
      [
        "ப்பட்ட",
        -9.120714607310711
      ],
      [
        "செல்வம்",
        -9.120990259524971
      ],
      [
        "பற்றிய",
        -9.121608615959346
      ],
      [
        "கூவ",
        -9.122336498662474
      ],
      [
        "வல்லார்",
        -9.124119459784088
      ],
      [
        "வனை",
        -9.124488835576935
      ],
      [
        "ிருந்",
        -9.127656463722882
      ],
      [
        "பொய்யா",
        -9.127774468130667
      ],
      [
        "மைந்த",
        -9.128073448562535
      ],
      [
        "ழை",
        -9.128261714320857
      ],
      [
        "லன்",
        -9.128379711243369
      ],
      [
        "ெரி",
        -9.128392216683386
      ],
      [
        "ஓங்கு",
        -9.130574741971364
      ],
      [
        "முனை",
        -9.131573273482395
      ],
      [
        "மஞ்ஞை",
        -9.131677852917855
      ],
      [
        "நந்த",
        -9.131702746606486
      ],
      [
        "நண்ணி",
        -9.131726089304358
      ],
      [
        "எரு",
        -9.131793315943009
      ],
      [
        "78",
        -9.131898272323294
      ],
      [
        "பணைத்தோள்",
        -9.13244319895718
      ],
      [
        "நல்லிசை",
        -9.132629396480796
      ],
      [
        "வந்துகாணீர",
        -9.132674693555632
      ],
      [
        "எம்பெருமான்",
        -9.13394275474942
      ],
      [
        "திருவரங்க",
        -9.13454084149042
      ],
      [
        "புள்ள",
        -9.135782258104047
      ],
      [
        "அதை",
        -9.13639833342527
      ],
      [
        "வர்க்கு",
        -9.136405315191023
      ],
      [
        "மயில்",
        -9.136647960996656
      ],
      [
        "மத்த",
        -9.138416782102873
      ],
      [
        "புரவி",
        -9.140101712470877
      ],
      [
        "ருள",
        -9.140410557170911
      ],
      [
        "கிளி",
        -9.140445679111933
      ],
      [
        "வேண்டு",
        -9.14097433596
      ],
      [
        "மொழிக்",
        -9.141537613433409
      ],
      [
        "புகை",
        -9.142349788494649
      ],
      [
        "குறித்து",
        -9.14335000338672
      ],
      [
        "வீமன்",
        -9.143376127181842
      ],
      [
        "பண்ப",
        -9.143499426721746
      ],
      [
        "ர்க்கு",
        -9.143624103002413
      ],
      [
        "வென",
        -9.14493969995232
      ],
      [
        "கர்",
        -9.14518805860398
      ],
      [
        "வருந்த",
        -9.145745184634276
      ],
      [
        "மறம்",
        -9.14700333543072
      ],
      [
        "மகளிர",
        -9.14704115711938
      ],
      [
        "ஏத்தி",
        -9.147974733345976
      ],
      [
        "வீழ்ந்த",
        -9.148126788526774
      ],
      [
        "சிறப்ப",
        -9.149535487781629
      ],
      [
        "பிடி",
        -9.150034643596104
      ],
      [
        "நடு",
        -9.150809925916596
      ],
      [
        "புரி",
        -9.151750494920744
      ],
      [
        "இங்கு",
        -9.151842809175506
      ],
      [
        "ிரன்",
        -9.151978442858246
      ],
      [
        "இலை",
        -9.152215768493315
      ],
      [
        "கந்த",
        -9.152332490733013
      ],
      [
        "அறம்",
        -9.152395797024578
      ],
      [
        "கற்ற",
        -9.153988209334962
      ],
      [
        "ிக்",
        -9.15417154587924
      ],
      [
        "மக",
        -9.155999779146946
      ],
      [
        "கூறு",
        -9.156510866154228
      ],
      [
        "ளோ",
        -9.157336731605984
      ],
      [
        "தந்து",
        -9.157569365564887
      ],
      [
        "வாழ்த்தி",
        -9.158644173330082
      ],
      [
        "க்குந்",
        -9.159287144749747
      ],
      [
        "ஆயின",
        -9.159468378230454
      ],
      [
        "கையால்",
        -9.159512266838684
      ],
      [
        "த்தார்",
        -9.160769523706955
      ],
      [
        "அதுவே",
        -9.161159171881389
      ],
      [
        "ஆட்கொண்ட",
        -9.161862302075043
      ],
      [
        "முத்த",
        -9.161939016260682
      ],
      [
        "பரிச",
        -9.163474291144542
      ],
      [
        "ஆதி",
        -9.163514102925436
      ],
      [
        "மத",
        -9.16371799980982
      ],
      [
        "நட",
        -9.163882527331555
      ],
      [
        "நோன்",
        -9.164042040429814
      ],
      [
        "பிறை",
        -9.164198672391938
      ],
      [
        "தானும்",
        -9.164691514171892
      ],
      [
        "போகி",
        -9.164709152523496
      ],
      [
        "விட்டுசித்தன்",
        -9.165663545517509
      ],
      [
        "அறிவு",
        -9.165839103363732
      ],
      [
        "சூழ",
        -9.166576862421024
      ],
      [
        "உரைத்த",
        -9.16690474845766
      ],
      [
        "42",
        -9.167507500840268
      ],
      [
        "நயந்த",
        -9.168736387507955
      ],
      [
        "கவலை",
        -9.169893505754686
      ],
      [
        "77",
        -9.171381035759868
      ],
      [
        "சில்",
        -9.172279228572425
      ],
      [
        "தீர்த்த",
        -9.172666910922205
      ],
      [
        "காணீர",
        -9.173429116132446
      ],
      [
        "குழை",
        -9.173948535852386
      ],
      [
        "யாய",
        -9.174453714097758
      ],
      [
        "சிலம்ப",
        -9.174610241101693
      ],
      [
        "புணர்ந்த",
        -9.174621258967342
      ],
      [
        "ழிநெடிலடியாசிரிய",
        -9.17515616735426
      ],
      [
        "விடுதிகண்டாய்",
        -9.17537444306912
      ],
      [
        "சீறூர்",
        -9.175378424807484
      ],
      [
        "பாசறை",
        -9.175390138750195
      ],
      [
        "67",
        -9.175908532995894
      ],
      [
        "மாதவி",
        -9.177086414287436
      ],
      [
        "பிறவி",
        -9.177313899273786
      ],
      [
        "யாயின",
        -9.177430853491153
      ],
      [
        "சித்திர",
        -9.178200138062314
      ],
      [
        "கலங்கி",
        -9.179235032843392
      ],
      [
        "தோன்றல்",
        -9.180844745639938
      ],
      [
        "ம்பு",
        -9.18094565139715
      ],
      [
        "செப்ப",
        -9.181050274509532
      ],
      [
        "றன்னை",
        -9.181369086441684
      ],
      [
        "கங்குல",
        -9.181635918151212
      ],
      [
        "வில்ல",
        -9.182236720119942
      ],
      [
        "ஆற",
        -9.18279306631588
      ],
      [
        "86",
        -9.184066173932408
      ],
      [
        "பழி",
        -9.184257331085456
      ],
      [
        "தோன்ற",
        -9.184409355579245
      ],
      [
        "முன்கை",
        -9.184786767175982
      ],
      [
        "88",
        -9.18573672707304
      ],
      [
        "டன்ன",
        -9.186778117778164
      ],
      [
        "டோ",
        -9.187175651619356
      ],
      [
        "யிடை",
        -9.187387221571916
      ],
      [
        "ஊன",
        -9.18741743764502
      ],
      [
        "உலகத்து",
        -9.187477447154777
      ],
      [
        "ஒப்ப",
        -9.187602975418386
      ],
      [
        "மென",
        -9.188494779625096
      ],
      [
        "கோமான",
        -9.18895510487369
      ],
      [
        "தட",
        -9.189280293093969
      ],
      [
        "வெள்ளை",
        -9.190780654138296
      ],
      [
        "சேர்ந்த",
        -9.1917110222413
      ],
      [
        "தரவு",
        -9.192978918634054
      ],
      [
        "த்தனார்",
        -9.193376313896504
      ],
      [
        "66",
        -9.193385538771572
      ],
      [
        "கானத்து",
        -9.19463422516188
      ],
      [
        "நல்கி",
        -9.19486399493496
      ],
      [
        "68",
        -9.19504995441283
      ],
      [
        "ஏத்த",
        -9.195589062292091
      ],
      [
        "கேள்",
        -9.19951114159626
      ],
      [
        "மூவ",
        -9.199595967700636
      ],
      [
        "தினை",
        -9.200193873384247
      ],
      [
        "புலவ",
        -9.200539087401877
      ],
      [
        "மறப்ப",
        -9.201485790414718
      ],
      [
        "ினான்",
        -9.20208934850944
      ],
      [
        "ந்தா",
        -9.202350624884437
      ],
      [
        "செங்",
        -9.206682602786763
      ],
      [
        "ட்டி",
        -9.207014377272898
      ],
      [
        "அரசே",
        -9.207380945574345
      ],
      [
        "பேச",
        -9.207483851657996
      ],
      [
        "தெய்வ",
        -9.207685418118524
      ],
      [
        "நளனை",
        -9.207712723146267
      ],
      [
        "வித்த",
        -9.209097091638217
      ],
      [
        "காலம்",
        -9.209203284757685
      ],
      [
        "கோடி",
        -9.210368165887784
      ],
      [
        "இரண்டு",
        -9.211236082732016
      ],
      [
        "கேள்வி",
        -9.212892307112533
      ],
      [
        "இவர்",
        -9.213839067223711
      ],
      [
        "செலவ",
        -9.214001085438184
      ],
      [
        "வீழ",
        -9.21409398763003
      ],
      [
        "நூல்",
        -9.214225000994409
      ],
      [
        "ிருப்ப",
        -9.2143044382141
      ],
      [
        "எடுத்த",
        -9.214420499952366
      ],
      [
        "ினால்",
        -9.214798585762662
      ],
      [
        "குரல",
        -9.215768775797846
      ],
      [
        "கங்கை",
        -9.216237847425948
      ],
      [
        "பொழி",
        -9.216674563406151
      ],
      [
        "ென்றா",
        -9.217082419414345
      ],
      [
        "வேண்ட",
        -9.217420468862784
      ],
      [
        "அன்றிய",
        -9.217421774006018
      ],
      [
        "அவ்",
        -9.217622259106156
      ],
      [
        "ியார்",
        -9.217641212220247
      ],
      [
        "ோடி",
        -9.218179464422365
      ],
      [
        "ப்பின்",
        -9.2186311491811
      ],
      [
        "ர்கள்",
        -9.218704343769662
      ],
      [
        "அகல்",
        -9.21988462588265
      ],
      [
        "_",
        -9.220610657170688
      ],
      [
        "குற்ற",
        -9.220648401498345
      ],
      [
        "மூதூர்",
        -9.22070985511984
      ],
      [
        "பயன்",
        -9.221392930950357
      ],
      [
        "ோனே",
        -9.221521480611251
      ],
      [
        "59",
        -9.221849233242398
      ],
      [
        "கோத்தும்ப",
        -9.22311571377609
      ],
      [
        "டன்னை",
        -9.223126414564838
      ],
      [
        "ஈங்கு",
        -9.224254189202938
      ],
      [
        "கோவே",
        -9.225483195011837
      ],
      [
        "தக்க",
        -9.22617509398624
      ],
      [
        "இங்கே",
        -9.22660176054494
      ],
      [
        "ைச்",
        -9.226856805712297
      ],
      [
        "அலர்",
        -9.227512010984338
      ],
      [
        "41",
        -9.22765525050274
      ],
      [
        "நெடுவரை",
        -9.227671585584712
      ],
      [
        "ச்சோ",
        -9.227940895592502
      ],
      [
        "தலைக்",
        -9.228398471418457
      ],
      [
        "எல்லா",
        -9.229786144009712
      ],
      [
        "இயல்",
        -9.230229056220052
      ],
      [
        "மர்",
        -9.230566061789988
      ],
      [
        "எனப்",
        -9.230659633039355
      ],
      [
        "துளி",
        -9.231007062785755
      ],
      [
        "நீக்கி",
        -9.232611876342618
      ],
      [
        "ொரு",
        -9.233365629025045
      ],
      [
        "தலைப்",
        -9.233535625640249
      ],
      [
        "காவல்",
        -9.233596036382018
      ],
      [
        "கூடு",
        -9.236261878088044
      ],
      [
        "சாதி",
        -9.236334150848077
      ],
      [
        "குறும்ப",
        -9.2365341927874
      ],
      [
        "நற்",
        -9.236739258379956
      ],
      [
        "பாய்",
        -9.237080958441682
      ],
      [
        "யாண்டு",
        -9.240238548711284
      ],
      [
        "74",
        -9.24035843039752
      ],
      [
        "வெய்ய",
        -9.240400970438744
      ],
      [
        "னாய",
        -9.24051807914743
      ],
      [
        "யாங்க",
        -9.241911971483892
      ],
      [
        "உள்",
        -9.242481782831389
      ],
      [
        "அணிந்த",
        -9.242859995759297
      ],
      [
        "வேனில்",
        -9.244323372144766
      ],
      [
        "செலின",
        -9.245899627770664
      ],
      [
        "மன்னு",
        -9.246002640715565
      ],
      [
        "தும்பி",
        -9.246269506216814
      ],
      [
        "நல்கு",
        -9.247582689707492
      ],
      [
        "பூத்த",
        -9.248860554925074
      ],
      [
        "நேர",
        -9.25022248816316
      ],
      [
        "பாட்டு",
        -9.250326204661713
      ],
      [
        "செவ்வி",
        -9.251210180057596
      ],
      [
        "ித்",
        -9.251250179417717
      ],
      [
        "ஈத்த",
        -9.253018020329344
      ],
      [
        "காதை",
        -9.253551092993588
      ],
      [
        "கிணை",
        -9.254053684791623
      ],
      [
        "விசும்பு",
        -9.255371426844931
      ],
      [
        "மந்தி",
        -9.255631136488113
      ],
      [
        "64",
        -9.256149928352782
      ],
      [
        "நெஞ்சு",
        -9.256200516823297
      ],
      [
        "செழிய",
        -9.256434620637425
      ],
      [
        "ில்லை",
        -9.25689624970083
      ],
      [
        "திருந்த",
        -9.257399635484358
      ],
      [
        "பிரான்",
        -9.25844988833232
      ],
      [
        "அடை",
        -9.259540790467284
      ],
      [
        "ியது",
        -9.260127456360689
      ],
      [
        "றோ",
        -9.260508315941506
      ],
      [
        "யங்",
        -9.260518765438576
      ],
      [
        "ச்சு",
        -9.261892886833133
      ],
      [
        "ிவ்",
        -9.261954798242758
      ],
      [
        "ாகி",
        -9.26257844279245
      ],
      [
        "பேரி",
        -9.263835709057489
      ],
      [
        "வேங்கட",
        -9.265449498981766
      ],
      [
        "துறந்த",
        -9.26609457282458
      ],
      [
        "யிர",
        -9.267137968411976
      ],
      [
        "னெஞ்ச",
        -9.26740134388955
      ],
      [
        "சப்பாணி",
        -9.268238689546408
      ],
      [
        "நலங்கிள்ளி",
        -9.268270564861076
      ],
      [
        "நேமி",
        -9.26828740042588
      ],
      [
        "கொச்சகக்",
        -9.268361664958372
      ],
      [
        "புலம்",
        -9.268552147425796
      ],
      [
        "சல",
        -9.268654670974758
      ],
      [
        "நெடுந்தகை",
        -9.268793339898693
      ],
      [
        "நீத்த",
        -9.268810371001225
      ],
      [
        "கரும்பின்",
        -9.269868686725108
      ],
      [
        "கட்ட",
        -9.269898304784864
      ],
      [
        "அச்சோவ",
        -9.27118657989542
      ],
      [
        "ஏற",
        -9.27232760119399
      ],
      [
        "வாடை",
        -9.27390304638682
      ],
      [
        "ுரை",
        -9.274027250048256
      ],
      [
        "மூர்த்தி",
        -9.274542232530376
      ],
      [
        "ான",
        -9.27458732503507
      ],
      [
        "ொடும்",
        -9.27492963056461
      ],
      [
        "சுடர",
        -9.27510751287663
      ],
      [
        "திட்ட",
        -9.27569529342082
      ],
      [
        "பசலை",
        -9.276224271165368
      ],
      [
        "ஓதி",
        -9.277626838816015
      ],
      [
        "மெல்லாம்",
        -9.27845899718664
      ],
      [
        "பொருத",
        -9.278486152566428
      ],
      [
        "பெருமான்",
        -9.279012724720769
      ],
      [
        "காட்டுகின்ற",
        -9.279536913692798
      ],
      [
        "நீடு",
        -9.28066394213441
      ],
      [
        "கேட்க",
        -9.28102445303741
      ],
      [
        "மனத்த",
        -9.28159166811336
      ],
      [
        "ாம்",
        -9.285120533379873
      ],
      [
        "பெயல்",
        -9.28533053107446
      ],
      [
        "கன",
        -9.285394810430748
      ],
      [
        "பரந்து",
        -9.28662731549301
      ],
      [
        "தாங்கு",
        -9.28717311814442
      ],
      [
        "ஏன",
        -9.28891010129882
      ],
      [
        "மூதி",
        -9.289283202454548
      ],
      [
        "நிற்ப",
        -9.28994174785234
      ],
      [
        "தோன்றிய",
        -9.29042505905064
      ],
      [
        "நாறு",
        -9.290998137217052
      ],
      [
        "மெல்",
        -9.291646787230473
      ],
      [
        "எழுந்த",
        -9.291767402775736
      ],
      [
        "சிலம்பி",
        -9.292472492878918
      ],
      [
        "அவ",
        -9.29263147573107
      ],
      [
        "வல்லா",
        -9.292899041075724
      ],
      [
        "னெ",
        -9.293590477312751
      ],
      [
        "திருந்து",
        -9.293699222427914
      ],
      [
        "அம்மான",
        -9.29389156090438
      ],
      [
        "த்தன்",
        -9.29446494707018
      ],
      [
        "84",
        -9.295120353297271
      ],
      [
        "நனை",
        -9.29589226100838
      ],
      [
        "எண்ணு",
        -9.298067496307162
      ],
      [
        "முயங்க",
        -9.298249811286585
      ],
      [
        "கோவிந்த",
        -9.298803901581843
      ],
      [
        "பிறப்ப",
        -9.298990003339586
      ],
      [
        "யாள்",
        -9.299161954483132
      ],
      [
        "ப்பட",
        -9.299929611222964
      ],
      [
        "ிதழ்",
        -9.300821469543047
      ],
      [
        "மாண்ட",
        -9.300854153674532
      ],
      [
        "வந்தன",
        -9.300871016378345
      ],
      [
        "பாவ",
        -9.301916276007294
      ],
      [
        "வீடு",
        -9.302393453542765
      ],
      [
        "தங்கள்",
        -9.303041248529016
      ],
      [
        "கோடு",
        -9.303897178414577
      ],
      [
        "கின",
        -9.303969524012205
      ],
      [
        "காரி",
        -9.304424850502844
      ],
      [
        "தெண்",
        -9.305187173062972
      ],
      [
        "ரெ",
        -9.306728220970909
      ],
      [
        "ஓம்பும",
        -9.306827314159282
      ],
      [
        "கொள்ளா",
        -9.307966837557926
      ],
      [
        "திருப்",
        -9.308136337056675
      ],
      [
        "நன்மை",
        -9.30924460670914
      ],
      [
        "கிளர்",
        -9.309319891405003
      ],
      [
        "கருணை",
        -9.30987222311514
      ],
      [
        "அவன",
        -9.31072705307521
      ],
      [
        "பண்ணி",
        -9.31092450227246
      ],
      [
        "அல",
        -9.311025920785196
      ],
      [
        "பாடிப்",
        -9.31115034040281
      ],
      [
        "பாச",
        -9.311408603240714
      ],
      [
        "உற",
        -9.312308326007766
      ],
      [
        "வால்",
        -9.312673555252536
      ],
      [
        "கொல்ல",
        -9.312745028891232
      ],
      [
        "இன்ற",
        -9.312913515285576
      ],
      [
        "த்துச்",
        -9.31320282255292
      ],
      [
        "கடும்ப",
        -9.313836645980768
      ],
      [
        "அரசு",
        -9.315121125041388
      ],
      [
        "ிலேன்",
        -9.31596912230554
      ],
      [
        "மாற்றி",
        -9.316964872066556
      ],
      [
        "வடு",
        -9.317320838192591
      ],
      [
        "குதிரை",
        -9.318142857345284
      ],
      [
        "படப்பை",
        -9.318271323835964
      ],
      [
        "மில",
        -9.31839291908242
      ],
      [
        "பேணி",
        -9.31851024454596
      ],
      [
        "ஞாயிறு",
        -9.318545429091571
      ],
      [
        "வெறி",
        -9.318843574604813
      ],
      [
        "போக்கி",
        -9.319723985064002
      ],
      [
        "மங்கல",
        -9.319960138984731
      ],
      [
        "தாகி",
        -9.320244603503507
      ],
      [
        "தழை",
        -9.32062225798708
      ],
      [
        "நன்ன",
        -9.320705881006166
      ],
      [
        "நெல்",
        -9.320828849107068
      ],
      [
        "வெளி",
        -9.32151182091996
      ],
      [
        "கலந்து",
        -9.32188039723654
      ],
      [
        "முனி",
        -9.322143529629791
      ],
      [
        "நிற்",
        -9.323004852129248
      ],
      [
        "ஒக்கல",
        -9.323561732980917
      ],
      [
        "கூர",
        -9.323562287324116
      ],
      [
        "மறவர்",
        -9.323594389589978
      ],
      [
        "எறிந்த",
        -9.32405186571946
      ],
      [
        "யுந்",
        -9.324511833328586
      ],
      [
        "டந்த",
        -9.324810459247304
      ],
      [
        "தொழுது",
        -9.325727814054046
      ],
      [
        "போன",
        -9.326840783223917
      ],
      [
        "சொல்லா",
        -9.328061773720869
      ],
      [
        "சேரி",
        -9.328609586123164
      ],
      [
        "கேட்ப",
        -9.32897095487037
      ],
      [
        "லென்",
        -9.329121588034914
      ],
      [
        "சூட்ட",
        -9.33153485556966
      ],
      [
        "நாணி",
        -9.333989820407677
      ],
      [
        "ப்படு",
        -9.334439080945256
      ],
      [
        "மால",
        -9.336374851938295
      ],
      [
        "நயந்து",
        -9.337115044703411
      ],
      [
        "கத",
        -9.337763778966442
      ],
      [
        "றன்",
        -9.3391663550207
      ],
      [
        "அரிது",
        -9.339386745868024
      ],
      [
        "கமல",
        -9.339470656832162
      ],
      [
        "பொதி",
        -9.340166403019303
      ],
      [
        "ஏற்ற",
        -9.340173601786129
      ],
      [
        "நிலா",
        -9.340724709022789
      ],
      [
        "காதல",
        -9.34157903820719
      ],
      [
        "இம்",
        -9.343443997286425
      ],
      [
        "ஏம",
        -9.343497177871953
      ],
      [
        "கன்னி",
        -9.344514645993762
      ],
      [
        "இளம்",
        -9.344743068193711
      ],
      [
        "இல்லா",
        -9.345633843747658
      ],
      [
        "மறுக",
        -9.34640948008956
      ],
      [
        "கடா",
        -9.347471495334744
      ],
      [
        "மகிழ்ந",
        -9.348265065969697
      ],
      [
        "அர",
        -9.34834918109819
      ],
      [
        "அயல",
        -9.348560067179845
      ],
      [
        "ஆடி",
        -9.34861213275766
      ],
      [
        "பகல",
        -9.348755059370609
      ],
      [
        "குவை",
        -9.348796132023097
      ],
      [
        "தூய",
        -9.34896929991682
      ],
      [
        "வேண்டிய",
        -9.349332228504691
      ],
      [
        "னாகி",
        -9.349889080637126
      ],
      [
        "இந்திர",
        -9.3504069744008
      ],
      [
        "தன்மை",
        -9.350457599560404
      ],
      [
        "அவிழ்",
        -9.351095274223434
      ],
      [
        "ூதாய்",
        -9.35191283329736
      ],
      [
        "ிழை",
        -9.352634880088928
      ],
      [
        "முழுது",
        -9.353964256674407
      ],
      [
        "ஓங்கி",
        -9.356143667410509
      ],
      [
        "வாண",
        -9.356698257418474
      ],
      [
        "செவிய",
        -9.356791702470248
      ],
      [
        "சுனை",
        -9.356864811982131
      ],
      [
        "துயில",
        -9.35769784255699
      ],
      [
        "வண்ணா",
        -9.357754257561794
      ],
      [
        "தமயந்தியை",
        -9.35811450410514
      ],
      [
        "பொழுது",
        -9.35865650317349
      ],
      [
        "57",
        -9.35919374532535
      ],
      [
        "டைப்",
        -9.360163376604746
      ],
      [
        "கமழு",
        -9.360200903091345
      ],
      [
        "ஞ்சு",
        -9.360771185651217
      ],
      [
        "சோறு",
        -9.362590802783023
      ],
      [
        "வாறு",
        -9.363809002370433
      ],
      [
        "பொங்க",
        -9.364076277825353
      ],
      [
        "றியா",
        -9.3649364342765
      ],
      [
        "உணர்ந்த",
        -9.364962153622107
      ],
      [
        "த்திர",
        -9.365817994230555
      ],
      [
        "எவ்வ",
        -9.36710689452162
      ],
      [
        "வாள",
        -9.367129524124689
      ],
      [
        "லூர",
        -9.367281032999111
      ],
      [
        "வண",
        -9.36805739109763
      ],
      [
        "ாகக்",
        -9.368858713444803
      ],
      [
        "மகிழ",
        -9.369602038890273
      ],
      [
        "யாழ்",
        -9.369864380960143
      ],
      [
        "அப்பூச்சி",
        -9.37086227997712
      ],
      [
        "புறம்புல்க",
        -9.370863021305858
      ],
      [
        "கோல்கொண்டுவா",
        -9.37086574050793
      ],
      [
        "குடுமி",
        -9.370875869381925
      ],
      [
        "பாடுதுங்கா",
        -9.3708852444176
      ],
      [
        "எக்கர்",
        -9.37089741105251
      ],
      [
        "ஒற்றி",
        -9.371173532705642
      ],
      [
        "சாஅய்",
        -9.371206102255083
      ],
      [
        "நீடிய",
        -9.37236595404776
      ],
      [
        "புன்கண்",
        -9.372400912974216
      ],
      [
        "மன்னும்",
        -9.372644339869325
      ],
      [
        "பொழுதே",
        -9.37298981938774
      ],
      [
        "வேள்வி",
        -9.373451694418025
      ],
      [
        "கேண்மை",
        -9.373743198885323
      ],
      [
        "கல்லென",
        -9.374042387289997
      ],
      [
        "இடித்து",
        -9.3742814313541
      ],
      [
        "வெய்",
        -9.374804451237557
      ],
      [
        "உழவ",
        -9.375093129176014
      ],
      [
        "வம்ப",
        -9.375101772526374
      ],
      [
        "காவலர்",
        -9.375114583590989
      ],
      [
        "தோல்",
        -9.375709229401094
      ],
      [
        "தொண்டர்",
        -9.375887522820095
      ],
      [
        "உண்டா",
        -9.376581261825804
      ],
      [
        "ோடும்",
        -9.37677257579822
      ],
      [
        "மாதவ",
        -9.377356208872635
      ],
      [
        "முன்னே",
        -9.377537957253612
      ],
      [
        "அய்",
        -9.377590496317437
      ],
      [
        "56",
        -9.37831557766186
      ],
      [
        "குவ",
        -9.378372272083649
      ],
      [
        "துறந்து",
        -9.378935265594942
      ],
      [
        "ஒக்க",
        -9.379725526235296
      ],
      [
        "58",
        -9.380165711347882
      ],
      [
        "மட்டு",
        -9.380180599255636
      ],
      [
        "வளர",
        -9.380328182095289
      ],
      [
        "ொன்",
        -9.380967070960002
      ],
      [
        "தால்",
        -9.380971760490892
      ],
      [
        "தொடை",
        -9.38127986022188
      ],
      [
        "பதம்",
        -9.381586991132217
      ],
      [
        "கொன்று",
        -9.38174335081844
      ],
      [
        "சூடி",
        -9.381799317311836
      ],
      [
        "வைகல்",
        -9.382146616745857
      ],
      [
        "காணிய",
        -9.382255334990017
      ],
      [
        "ஈன்ற",
        -9.38268656418876
      ],
      [
        "பாடிப்ப",
        -9.382699874660728
      ],
      [
        "பண்ட",
        -9.383039945083592
      ],
      [
        "வரக்",
        -9.383100636527628
      ],
      [
        "குவி",
        -9.384013415277296
      ],
      [
        "தன்னுள",
        -9.38570530021883
      ],
      [
        "சிவ",
        -9.38637436303133
      ],
      [
        "கேள",
        -9.3867465268383
      ],
      [
        "வர்கள்",
        -9.387247067748852
      ],
      [
        "ஏழை",
        -9.387315865716586
      ],
      [
        "எனவே",
        -9.38775800912584
      ],
      [
        "அவள்",
        -9.38979956795994
      ],
      [
        "யானைக்",
        -9.389946668584429
      ],
      [
        "மது",
        -9.39047096299228
      ],
      [
        "ஈண்டு",
        -9.391408240594933
      ],
      [
        "94",
        -9.39259038294027
      ],
      [
        "துன்ப",
        -9.392621541824536
      ],
      [
        "வேட",
        -9.393772923776494
      ],
      [
        "வானவர்",
        -9.394204972543704
      ],
      [
        "வயல்",
        -9.394271015422248
      ],
      [
        "மதுரைக்",
        -9.395065215326238
      ],
      [
        "அகம்",
        -9.395518707943204
      ],
      [
        "உண",
        -9.396552290551671
      ],
      [
        "பரப்பி",
        -9.396652534392048
      ],
      [
        "கடுமா",
        -9.396788578311252
      ],
      [
        "ெழுந்த",
        -9.397115634375556
      ],
      [
        "மாமலை",
        -9.398333120503034
      ],
      [
        "மலரும்",
        -9.39905627562617
      ],
      [
        "யாழி",
        -9.400182082523775
      ],
      [
        "ஓர",
        -9.401063871587482
      ],
      [
        "பிரிந்த",
        -9.401744630997424
      ],
      [
        "இனைய",
        -9.402393077103024
      ],
      [
        "ஆறு",
        -9.403394012482911
      ],
      [
        "தன்னொடு",
        -9.403477247754054
      ],
      [
        "கன்ற",
        -9.404785446918469
      ],
      [
        "அறுசீர்க்",
        -9.405108640102393
      ],
      [
        "பிணை",
        -9.40573585811672
      ],
      [
        "யைப்",
        -9.405792700720497
      ],
      [
        "தாள",
        -9.406191586861942
      ],
      [
        "மக்களை",
        -9.4067381476359
      ],
      [
        "பற்று",
        -9.40824562312222
      ],
      [
        "தொடு",
        -9.408562866558135
      ],
      [
        "பாதம்",
        -9.408953411851195
      ],
      [
        "கழை",
        -9.410544692145743
      ],
      [
        "யொரு",
        -9.41112416886821
      ],
      [
        "அரங்கத்த",
        -9.412313637225616
      ],
      [
        "வேந்தே",
        -9.412411332717989
      ],
      [
        "தந்",
        -9.412846681957411
      ],
      [
        "செம்மல",
        -9.414577234954312
      ],
      [
        "ிடு",
        -9.414767503990548
      ],
      [
        "னுக்கு",
        -9.415654292761008
      ],
      [
        "நாய்",
        -9.416490240643284
      ],
      [
        "அதன்",
        -9.416629172499285
      ],
      [
        "தெரிய",
        -9.41802883889886
      ],
      [
        "பெய்து",
        -9.419028897513488
      ],
      [
        "உள்ளது",
        -9.419039765545325
      ],
      [
        "இல்ல",
        -9.419260112987052
      ],
      [
        "பெருங்கட",
        -9.419805006238263
      ],
      [
        "சரண",
        -9.420113772367232
      ],
      [
        "அன்றி",
        -9.420554785473264
      ],
      [
        "கவின்",
        -9.42116453034536
      ],
      [
        "ஏர்",
        -9.421698750847398
      ],
      [
        "திங்கள",
        -9.422346298471425
      ],
      [
        "பாண்டி",
        -9.423272058291102
      ],
      [
        "உடல",
        -9.423633254062688
      ],
      [
        "திறல்",
        -9.424238822078646
      ],
      [
        "தேறல்",
        -9.424331101916897
      ],
      [
        "படர",
        -9.426123100335968
      ],
      [
        "நகர",
        -9.4262352972665
      ],
      [
        "சீறியாழ்",
        -9.426459087475989
      ],
      [
        "ாழ்வார்",
        -9.426791659640935
      ],
      [
        "கோப்பெருஞ்",
        -9.426825663650265
      ],
      [
        "மக்கள",
        -9.426997917054583
      ],
      [
        "கோள்",
        -9.427012072668337
      ],
      [
        "நளி",
        -9.427158423046306
      ],
      [
        "என்னைப்",
        -9.427183224030086
      ],
      [
        "கொடிச்சி",
        -9.427321607784286
      ],
      [
        "அருஞ்சுர",
        -9.427377817159249
      ],
      [
        "எருமை",
        -9.427806171601151
      ],
      [
        "அழைத்த",
        -9.42840349311836
      ],
      [
        "இவண்",
        -9.428430813813224
      ],
      [
        "பொருண்",
        -9.428567645070997
      ],
      [
        "காந்தள்",
        -9.429157111677092
      ],
      [
        "குறுங்",
        -9.42943393871777
      ],
      [
        "வெண்குடை",
        -9.43016122691104
      ],
      [
        "மகட்",
        -9.430449315688332
      ],
      [
        "உதவி",
        -9.430486529909274
      ],
      [
        "விடுதி",
        -9.430603977153687
      ],
      [
        "கேழ்",
        -9.430703296829478
      ],
      [
        "வாச",
        -9.430733934386916
      ],
      [
        "மண்டை",
        -9.431690986957332
      ],
      [
        "ஊழி",
        -9.43182938413378
      ],
      [
        "இழந்த",
        -9.433765329625825
      ],
      [
        "ருளி",
        -9.434409899253149
      ],
      [
        "வானம்",
        -9.43472994152599
      ],
      [
        "எறிந்து",
        -9.436184226627104
      ],
      [
        "சிறை",
        -9.436827952939254
      ],
      [
        "தன்று",
        -9.437352432055851
      ],
      [
        "வித்தி",
        -9.43764754167639
      ],
      [
        "மஞ்ச",
        -9.43779045404677
      ],
      [
        "நாறும்",
        -9.437805932454292
      ],
      [
        "முள்",
        -9.43989715310292
      ],
      [
        "அன்னம்",
        -9.440678321942846
      ],
      [
        "வலிய",
        -9.440725103077146
      ],
      [
        "கனை",
        -9.440768062990749
      ],
      [
        "டைக்",
        -9.441158855521763
      ],
      [
        "எமக்கு",
        -9.441297424678009
      ],
      [
        "மாட்டே",
        -9.442271056256006
      ],
      [
        "அவர்கள்",
        -9.442487344002554
      ],
      [
        "யேன்",
        -9.443023473387743
      ],
      [
        "இளங்",
        -9.44320356422542
      ],
      [
        "னேன்",
        -9.44331013594563
      ],
      [
        "மாம",
        -9.443507208320238
      ],
      [
        "பரு",
        -9.443917378486844
      ],
      [
        "நம்மை",
        -9.443995658972938
      ],
      [
        "புன்",
        -9.444732834219025
      ],
      [
        "கிழவ",
        -9.444770052101688
      ],
      [
        "ருவி",
        -9.445061332903428
      ],
      [
        "ிசின்",
        -9.445587272453023
      ],
      [
        "கான்",
        -9.445842671511604
      ],
      [
        "தழு",
        -9.44617483044211
      ],
      [
        "பார்க்க",
        -9.446349119554764
      ],
      [
        "வருந்தி",
        -9.446357583887336
      ],
      [
        "வாயின",
        -9.44669541010096
      ],
      [
        "செழு",
        -9.446986920642024
      ],
      [
        "கின்",
        -9.447262905571993
      ],
      [
        "த்தாய்",
        -9.44734100120648
      ],
      [
        "ஆவ",
        -9.4477996510463
      ],
      [
        "நிறைய",
        -9.448058641297663
      ],
      [
        "வேந்தன",
        -9.44832949116326
      ],
      [
        "பட்டு",
        -9.44849347378787
      ],
      [
        "அருந்",
        -9.448951974867114
      ],
      [
        "அனைய",
        -9.449175255541796
      ],
      [
        "னாள்",
        -9.449660536599056
      ],
      [
        "சிறிது",
        -9.449987690497924
      ],
      [
        "காக்கும்",
        -9.4505078635958
      ],
      [
        "இல்லாத",
        -9.45126559757696
      ],
      [
        "டே",
        -9.452857619267805
      ],
      [
        "வரே",
        -9.453110881097867
      ],
      [
        "பரத",
        -9.45401523621253
      ],
      [
        "அழ",
        -9.456682639079151
      ],
      [
        "சிதைய",
        -9.456719042982163
      ],
      [
        "தமிழர",
        -9.456831682498862
      ],
      [
        "ருணை",
        -9.457109986440292
      ],
      [
        "வாட",
        -9.45856971855228
      ],
      [
        "நாடி",
        -9.45917833933535
      ],
      [
        "பிண",
        -9.45982896481783
      ],
      [
        "னைய",
        -9.459926698408893
      ],
      [
        "புது",
        -9.460161409712114
      ],
      [
        "மயங்கு",
        -9.460543275955445
      ],
      [
        "வித்து",
        -9.460771416087283
      ],
      [
        "அழு",
        -9.460894040074155
      ],
      [
        "ிலும்",
        -9.46117476733449
      ],
      [
        "லிப்பா",
        -9.461799945364334
      ],
      [
        "மின்ன",
        -9.46305381359472
      ],
      [
        "பெண்",
        -9.464157725121929
      ],
      [
        "வற",
        -9.464240687176751
      ],
      [
        "தாங்க",
        -9.46615344469648
      ],
      [
        "ண்ண",
        -9.466769941082262
      ],
      [
        "அணங்கு",
        -9.46735317507545
      ],
      [
        "மறந்து",
        -9.468147946345262
      ],
      [
        "பூண்ட",
        -9.46894833058338
      ],
      [
        "தம்மை",
        -9.469586317130451
      ],
      [
        "றிவ",
        -9.470107868862236
      ],
      [
        "வுறு",
        -9.470225049309702
      ],
      [
        "துணி",
        -9.470324651912197
      ],
      [
        "திருவ",
        -9.470559167159296
      ],
      [
        "கடவ",
        -9.472455102629835
      ],
      [
        "பலர",
        -9.473379210064593
      ],
      [
        "குறுக",
        -9.47375909634545
      ],
      [
        "ஒருவ",
        -9.474620875056331
      ],
      [
        "பழன",
        -9.475344384235234
      ],
      [
        "டுங்கோ",
        -9.476660600595348
      ],
      [
        "த்திற்கு",
        -9.477119444098989
      ],
      [
        "நட்ப",
        -9.479579876332698
      ],
      [
        "இறந்த",
        -9.479795643332553
      ],
      [
        "நெடுவே",
        -9.480309615779964
      ],
      [
        "எடுத்து",
        -9.4808206088207
      ],
      [
        "ினே",
        -9.481407280460791
      ],
      [
        "மால்வரை",
        -9.481467064447912
      ],
      [
        "சுரி",
        -9.4817928074634
      ],
      [
        "மள்ள",
        -9.482110255959606
      ],
      [
        "ப்போய்",
        -9.483546192352264
      ],
      [
        "தேவி",
        -9.483641273111754
      ],
      [
        "விரும்பி",
        -9.484381505093513
      ],
      [
        "நறுந்த",
        -9.485174868163735
      ],
      [
        "கோவூர்",
        -9.485258736010548
      ],
      [
        "தெரிந்தில",
        -9.48538131771273
      ],
      [
        "ஆட்சி",
        -9.485437527326642
      ],
      [
        "குருசில்",
        -9.48546879095835
      ],
      [
        "பழைய",
        -9.48561918208008
      ],
      [
        "நன்னாட்டு",
        -9.485800698369
      ],
      [
        "முந்நீர்",
        -9.486516494329146
      ],
      [
        "திறம்",
        -9.48707182242642
      ],
      [
        "ஈய",
        -9.487329585683316
      ],
      [
        "பசப்ப",
        -9.487488505920686
      ],
      [
        "நடந்த",
        -9.487501324669244
      ],
      [
        "எனவேட்",
        -9.487907231119648
      ],
      [
        "உறங்க",
        -9.488231931851717
      ],
      [
        "வெண்பா",
        -9.488344961937452
      ],
      [
        "கொடுமை",
        -9.488494399833968
      ],
      [
        "டும்",
        -9.488550290290206
      ],
      [
        "வைப்ப",
        -9.488814840704926
      ],
      [
        "நினைந்து",
        -9.489857518706698
      ],
      [
        "வெங்",
        -9.490116682112989
      ],
      [
        "பூவின்",
        -9.491116884421546
      ],
      [
        "ஆயர்",
        -9.491952165409671
      ],
      [
        "அழல்",
        -9.492094868615077
      ],
      [
        "போன்ற",
        -9.49213325685146
      ],
      [
        "விரைந்து",
        -9.492189501506337
      ],
      [
        "ழ்",
        -9.49234007857032
      ],
      [
        "அகன்",
        -9.492429484686664
      ],
      [
        "உணர்ந்து",
        -9.492983664633709
      ],
      [
        "பரிய",
        -9.493817701643286
      ],
      [
        "ேறு",
        -9.493978313240522
      ],
      [
        "வண்மை",
        -9.494084748505763
      ],
      [
        "காழ்",
        -9.494900941917818
      ],
      [
        "முதலிய",
        -9.495593420874252
      ],
      [
        "விடுத்த",
        -9.496608014032144
      ],
      [
        "நிலைய",
        -9.49666311777171
      ],
      [
        "பிரிய",
        -9.49744590502879
      ],
      [
        "பண்டு",
        -9.497765060313746
      ],
      [
        "குந்து",
        -9.49834725909366
      ],
      [
        "அறை",
        -9.498825873539966
      ],
      [
        "உறையும்",
        -9.499042257339658
      ],
      [
        "சுடு",
        -9.49909332882008
      ],
      [
        "குழல",
        -9.501287968333951
      ],
      [
        "பத",
        -9.502536352807653
      ],
      [
        "கெடு",
        -9.505079220818171
      ],
      [
        "றுத்து",
        -9.507177934892717
      ],
      [
        "வட்ட",
        -9.507275668453673
      ],
      [
        "றென்",
        -9.507370724550226
      ],
      [
        "நன்று",
        -9.50780706826253
      ],
      [
        "வானத்து",
        -9.508068803636894
      ],
      [
        "வேரி",
        -9.50828981413017
      ],
      [
        "அடியார்",
        -9.50853505140867
      ],
      [
        "திருக்",
        -9.50884830274606
      ],
      [
        "கறி",
        -9.50956598369856
      ],
      [
        "54",
        -9.509941244946088
      ],
      [
        "கவி",
        -9.51038049521583
      ],
      [
        "வீட",
        -9.510803721252314
      ],
      [
        "நிறைந்த",
        -9.5116178406732
      ],
      [
        "வரவு",
        -9.51166140879441
      ],
      [
        "ணம்",
        -9.512290332990151
      ],
      [
        "கொடுங்",
        -9.512793719665256
      ],
      [
        "மணந்த",
        -9.51368507635132
      ],
      [
        "வாழு",
        -9.514188593323317
      ],
      [
        "பரிசிலர்",
        -9.514327957214292
      ],
      [
        "யாமை",
        -9.514839088562056
      ],
      [
        "பிறர்க்கு",
        -9.514848625358638
      ],
      [
        "பின்ன",
        -9.515705378349317
      ],
      [
        "னையே",
        -9.515707366729156
      ],
      [
        "பல்ல",
        -9.51670518685162
      ],
      [
        "இரும்",
        -9.51715288009893
      ],
      [
        "ப்பார்",
        -9.518535254913624
      ],
      [
        "இரவி",
        -9.519121138479411
      ],
      [
        "விளைந்த",
        -9.519346976549276
      ],
      [
        "ட்டும்",
        -9.519548241630668
      ],
      [
        "சேய",
        -9.520272984297174
      ],
      [
        "புல்",
        -9.520915742315957
      ],
      [
        "மடி",
        -9.521461063088946
      ],
      [
        "ஏறு",
        -9.522010286742857
      ],
      [
        "இச்",
        -9.522629131559246
      ],
      [
        "காண்ப",
        -9.523731521003045
      ],
      [
        "எம்ம",
        -9.52381046726317
      ],
      [
        "வாரி",
        -9.52388104438974
      ],
      [
        "ிறை",
        -9.524826071276133
      ],
      [
        "கடைக்",
        -9.525132045488627
      ],
      [
        "உண்ணா",
        -9.525814327573585
      ],
      [
        "யில",
        -9.52642495946049
      ],
      [
        "எழுந்து",
        -9.526632687474809
      ],
      [
        "ஆள்",
        -9.526810416133994
      ],
      [
        "மலர்க்",
        -9.526927245348894
      ],
      [
        "பிரிவ",
        -9.527220745767876
      ],
      [
        "மீள",
        -9.528092047348078
      ],
      [
        "முகத்து",
        -9.528484810438318
      ],
      [
        "ருந்",
        -9.5286085968218
      ],
      [
        "விழி",
        -9.528708258133864
      ],
      [
        "இருப்ப",
        -9.52871955434748
      ],
      [
        "குமர",
        -9.52879272690691
      ],
      [
        "அல்",
        -9.528801084665234
      ],
      [
        "சித்த",
        -9.529078694992338
      ],
      [
        "தேரே",
        -9.530035278835356
      ],
      [
        "குன்றம்",
        -9.530583480538905
      ],
      [
        "இறுத்த",
        -9.531338576610011
      ],
      [
        "நூ",
        -9.531391150630052
      ],
      [
        "முடைய",
        -9.531863177690024
      ],
      [
        "யாம",
        -9.532295941208009
      ],
      [
        "கண்ணா",
        -9.533057491169991
      ],
      [
        "ோட",
        -9.533275132557849
      ],
      [
        "ென்னும்",
        -9.535022133748758
      ],
      [
        "வழங்கு",
        -9.536103608140122
      ],
      [
        "வலம்",
        -9.53771013474163
      ],
      [
        "சேவடி",
        -9.537718648117352
      ],
      [
        "சம",
        -9.538115507343376
      ],
      [
        "மடை",
        -9.538802231681634
      ],
      [
        "சுற்ற",
        -9.5392270481516
      ],
      [
        "இளைய",
        -9.539504079913158
      ],
      [
        "னானே",
        -9.54002965505616
      ],
      [
        "பொருளே",
        -9.54125869141284
      ],
      [
        "நினைக்க",
        -9.542137530995376
      ],
      [
        "இன்மையி",
        -9.54221718552926
      ],
      [
        "தூங்கு",
        -9.542271724384513
      ],
      [
        "அணிய",
        -9.542686478163702
      ],
      [
        "யாயே",
        -9.542964326607947
      ],
      [
        "ஒன்றி",
        -9.543942550890684
      ],
      [
        "சுண்ணம",
        -9.544225665988836
      ],
      [
        "மறக்க",
        -9.54700681777844
      ],
      [
        "வெண்ணெ",
        -9.547375761069294
      ],
      [
        "உத்தரகோச",
        -9.547736507582854
      ],
      [
        "பறந்தலை",
        -9.547746069416826
      ],
      [
        "பீலி",
        -9.547751659986798
      ],
      [
        "கரைய",
        -9.5477701534184
      ],
      [
        "உணர்ச்சி",
        -9.547905359090318
      ],
      [
        "புண்ணிய",
        -9.547969662848448
      ],
      [
        "ங்களை",
        -9.547975504978044
      ],
      [
        "ஊழ்",
        -9.548468650657306
      ],
      [
        "இருங்கழி",
        -9.548590071162485
      ],
      [
        "சோணமலை",
        -9.548598981669992
      ],
      [
        "வல்லாண்",
        -9.5487446247617
      ],
      [
        "உன்ன",
        -9.54874957342644
      ],
      [
        "வாய்ப்",
        -9.548983505617194
      ],
      [
        "களம்",
        -9.549041290657485
      ],
      [
        "கட்சி",
        -9.54910483046711
      ],
      [
        "வீங்கு",
        -9.549120921447116
      ],
      [
        "க்குஞ்",
        -9.549492429036455
      ],
      [
        "ஆனந்த",
        -9.549813087798976
      ],
      [
        "வேர்",
        -9.550471136294036
      ],
      [
        "அதற்கு",
        -9.550644076104346
      ],
      [
        "புலம்பு",
        -9.550952222772755
      ],
      [
        "ன்றி",
        -9.551192690651057
      ],
      [
        "முற்று",
        -9.55150140006583
      ],
      [
        "பறவை",
        -9.55236424513808
      ],
      [
        "பூசல்",
        -9.553128144104027
      ],
      [
        "கோட்டம்",
        -9.55327919270522
      ],
      [
        "பெண்டிர்",
        -9.553730134587289
      ],
      [
        "சிறுவெண்",
        -9.55380343893102
      ],
      [
        "மனைவி",
        -9.554059708216458
      ],
      [
        "கற்பின்",
        -9.5542853956904
      ],
      [
        "உய்",
        -9.55451124554924
      ],
      [
        "கண்ணீர்",
        -9.55471627194701
      ],
      [
        "பொருது",
        -9.554863155585595
      ],
      [
        "ென்ன",
        -9.55585203933118
      ],
      [
        "அந்தி",
        -9.556268894077974
      ],
      [
        "செங்க",
        -9.55721442335734
      ],
      [
        "பெறின",
        -9.55731300848241
      ],
      [
        "அட்ட",
        -9.55789121981278
      ],
      [
        "தங்க",
        -9.55919744626334
      ],
      [
        "ங்கா",
        -9.559665411635097
      ],
      [
        "புறங்",
        -9.55988041958991
      ],
      [
        "ஆகும்",
        -9.55988803260952
      ],
      [
        "பகல்",
        -9.560296925051226
      ],
      [
        "உரிய",
        -9.560961601235968
      ],
      [
        "அணை",
        -9.561014956729116
      ],
      [
        "குழல்வார",
        -9.561209965960144
      ],
      [
        "தோய்",
        -9.561340075740176
      ],
      [
        "சேவல",
        -9.561414533153968
      ],
      [
        "வாழ்வ",
        -9.562072782024384
      ],
      [
        "ஞர்",
        -9.562886527038902
      ],
      [
        "மெல்லிய",
        -9.563151467894448
      ],
      [
        "விதி",
        -9.563379087462696
      ],
      [
        "வினவ",
        -9.56340493780854
      ],
      [
        "83",
        -9.564077294991542
      ],
      [
        "சேறு",
        -9.565378805952506
      ],
      [
        "நம்ப",
        -9.56636712871456
      ],
      [
        "சிறந்து",
        -9.56651509843194
      ],
      [
        "73",
        -9.566770338748118
      ],
      [
        "ிலா",
        -9.56699523391406
      ],
      [
        "வரூஉ",
        -9.567061481630438
      ],
      [
        "இர",
        -9.568076764119123
      ],
      [
        "வேய்",
        -9.568349651477943
      ],
      [
        "முந்",
        -9.569170794223874
      ],
      [
        "தொடங்",
        -9.569263606179316
      ],
      [
        "இனம்",
        -9.569920022856056
      ],
      [
        "ோர்க்கு",
        -9.570850299627148
      ],
      [
        "சாரல",
        -9.5712839178918
      ],
      [
        "மாக்",
        -9.57140760591292
      ],
      [
        "மருங்கி",
        -9.571722742620867
      ],
      [
        "நாதன",
        -9.572056286443694
      ],
      [
        "பார்த்த",
        -9.574204288162962
      ],
      [
        "போதும்",
        -9.574390104688296
      ],
      [
        "னீ",
        -9.574597233502844
      ],
      [
        "63",
        -9.574827730197777
      ],
      [
        "ாற்போல்",
        -9.575969232584653
      ],
      [
        "கொழுங்க",
        -9.576099670395829
      ],
      [
        "அல்லர்",
        -9.576771305523843
      ],
      [
        "இயன்",
        -9.577087271963242
      ],
      [
        "ிருக்கும்",
        -9.57751412326068
      ],
      [
        "கவர்",
        -9.57795381487572
      ],
      [
        "மாட்ட",
        -9.578179835248866
      ],
      [
        "ச்சென்று",
        -9.578229532253076
      ],
      [
        "பார்த்து",
        -9.578788368757523
      ],
      [
        "கோலம்",
        -9.579144126270505
      ],
      [
        "அரவு",
        -9.5791864036564
      ],
      [
        "நன்னுதல",
        -9.579416946834696
      ],
      [
        "உயிர",
        -9.579504752899933
      ],
      [
        "யீர்",
        -9.57979199550483
      ],
      [
        "ஃ",
        -9.580556703866629
      ],
      [
        "விருந்து",
        -9.581231483016746
      ],
      [
        "புறத்",
        -9.581403171489452
      ],
      [
        "யாள",
        -9.58173591065485
      ],
      [
        "பலி",
        -9.58317034185652
      ],
      [
        "ஆகு",
        -9.5840643309205
      ],
      [
        "குறுமக",
        -9.584109064161668
      ],
      [
        "பகைவர்",
        -9.58468051744478
      ],
      [
        "புலர்ந்த",
        -9.584932736810048
      ],
      [
        "நாண்",
        -9.585082398918216
      ],
      [
        "ழித்த",
        -9.586061974009398
      ],
      [
        "யிர்",
        -9.586875869597463
      ],
      [
        "பைய",
        -9.58711632450688
      ],
      [
        "ஒத்த",
        -9.58714465132794
      ],
      [
        "ப்போ",
        -9.58738878902016
      ],
      [
        "விழவ",
        -9.587798089883927
      ],
      [
        "ல்ல",
        -9.588039024389014
      ],
      [
        "கறங்க",
        -9.588073771076694
      ],
      [
        "எழுதி",
        -9.58836612206785
      ],
      [
        "விளங்கும்",
        -9.589034348895323
      ],
      [
        "பூஞ்",
        -9.589037054800476
      ],
      [
        "பண்",
        -9.589342241503024
      ],
      [
        "பாய்ந்த",
        -9.589763652572517
      ],
      [
        "மாமலர்",
        -9.591839869759005
      ],
      [
        "பூந்",
        -9.591924086586582
      ],
      [
        "முகத்த",
        -9.592181074980228
      ],
      [
        "கையும்",
        -9.592216446729406
      ],
      [
        "கண்டோ",
        -9.592367787457416
      ],
      [
        "லைப்",
        -9.59329031016222
      ],
      [
        "கொட்ட",
        -9.59374449576547
      ],
      [
        "ிற",
        -9.594451147341715
      ],
      [
        "குருகின",
        -9.59535775554026
      ],
      [
        "வையா",
        -9.595516144877518
      ],
      [
        "இரண்ட",
        -9.596970548710736
      ],
      [
        "புறவி",
        -9.597005162481164
      ],
      [
        "கின்றது",
        -9.597221571854163
      ],
      [
        "க்குத்",
        -9.597535315175024
      ],
      [
        "எனை",
        -9.599611363344842
      ],
      [
        "தம",
        -9.59965766733003
      ],
      [
        "வளவ",
        -9.600033557400996
      ],
      [
        "சர",
        -9.600140494228604
      ],
      [
        "எழ",
        -9.600252540613573
      ],
      [
        "வேந்த",
        -9.601042401923568
      ],
      [
        "ற்றி",
        -9.601767211896751
      ],
      [
        "நீர்ப்",
        -9.60292179522782
      ],
      [
        "னின்",
        -9.60323085594094
      ],
      [
        "கொண்டான்",
        -9.603675728922546
      ],
      [
        "ப்பே",
        -9.604906241892484
      ],
      [
        "கின்றான்",
        -9.605188603562084
      ],
      [
        "னென்று",
        -9.605203613545198
      ],
      [
        "செவ்",
        -9.605430757138611
      ],
      [
        "லைச்",
        -9.606110377257773
      ],
      [
        "அலை",
        -9.60658634349386
      ],
      [
        "தாழை",
        -9.6067326596426
      ],
      [
        "இக்",
        -9.607494428179756
      ],
      [
        "பண்பி",
        -9.607549992185024
      ],
      [
        "மெ",
        -9.607748789749229
      ],
      [
        "னெம்",
        -9.607831974760728
      ],
      [
        "செவ்வாய்",
        -9.607955213509609
      ],
      [
        "பகுதி",
        -9.60809133646206
      ],
      [
        "பொருந்தி",
        -9.60857865914272
      ],
      [
        "வாய்ச்",
        -9.608930636294543
      ],
      [
        "நுடங்க",
        -9.609352633725845
      ],
      [
        "கடந்து",
        -9.609771602939473
      ],
      [
        "நீங்கி",
        -9.610239005067031
      ],
      [
        "திருச்ச",
        -9.610253614515738
      ],
      [
        "தெரி",
        -9.610296739836024
      ],
      [
        "மார்பு",
        -9.610375969918564
      ],
      [
        "பயில்",
        -9.610702048142851
      ],
      [
        "ெங்கள்",
        -9.610710456911052
      ],
      [
        "ஸ்ரீ",
        -9.61126847506434
      ],
      [
        "வளைய",
        -9.611470493253517
      ],
      [
        "புரிந்த",
        -9.611828480487464
      ],
      [
        "ூழ்",
        -9.612588576123482
      ],
      [
        "வில்லி",
        -9.61264416641369
      ],
      [
        "ன்றன்",
        -9.613377537433877
      ],
      [
        "பேக",
        -9.613838943088568
      ],
      [
        "஡",
        -9.61440703537111
      ],
      [
        "கரந்தை",
        -9.61442361847005
      ],
      [
        "அளவை",
        -9.614427773216278
      ],
      [
        "சொற்",
        -9.614449725572133
      ],
      [
        "உவப்ப",
        -9.614471309313066
      ],
      [
        "பிச்சை",
        -9.614474830854856
      ],
      [
        "அண்ண",
        -9.614663597545556
      ],
      [
        "கோவர்த்தன",
        -9.614690334035483
      ],
      [
        "மயிர்",
        -9.614730811482566
      ],
      [
        "மெய்ம்மை",
        -9.6150600422474
      ],
      [
        "ஒன்னார்",
        -9.61515609877988
      ],
      [
        "கிளவி",
        -9.61528879780392
      ],
      [
        "வெற்றி",
        -9.61533073067972
      ],
      [
        "நடுங்க",
        -9.615519947581848
      ],
      [
        "ஒளித்த",
        -9.615537772005789
      ],
      [
        "ற்றே",
        -9.6155547471364
      ],
      [
        "சந்த",
        -9.615677685404563
      ],
      [
        "நகரு",
        -9.615849455367744
      ],
      [
        "சான்றோர்",
        -9.615901936408653
      ],
      [
        "துறுக",
        -9.616026880467738
      ],
      [
        "கவும்",
        -9.61616517151019
      ],
      [
        "தேறி",
        -9.616165255232026
      ],
      [
        "நாத",
        -9.61647411845705
      ],
      [
        "செறிந்த",
        -9.616580593829063
      ],
      [
        "க்குரல்",
        -9.616599506946962
      ],
      [
        "கோயில",
        -9.61704527087829
      ],
      [
        "கூட்ட",
        -9.617169576997544
      ],
      [
        "கிழான்",
        -9.617580440035711
      ],
      [
        "ஒளிறு",
        -9.617867827891509
      ],
      [
        "தொண்டி",
        -9.617999758215117
      ],
      [
        "மண்டில",
        -9.618054761053298
      ],
      [
        "எமக்கே",
        -9.618285614944911
      ],
      [
        "யுடைய",
        -9.618500812479132
      ],
      [
        "க்கோட்",
        -9.618622094784987
      ],
      [
        "பேசு",
        -9.618702087606936
      ],
      [
        "அருந்த",
        -9.618728812317134
      ],
      [
        "வரைப்பின்",
        -9.619014416301868
      ],
      [
        "சிறுகுடி",
        -9.619372119606773
      ],
      [
        "திருவின்",
        -9.61968411348212
      ],
      [
        "கிடக்கை",
        -9.61978403301264
      ],
      [
        "நய",
        -9.619812446450638
      ],
      [
        "வரையில்",
        -9.621721536092997
      ],
      [
        "முளை",
        -9.621744999866308
      ],
      [
        "தமர்",
        -9.622340082024149
      ],
      [
        "புதல்வ",
        -9.62238290796614
      ],
      [
        "அம்ப",
        -9.62242999878347
      ],
      [
        "நாவி",
        -9.623005351522332
      ],
      [
        "ழும்",
        -9.623747748448428
      ],
      [
        "இருந்தால்",
        -9.62404737149468
      ],
      [
        "சூட்டி",
        -9.624499994657024
      ],
      [
        "பிறகு",
        -9.62453434334063
      ],
      [
        "மறுகி",
        -9.624960551871991
      ],
      [
        "மாமழை",
        -9.625161140721817
      ],
      [
        "ுற்று",
        -9.625179329354031
      ],
      [
        "ாரே",
        -9.62549328141618
      ],
      [
        "லாத",
        -9.625580419091287
      ],
      [
        "சோண",
        -9.625989788149624
      ],
      [
        "இரங்கும்",
        -9.62630341737452
      ],
      [
        "மழ",
        -9.626876972250598
      ],
      [
        "மந்திர",
        -9.626915210208956
      ],
      [
        "யாக்கை",
        -9.62723025706473
      ],
      [
        "பின்னை",
        -9.62912170310941
      ],
      [
        "அடைந்த",
        -9.630540509098312
      ],
      [
        "வின",
        -9.630909656905002
      ],
      [
        "சூடு",
        -9.631126713747138
      ],
      [
        "கோவலர்",
        -9.631872253814226
      ],
      [
        "தெய்வம்",
        -9.632400783523993
      ],
      [
        "வரைய",
        -9.632871423800978
      ],
      [
        "கெ",
        -9.63316000722974
      ],
      [
        "93",
        -9.633707999696115
      ],
      [
        "கிழவன்",
        -9.633853068899963
      ],
      [
        "ஈர",
        -9.634077709650995
      ],
      [
        "தொண்டு",
        -9.63451370028411
      ],
      [
        "கடமை",
        -9.635522237531283
      ],
      [
        "ொறும்",
        -9.635809099697276
      ],
      [
        "மருக",
        -9.63620559166269
      ],
      [
        "ஐயா",
        -9.63773752468395
      ],
      [
        "உய்ய",
        -9.637835534053757
      ],
      [
        "நான்கு",
        -9.638670203128822
      ],
      [
        "பெருந்த",
        -9.639417552947457
      ],
      [
        "பகடு",
        -9.639826161151689
      ],
      [
        "அல்லன்",
        -9.639914433672892
      ],
      [
        "பூம்",
        -9.641197292030114
      ],
      [
        "வீதிய",
        -9.641403227955507
      ],
      [
        "வேழ",
        -9.643754797560764
      ],
      [
        "தமயந்திய",
        -9.64450867645436
      ],
      [
        "முனிவர்",
        -9.644587127248869
      ],
      [
        "யுற",
        -9.644741704940088
      ],
      [
        "மேவி",
        -9.644993849778578
      ],
      [
        "பேடை",
        -9.64597230673454
      ],
      [
        "பங்க",
        -9.646401121053948
      ],
      [
        "கோடை",
        -9.646611186299111
      ],
      [
        "கழிந்த",
        -9.647194928494487
      ],
      [
        "கருத்து",
        -9.647760347529882
      ],
      [
        "பெ",
        -9.648171137264535
      ],
      [
        "நான்மறை",
        -9.648614071480122
      ],
      [
        "கலா",
        -9.648926812100036
      ],
      [
        "வற்",
        -9.64987669043819
      ],
      [
        "காட",
        -9.65015817082518
      ],
      [
        "சிலம்பு",
        -9.650237120065206
      ],
      [
        "அவி",
        -9.650541726795396
      ],
      [
        "யைத்",
        -9.65086523333859
      ],
      [
        "பாண்",
        -9.652340199534072
      ],
      [
        "லாள",
        -9.652720892407466
      ],
      [
        "அம்பு",
        -9.653136633981276
      ],
      [
        "ழிய",
        -9.65325240570638
      ],
      [
        "திணி",
        -9.653750540865053
      ],
      [
        "னந்த",
        -9.655050899097528
      ],
      [
        "படைத்த",
        -9.655436431487445
      ],
      [
        "வாக",
        -9.655599377963629
      ],
      [
        "செல்வர்",
        -9.65696829660475
      ],
      [
        "கல்வி",
        -9.657149446020936
      ],
      [
        "செத்த",
        -9.657529082330518
      ],
      [
        "மருந்த",
        -9.659243731967967
      ],
      [
        "அழக",
        -9.660758225637682
      ],
      [
        "புகு",
        -9.661012274456477
      ],
      [
        "என்கோ",
        -9.661263861384924
      ],
      [
        "இன்ப",
        -9.66159351072907
      ],
      [
        "சென்ம",
        -9.662834907553687
      ],
      [
        "னான்",
        -9.663513840492849
      ],
      [
        "நிமிர்",
        -9.663944170474522
      ],
      [
        "விளங்க",
        -9.666372256486596
      ],
      [
        "ரைக்",
        -9.668742942932854
      ],
      [
        "ஆல",
        -9.669154920896585
      ],
      [
        "தாமோதர",
        -9.669529768547465
      ],
      [
        "நீய",
        -9.670344340936229
      ],
      [
        "தான்வந்",
        -9.670959089476616
      ],
      [
        "தின்",
        -9.671672034151475
      ],
      [
        "சுட்டி",
        -9.67275530871169
      ],
      [
        "ியல்",
        -9.673122821119566
      ],
      [
        "காளை",
        -9.67323945894368
      ],
      [
        "க்குக்",
        -9.675422854457906
      ],
      [
        "வரையா",
        -9.67564659829843
      ],
      [
        "டிய",
        -9.67596211702936
      ],
      [
        "தேர்வேந்த",
        -9.67602553669604
      ],
      [
        "கருங்கா",
        -9.676584787776946
      ],
      [
        "செல்க",
        -9.676752870827652
      ],
      [
        "றந்த",
        -9.677011994328025
      ],
      [
        "மகிழ்ந்து",
        -9.67787012393602
      ],
      [
        "தொழு",
        -9.678162809833944
      ],
      [
        "ஒருங்க",
        -9.67846993039283
      ],
      [
        "ரைக்க",
        -9.679037898672412
      ],
      [
        "ிழி",
        -9.679383068047544
      ],
      [
        "புணை",
        -9.680352503710749
      ],
      [
        "புலன்",
        -9.680996457680564
      ],
      [
        "நுதல",
        -9.681335982791923
      ],
      [
        "காலே",
        -9.681509702152058
      ],
      [
        "சூழ்ந்த",
        -9.683199245179155
      ],
      [
        "வழங்க",
        -9.683428821713226
      ],
      [
        "புள்ளி",
        -9.68377000270721
      ],
      [
        "பேய",
        -9.684237314695054
      ],
      [
        "தடங்",
        -9.684815242214771
      ],
      [
        "உடம்ப",
        -9.68499238378946
      ],
      [
        "சென்றது",
        -9.68518036096124
      ],
      [
        "கூடல",
        -9.685541563454876
      ],
      [
        "அருங்",
        -9.685627761951997
      ],
      [
        "தில்ல",
        -9.685786898093877
      ],
      [
        "நனந்தலை",
        -9.685837999539604
      ],
      [
        "தண்ணுமை",
        -9.68585175125907
      ],
      [
        "----------",
        -9.68587748045952
      ],
      [
        "பொல்லா",
        -9.68588284740897
      ],
      [
        "புட்கரன",
        -9.68590355635455
      ],
      [
        "நண்ணு",
        -9.68595699565283
      ],
      [
        "வலம்புரி",
        -9.685971385216444
      ],
      [
        "அவர",
        -9.686087450135004
      ],
      [
        "அலங்கு",
        -9.686262287058208
      ],
      [
        "மருப்பின்",
        -9.686336109395835
      ],
      [
        "பவள",
        -9.686448684029507
      ],
      [
        "சிறாஅர்",
        -9.686562442671798
      ],
      [
        "னூர்",
        -9.686694178599735
      ],
      [
        "ஐ",
        -9.686834761771422
      ],
      [
        "மடமகள்",
        -9.686917982545996
      ],
      [
        "நன்கல",
        -9.687004432689688
      ],
      [
        "வென்வேல்",
        -9.687198196917112
      ],
      [
        "மறுமொழி",
        -9.687313956396329
      ],
      [
        "அமரர்",
        -9.687389016480696
      ],
      [
        "தொடர்",
        -9.687516936245787
      ],
      [
        "வல்வில்",
        -9.687551596543656
      ],
      [
        "ஆகுதல்",
        -9.688276404670106
      ],
      [
        "ுவது",
        -9.688583976932971
      ],
      [
        "கற்ப",
        -9.688974317502533
      ],
      [
        "பாம்பு",
        -9.689259524749785
      ],
      [
        "புதுவை",
        -9.68964471100946
      ],
      [
        "குப்பை",
        -9.689967223667402
      ],
      [
        "த்துத்",
        -9.690022666953794
      ],
      [
        "உடனே",
        -9.690541655493613
      ],
      [
        "கட்டுரை",
        -9.691043640957494
      ],
      [
        "அறவ",
        -9.691379098056847
      ],
      [
        "புருட",
        -9.691720591502836
      ],
      [
        "நுதி",
        -9.691762365207584
      ],
      [
        "வைப்பின்",
        -9.691805745624412
      ],
      [
        "ஏத",
        -9.692860642062302
      ],
      [
        "பருவம்",
        -9.693026849224903
      ],
      [
        "கழிய",
        -9.69310970543353
      ],
      [
        "ரன்ன",
        -9.69311072688024
      ],
      [
        "அந்தர",
        -9.693664518049722
      ],
      [
        "செறுவி",
        -9.693681971594945
      ],
      [
        "கொண்டேன்",
        -9.693817031864024
      ],
      [
        "மிளை",
        -9.693931677918371
      ],
      [
        "களிற",
        -9.694058926646848
      ],
      [
        "அடியேன்",
        -9.694633912218723
      ],
      [
        "மகனே",
        -9.695190132372758
      ],
      [
        "குறவர்",
        -9.69520519029934
      ],
      [
        "திரள்",
        -9.695487362555872
      ],
      [
        "மீது",
        -9.695767698232364
      ],
      [
        "க்குப்",
        -9.696068030278642
      ],
      [
        "அரை",
        -9.696143106680871
      ],
      [
        "மதிய",
        -9.696366929961243
      ],
      [
        "கதவ",
        -9.696451421883932
      ],
      [
        "வேண்டியது",
        -9.696586820953623
      ],
      [
        "பல்லாண்டு",
        -9.69698063214036
      ],
      [
        "இரை",
        -9.69727977274414
      ],
      [
        "கோவலன்",
        -9.697444937739846
      ],
      [
        "72",
        -9.698124589418098
      ],
      [
        "உழந்த",
        -9.698469981537777
      ],
      [
        "அகவ",
        -9.698609127565025
      ],
      [
        "தூற்ற",
        -9.698640202116
      ],
      [
        "புணரி",
        -9.6995210084512
      ],
      [
        "செந்நெல",
        -9.69961224823288
      ],
      [
        "சித்தம்",
        -9.699961105545968
      ],
      [
        "மணற்",
        -9.699970812600125
      ],
      [
        "தோன்று",
        -9.700968494898836
      ],
      [
        "விருப்ப",
        -9.7011250458012
      ],
      [
        "கழல",
        -9.70140971010539
      ],
      [
        "அளை",
        -9.70190022425614
      ],
      [
        "சேர்ந்து",
        -9.702170661736195
      ],
      [
        "ம்நாம",
        -9.702341710818526
      ],
      [
        "ொன்று",
        -9.702580678714526
      ],
      [
        "களே",
        -9.703395027363612
      ],
      [
        "கேளா",
        -9.703822059846338
      ],
      [
        "லரே",
        -9.704615457118514
      ],
      [
        "தவற",
        -9.705247455646036
      ],
      [
        "சான்ற",
        -9.70546003552543
      ],
      [
        "முறி",
        -9.705869926514197
      ],
      [
        "பண்டை",
        -9.705911217135784
      ],
      [
        "ெறிந்த",
        -9.706202297900257
      ],
      [
        "வல்லே",
        -9.706920813197431
      ],
      [
        "தெளி",
        -9.707219084088546
      ],
      [
        "சோர்",
        -9.707456051641987
      ],
      [
        "விற்று",
        -9.708401110660786
      ],
      [
        "கொம்ப",
        -9.708529407070356
      ],
      [
        "ழல்",
        -9.708666218701254
      ],
      [
        "என்னையும்",
        -9.709225897728958
      ],
      [
        "உலகு",
        -9.709242600963728
      ],
      [
        "படாஅ",
        -9.709882007697946
      ],
      [
        "முனிவ",
        -9.710180692410487
      ],
      [
        "மயக்க",
        -9.71100522676074
      ],
      [
        "வளம்",
        -9.711194641079228
      ],
      [
        "ங்கொல்",
        -9.711312652164374
      ],
      [
        "வந்தென",
        -9.711670948230926
      ],
      [
        "கேழ",
        -9.711889966701625
      ],
      [
        "றுத்த",
        -9.71290196441458
      ],
      [
        "இருள",
        -9.71356389362813
      ],
      [
        "சய",
        -9.714967969669186
      ],
      [
        "மயங்கிய",
        -9.71506679050734
      ],
      [
        "செம்மை",
        -9.715118138971834
      ],
      [
        "ஆர்வ",
        -9.715118195198974
      ],
      [
        "கூந்தல",
        -9.715968264985491
      ],
      [
        "மண்ணி",
        -9.71601629522469
      ],
      [
        "காய",
        -9.716120884502562
      ],
      [
        "புல்லென்",
        -9.716272297903576
      ],
      [
        "அங்கை",
        -9.717663024046807
      ],
      [
        "தன்மைய",
        -9.718018049063808
      ],
      [
        "மடவர",
        -9.718199851697726
      ],
      [
        "ரத்தை",
        -9.718728933772612
      ],
      [
        "ாகிய",
        -9.719198744847551
      ],
      [
        "ஆடல",
        -9.720867677410292
      ],
      [
        "அட",
        -9.721589300972
      ],
      [
        "தோடு",
        -9.722277860460924
      ],
      [
        "யாற்று",
        -9.722713765761675
      ],
      [
        "முருக",
        -9.722755085460854
      ],
      [
        "சிங்க",
        -9.722847461929597
      ],
      [
        "ினம்",
        -9.723035983986476
      ],
      [
        "ங்கிய",
        -9.723626725964412
      ],
      [
        "தாம",
        -9.72363526300074
      ],
      [
        "நன்மா",
        -9.724094853279874
      ],
      [
        "இயம்ப",
        -9.724338838783744
      ],
      [
        "ியரோ",
        -9.72445660280855
      ],
      [
        "ெய்தி",
        -9.724617418736724
      ],
      [
        "82",
        -9.724856805654042
      ],
      [
        "கதி",
        -9.724890848658356
      ],
      [
        "சங்கம்",
        -9.725205204495932
      ],
      [
        "தயிர்",
        -9.725527124815518
      ],
      [
        "வேட்டுவ",
        -9.725665151922096
      ],
      [
        "மையே",
        -9.725770270695705
      ],
      [
        "குளிர்",
        -9.725858738139188
      ],
      [
        "வயிறு",
        -9.72680198413169
      ],
      [
        "ருஞ்",
        -9.727099938637576
      ],
      [
        "ஒழுக",
        -9.727918006565138
      ],
      [
        "அசை",
        -9.73027459988992
      ],
      [
        "உரவோ",
        -9.73038446312286
      ],
      [
        "ாக்",
        -9.73079672505546
      ],
      [
        "எம்மை",
        -9.73095394960536
      ],
      [
        "ரைத்த",
        -9.731049337781734
      ],
      [
        "முழங்கு",
        -9.731980216997876
      ],
      [
        "எங்க",
        -9.732062393830464
      ],
      [
        "யாத்த",
        -9.732084856456163
      ],
      [
        "படுத்து",
        -9.732816508039738
      ],
      [
        "மேம்",
        -9.733079566759342
      ],
      [
        "62",
        -9.733198341794424
      ],
      [
        "வேட்கை",
        -9.73361327329688
      ],
      [
        "81",
        -9.733988136931352
      ],
      [
        "னனே",
        -9.734295063469675
      ],
      [
        "சால",
        -9.73512522291714
      ],
      [
        "கோட்ட",
        -9.735751403871172
      ],
      [
        "உருக",
        -9.735928425121063
      ],
      [
        "குணம்",
        -9.736160073787389
      ],
      [
        "புகழ்ந்த",
        -9.73653417241972
      ],
      [
        "அல்லல்",
        -9.736897468815515
      ],
      [
        "ுயர்",
        -9.737943284893475
      ],
      [
        "நமக்கு",
        -9.739251847586717
      ],
      [
        "நிகர்",
        -9.739409114651702
      ],
      [
        "அடிய",
        -9.73957504008317
      ],
      [
        "வல்லன்",
        -9.73967050738488
      ],
      [
        "கடன்",
        -9.741170001037858
      ],
      [
        "பூக்",
        -9.741543649399278
      ],
      [
        "திருவடி",
        -9.74247504603068
      ],
      [
        "துஞ்சா",
        -9.742990459595129
      ],
      [
        "ஏன்",
        -9.743066834150964
      ],
      [
        "பல்லா",
        -9.743227262316475
      ],
      [
        "ாய",
        -9.743360503101073
      ],
      [
        "ற்க",
        -9.743376471554482
      ],
      [
        "தோட",
        -9.743639892933755
      ],
      [
        "படூஉ",
        -9.743751556491048
      ],
      [
        "61",
        -9.74391174648852
      ],
      [
        "பேச்சு",
        -9.744817590359997
      ],
      [
        "97",
        -9.745499171923504
      ],
      [
        "ஆதலி",
        -9.745973465065994
      ],
      [
        "பாவி",
        -9.746006910400274
      ],
      [
        "லோர",
        -9.746366273836315
      ],
      [
        "எத்தனை",
        -9.746434327351237
      ],
      [
        "கண்டது",
        -9.746618859619163
      ],
      [
        "ஒருவர்",
        -9.747136989150633
      ],
      [
        "னுடைய",
        -9.747348764476168
      ],
      [
        "முழவ",
        -9.747651416541052
      ],
      [
        "நெடும்",
        -9.748387248591504
      ],
      [
        "ஒருங்கு",
        -9.74880478014624
      ],
      [
        "ினி",
        -9.749689203343616
      ],
      [
        "கோவல",
        -9.75007537396178
      ],
      [
        "யூர்",
        -9.750817312392694
      ],
      [
        "யாழ",
        -9.752525888998528
      ],
      [
        "மறுத்த",
        -9.75269323640472
      ],
      [
        "வளர்ந்த",
        -9.753307802256035
      ],
      [
        "றிந்",
        -9.753695696082367
      ],
      [
        "வாய்த்த",
        -9.754231578610783
      ],
      [
        "நல",
        -9.754878100523127
      ],
      [
        "மரை",
        -9.755833683461784
      ],
      [
        "உள்ளத்து",
        -9.756903827786026
      ],
      [
        "அகன்ற",
        -9.756995038167044
      ],
      [
        "உன்னைப்",
        -9.757394281250647
      ],
      [
        "முன்ப",
        -9.75751056084998
      ],
      [
        "71",
        -9.757942737260633
      ],
      [
        "யின்ற",
        -9.75799904508146
      ],
      [
        "பிடித்த",
        -9.75825265215692
      ],
      [
        "களைப்",
        -9.758256501011054
      ],
      [
        "பிறிது",
        -9.758474787528794
      ],
      [
        "இத்",
        -9.75872670415913
      ],
      [
        "லொடு",
        -9.758848541734434
      ],
      [
        "53",
        -9.759130251739016
      ],
      [
        "அளித்த",
        -9.759445993203862
      ],
      [
        "போக்க",
        -9.759484177470643
      ],
      [
        "ழ்வார்",
        -9.759693963344446
      ],
      [
        "இமை",
        -9.760896520590853
      ],
      [
        "னுக்",
        -9.76122770393425
      ],
      [
        "குயில",
        -9.761412140349174
      ],
      [
        "சுயம்வர",
        -9.7614945341566
      ],
      [
        "வழிப்",
        -9.761606785280785
      ],
      [
        "ஒன்றும்",
        -9.762008465184293
      ],
      [
        "ஷ",
        -9.762504099781784
      ],
      [
        "தேச",
        -9.762615082114731
      ],
      [
        "மேய்",
        -9.762661533426154
      ],
      [
        "a",
        -9.762740119498163
      ],
      [
        "திருக்கோட்டியூர்",
        -9.762758687998623
      ],
      [
        "தலையாலங்",
        -9.76275878936882
      ],
      [
        "அசோதை",
        -9.76275895850425
      ],
      [
        "இவ்வளவு",
        -9.762779061712436
      ],
      [
        "வாழ்நர்",
        -9.762814606793572
      ],
      [
        "ஏணிச்சேர",
        -9.762878947168506
      ],
      [
        "மடப்பிடி",
        -9.762921089990844
      ],
      [
        "கீர்த்தி",
        -9.763006328949851
      ],
      [
        "பைம்",
        -9.763009284157466
      ],
      [
        "நில்லா",
        -9.763040814820036
      ],
      [
        "எளிய",
        -9.763040827089345
      ],
      [
        "நரம்பி",
        -9.76305157884862
      ],
      [
        "க்கால்",
        -9.763316729400817
      ],
      [
        "யசோதை",
        -9.763336104985154
      ],
      [
        "ஞாயிற்று",
        -9.763351564725276
      ],
      [
        "பெடை",
        -9.763386261680433
      ],
      [
        "முகில்",
        -9.763779427976164
      ],
      [
        "ஒருசிறை",
        -9.764211342160593
      ],
      [
        "சாயல்",
        -9.76425771511322
      ],
      [
        "கடாநிலை",
        -9.764364733532313
      ],
      [
        "நன்னாக",
        -9.76448009961956
      ],
      [
        "இடைக்",
        -9.764633649971811
      ],
      [
        "தமிய",
        -9.76474321920512
      ],
      [
        "பெருந்தகை",
        -9.764812890871964
      ],
      [
        "திகழ",
        -9.764818397325714
      ],
      [
        "தன்னலம",
        -9.764976985044298
      ],
      [
        "உழு",
        -9.766064119933365
      ],
      [
        "அளவு",
        -9.766129297798344
      ],
      [
        "என்பதை",
        -9.766228943663773
      ],
      [
        "மாந்தி",
        -9.76636179537478
      ],
      [
        "வெஞ்",
        -9.76661811144389
      ],
      [
        "தீமை",
        -9.766769902375486
      ],
      [
        "செய்வினை",
        -9.766998970622572
      ],
      [
        "சிறுதினை",
        -9.767217899171454
      ],
      [
        "சுவை",
        -9.767510982588515
      ],
      [
        "இதை",
        -9.767837667875131
      ],
      [
        "பூம்பொழில்",
        -9.768152577728152
      ],
      [
        "றேன்",
        -9.768167352690448
      ],
      [
        "வாடு",
        -9.76852579420331
      ],
      [
        "தணிய",
        -9.768646598154016
      ],
      [
        "ார",
        -9.768890867532138
      ],
      [
        "ியர்",
        -9.76913254955776
      ],
      [
        "அருங்கல",
        -9.76993555059725
      ],
      [
        "புருவ",
        -9.769964880558254
      ],
      [
        "முண்ட",
        -9.770326064580768
      ],
      [
        "மின்னு",
        -9.770791437665697
      ],
      [
        "நிழல",
        -9.77086314644502
      ],
      [
        "குறுகிய",
        -9.771318723384296
      ],
      [
        "யாடு",
        -9.771609700632986
      ],
      [
        "வாடிய",
        -9.771682801437354
      ],
      [
        "நீராட",
        -9.772330413430282
      ],
      [
        "விலங்கு",
        -9.772523015459695
      ],
      [
        "துஞ்ச",
        -9.772747974513251
      ],
      [
        "பாழ்",
        -9.77298629559508
      ],
      [
        "பாய்ந்து",
        -9.773045436865404
      ],
      [
        "குருகு",
        -9.773066874616337
      ],
      [
        "செயல்",
        -9.773095068811266
      ],
      [
        "கமழ",
        -9.773296182315004
      ],
      [
        "ஓரி",
        -9.773409362193576
      ],
      [
        "வாதி",
        -9.773873421311038
      ],
      [
        "உணங்க",
        -9.774054747585613
      ],
      [
        "பசுங்",
        -9.774292108069233
      ],
      [
        "திப்பு",
        -9.77443116493962
      ],
      [
        "ஆக்க",
        -9.774453849127644
      ],
      [
        "ெம்",
        -9.77493161623612
      ],
      [
        "போழ்",
        -9.775360030936293
      ],
      [
        "துயின்ற",
        -9.775455156898865
      ],
      [
        "கொய்",
        -9.775715832274
      ],
      [
        "ஞாழ",
        -9.776648749904655
      ],
      [
        "வுடை",
        -9.77674653380367
      ],
      [
        "அரித",
        -9.776765888603483
      ],
      [
        "கலத்த",
        -9.776940757650538
      ],
      [
        "நீங்கா",
        -9.777011198520714
      ],
      [
        "ஏங்கி",
        -9.777163809320246
      ],
      [
        "பேய்",
        -9.777323655772587
      ],
      [
        "வல்வினை",
        -9.777386151187445
      ],
      [
        "நீண்ட",
        -9.778067469829484
      ],
      [
        "திரிதரு",
        -9.778491713715676
      ],
      [
        "கருங்க",
        -9.779209948843867
      ],
      [
        "தாமரைக்",
        -9.77965082377031
      ],
      [
        "92",
        -9.779807588702203
      ],
      [
        "மேவிய",
        -9.780013670659486
      ],
      [
        "மிடைந்த",
        -9.7800770747215
      ],
      [
        "பொழுதி",
        -9.780822274586404
      ],
      [
        "மொழிய",
        -9.78095565651357
      ],
      [
        "நானும்",
        -9.781746301621816
      ],
      [
        "பெறுக",
        -9.781803845918146
      ],
      [
        "நிற்கும்",
        -9.78203494190008
      ],
      [
        "காட்டிய",
        -9.782231617662314
      ],
      [
        "துண்ட",
        -9.78241014959734
      ],
      [
        "கேன்",
        -9.782987646638263
      ],
      [
        "துஞ்சும்",
        -9.783502410690314
      ],
      [
        "தென",
        -9.78389655488467
      ],
      [
        "றல்",
        -9.784134582466464
      ],
      [
        "நூற்",
        -9.78423433109499
      ],
      [
        "டையா",
        -9.78477763303829
      ],
      [
        "புலவு",
        -9.784904958391191
      ],
      [
        "தங்கு",
        -9.785351318127134
      ],
      [
        "தடம்",
        -9.785566984948131
      ],
      [
        "ேனே",
        -9.785617367545486
      ],
      [
        "குறிப்ப",
        -9.78616611470806
      ],
      [
        "வெள்ளம்",
        -9.786447354650608
      ],
      [
        "விரல்",
        -9.786975408159767
      ],
      [
        "ிர",
        -9.787593662426945
      ],
      [
        "அய",
        -9.78759449408903
      ],
      [
        "தாழ்ந்த",
        -9.78811837022167
      ],
      [
        "களையும்",
        -9.788968854259824
      ],
      [
        "களிற்று",
        -9.789110290189836
      ],
      [
        "கோட",
        -9.789165309529205
      ],
      [
        "52",
        -9.789729122417134
      ],
      [
        "தறி",
        -9.790135674815003
      ],
      [
        "ிரண்டு",
        -9.79088188257243
      ],
      [
        "சொல்லிய",
        -9.790922276511496
      ],
      [
        "ஆதன்",
        -9.791486411815278
      ],
      [
        "தீங்",
        -9.791776461276347
      ],
      [
        "பாடும்",
        -9.79229577876846
      ],
      [
        "நெல்ல",
        -9.792875684363224
      ],
      [
        "நறவ",
        -9.793178498613734
      ],
      [
        "டைத்",
        -9.793929209535156
      ],
      [
        "நோவ",
        -9.793935022339468
      ],
      [
        "கானக",
        -9.79423705074262
      ],
      [
        "தொண்ட",
        -9.794310331198226
      ],
      [
        "ுரு",
        -9.79560109931665
      ],
      [
        "ாலே",
        -9.79577039312668
      ],
      [
        "வேற",
        -9.796265290395915
      ],
      [
        "ெழுந்து",
        -9.796336848753318
      ],
      [
        "மணிக்",
        -9.7963665104636
      ],
      [
        "ஒழுகு",
        -9.796905377921192
      ],
      [
        "ரண",
        -9.79773628021556
      ],
      [
        "பத்த",
        -9.797949907930484
      ],
      [
        "கண்கள்",
        -9.798143318330618
      ],
      [
        "ஊத",
        -9.798911682263087
      ],
      [
        "தலைய",
        -9.799379294084892
      ],
      [
        "சாய்",
        -9.79995558729114
      ],
      [
        "நெ",
        -9.799995325210702
      ],
      [
        "உழை",
        -9.80040731911846
      ],
      [
        "பூண்டு",
        -9.800556350003946
      ],
      [
        "பிறழ",
        -9.801185293928595
      ],
      [
        "வரோ",
        -9.802376334296266
      ],
      [
        "வாய்க்",
        -9.802569677614416
      ],
      [
        "வந்தது",
        -9.802705587090683
      ],
      [
        "இற",
        -9.80292794961304
      ],
      [
        "முலைய",
        -9.803034559417252
      ],
      [
        "மையல்",
        -9.804267521123498
      ],
      [
        "ண்டேன்",
        -9.804302056801015
      ],
      [
        "ுண்டு",
        -9.804323768649738
      ],
      [
        "ின்றி",
        -9.804661258852134
      ],
      [
        "வற்கு",
        -9.8047263728374
      ],
      [
        "ொடி",
        -9.804861923790757
      ],
      [
        "காற்",
        -9.805300057936597
      ],
      [
        "வயிற்",
        -9.80566943641483
      ],
      [
        "வாயி",
        -9.806505102568291
      ],
      [
        "துஞ்சு",
        -9.807363361788244
      ],
      [
        "மனையோ",
        -9.807520387231843
      ],
      [
        "91",
        -9.808357907395118
      ],
      [
        "51",
        -9.80841380626577
      ],
      [
        "மன்னிய",
        -9.80854431230048
      ],
      [
        "படா",
        -9.808688512197802
      ],
      [
        "ராக",
        -9.809077438892189
      ],
      [
        "கவை",
        -9.81040187604466
      ],
      [
        "மைந்து",
        -9.810660726894744
      ],
      [
        "காத்த",
        -9.810875727012776
      ],
      [
        "மாமை",
        -9.811103005971518
      ],
      [
        "தங்",
        -9.811180521882305
      ],
      [
        "எள்ள",
        -9.811732916199574
      ],
      [
        "னென்னும்",
        -9.811816586196688
      ],
      [
        "விரைந்த",
        -9.811861208436827
      ],
      [
        "நரக",
        -9.812065307889084
      ],
      [
        "ரசு",
        -9.81266293192884
      ],
      [
        "கணவ",
        -9.813044490202866
      ],
      [
        "குறவ",
        -9.813136942338843
      ],
      [
        "நறு",
        -9.813224759550735
      ],
      [
        "பாங்க",
        -9.814282252899776
      ],
      [
        "ந்தனை",
        -9.814323780981542
      ],
      [
        "நீரும்",
        -9.814492310869053
      ],
      [
        "காட்டும்",
        -9.814602638937762
      ],
      [
        "நாட்டே",
        -9.814904816289884
      ],
      [
        "ிலாத",
        -9.814970506837232
      ],
      [
        "பொழிந்த",
        -9.81556164215643
      ],
      [
        "குமே",
        -9.816194766938256
      ],
      [
        "வனத்த",
        -9.816905977763684
      ],
      [
        "தன்ற",
        -9.818795368293944
      ],
      [
        "காண்குவ",
        -9.819501731009744
      ],
      [
        "தாங்கி",
        -9.819946103782431
      ],
      [
        "அப்",
        -9.821981897056368
      ],
      [
        "சிதை",
        -9.82315795084407
      ],
      [
        "இரவ",
        -9.82318133273581
      ],
      [
        "ர்ந்த",
        -9.8237155319953
      ],
      [
        "கண்டன",
        -9.823720570415237
      ],
      [
        "கீழ",
        -9.82390239257604
      ],
      [
        "லன்ன",
        -9.824420502758848
      ],
      [
        "வரக",
        -9.82493277214818
      ],
      [
        "பீடு",
        -9.825169823253054
      ],
      [
        "சொல்லு",
        -9.827184560735038
      ],
      [
        "அவனை",
        -9.827202347548257
      ],
      [
        "கஞ்ச",
        -9.827203374229214
      ],
      [
        "மிடை",
        -9.827421937770696
      ],
      [
        "ல்லால்",
        -9.82770359104486
      ],
      [
        "கொன்ற",
        -9.82823522146718
      ],
      [
        "நாட்டி",
        -9.828373321255905
      ],
      [
        "னரங்க",
        -9.828522573584484
      ],
      [
        "ஆரா",
        -9.828610378001333
      ],
      [
        "கருவி",
        -9.829458839124872
      ],
      [
        "மீன",
        -9.830010268425394
      ],
      [
        "ானைப்",
        -9.831513711227156
      ],
      [
        "ரவின்",
        -9.83239936265817
      ],
      [
        "போலே",
        -9.83253745423086
      ],
      [
        "உயவ",
        -9.832846557558856
      ],
      [
        "ண்ணம்",
        -9.833157323637591
      ],
      [
        "ரைப்",
        -9.83330836542731
      ],
      [
        "மாக்கி",
        -9.834053136737449
      ],
      [
        "கண்ணிய",
        -9.83415341494968
      ],
      [
        "வரல்",
        -9.834419341552485
      ],
      [
        "அவரை",
        -9.834806711488229
      ],
      [
        "பாடுநர்",
        -9.834866102243366
      ],
      [
        "ஞெகிழ",
        -9.835129331287067
      ],
      [
        "வல்லவர்",
        -9.835204573526724
      ],
      [
        "வறு",
        -9.835833988661406
      ],
      [
        "உரைச",
        -9.8360285964327
      ],
      [
        "ஆக்கி",
        -9.836211689406952
      ],
      [
        "பலம்",
        -9.837148287852838
      ],
      [
        "பொலம்",
        -9.83730548473364
      ],
      [
        "ராய்",
        -9.837766765141652
      ],
      [
        "டுத்த",
        -9.83858936562076
      ],
      [
        "ெடுத்த",
        -9.838778247388056
      ],
      [
        "கொளீஇ",
        -9.83936724822806
      ],
      [
        "முயல",
        -9.839493896564424
      ],
      [
        "காத்து",
        -9.839838950244564
      ],
      [
        "ஒளிய",
        -9.840335519428905
      ],
      [
        "பூப்ப",
        -9.840898271959617
      ],
      [
        "இன்மை",
        -9.841498564504452
      ],
      [
        "தெரிந்த",
        -9.841525750641168
      ],
      [
        "மடங்க",
        -9.841725064930522
      ],
      [
        "வகுத்த",
        -9.841878877838727
      ],
      [
        "தனக்கு",
        -9.842942704182596
      ],
      [
        "றியேன்",
        -9.843111989221995
      ],
      [
        "மருவி",
        -9.843360367094682
      ],
      [
        "உயர",
        -9.843360860368708
      ],
      [
        "சிந்தி",
        -9.843541243338294
      ],
      [
        "ஞாழல",
        -9.843651216793749
      ],
      [
        "ெழில்",
        -9.843813653958073
      ],
      [
        "ஆற்றா",
        -9.844179143123478
      ],
      [
        "போர",
        -9.84427004207492
      ],
      [
        "எழுதிய",
        -9.84465482945078
      ],
      [
        "இட்டு",
        -9.84476230098225
      ],
      [
        "ஞா",
        -9.845555390366656
      ],
      [
        "வழுதி",
        -9.845620528047354
      ],
      [
        "அமிழ்த",
        -9.846064616272798
      ],
      [
        "செங்கீரை",
        -9.846093932704855
      ],
      [
        "தோழீ",
        -9.8460939892177
      ],
      [
        "குரம்பை",
        -9.846102119688688
      ],
      [
        "அயோத்தி",
        -9.846104419387274
      ],
      [
        "சுந்தர",
        -9.846110323618683
      ],
      [
        "முருக்கி",
        -9.846146881289068
      ],
      [
        "இயற்கை",
        -9.846151791356268
      ],
      [
        "எழினி",
        -9.846226651500276
      ],
      [
        "யுய்",
        -9.846235427662178
      ],
      [
        "வெல்போர்",
        -9.846238836172711
      ],
      [
        "பையுள்",
        -9.84637922747804
      ],
      [
        "போரேறே",
        -9.84644739494431
      ],
      [
        "வாணிக",
        -9.84649071509755
      ],
      [
        "நெற்றி",
        -9.84650686257398
      ],
      [
        "தனிக்",
        -9.846967491147506
      ],
      [
        "நெடுநகர்",
        -9.847232419762998
      ],
      [
        "இன்னிசை",
        -9.847262679137945
      ],
      [
        "விழ",
        -9.847265808500438
      ],
      [
        "பருகி",
        -9.847343542183136
      ],
      [
        "நாயினேன்",
        -9.847725148869822
      ],
      [
        "நூறு",
        -9.84788472471516
      ],
      [
        "மருப்பு",
        -9.847961226926657
      ],
      [
        "பின்றை",
        -9.848109809936153
      ],
      [
        "னாட்டு",
        -9.848212220438397
      ],
      [
        "மொ",
        -9.848443914629666
      ],
      [
        "திருவள்ளுவர்",
        -9.848484564846762
      ],
      [
        "தொல்லை",
        -9.848811857273846
      ],
      [
        "வல்சி",
        -9.848978722037009
      ],
      [
        "கரும்பு",
        -9.84925686710166
      ],
      [
        "நாட்டை",
        -9.84979852044559
      ],
      [
        "ஆடவர்",
        -9.8501160359696
      ],
      [
        "வர்கள",
        -9.850185686350525
      ],
      [
        "மடல்",
        -9.85027258926346
      ],
      [
        "ஈசன்",
        -9.850358283864546
      ],
      [
        "நீந்தி",
        -9.85035884273256
      ],
      [
        "நாரணன்",
        -9.850818503152134
      ],
      [
        "முறுவல்",
        -9.851053798081749
      ],
      [
        "எழிலி",
        -9.851068820952772
      ],
      [
        "இரந்த",
        -9.851177343841432
      ],
      [
        "களைக்",
        -9.85131891756684
      ],
      [
        "வன்புல",
        -9.851463287312434
      ],
      [
        "இழிதரு",
        -9.851487454191918
      ],
      [
        "முடை",
        -9.851644018189752
      ],
      [
        "நிதி",
        -9.852373333034183
      ],
      [
        "எல்லே",
        -9.852587631417418
      ],
      [
        "பிறங்கு",
        -9.852791668664208
      ],
      [
        "அஞ்சுவன்",
        -9.852799943440312
      ],
      [
        "ஆயிரம்",
        -9.85297007733348
      ],
      [
        "புன்புல",
        -9.853088941871311
      ],
      [
        "ஒருகால்",
        -9.853590086411955
      ],
      [
        "அடுக்கத்து",
        -9.853730207571711
      ],
      [
        "வைத்தேன்",
        -9.85418622248875
      ],
      [
        "தொன்று",
        -9.854680993944088
      ],
      [
        "சின்ன",
        -9.854982680733103
      ],
      [
        "பண்பு",
        -9.85549378580446
      ],
      [
        "வருவ",
        -9.855505968979582
      ],
      [
        "விலை",
        -9.85568695582613
      ],
      [
        "ோங்கு",
        -9.855745053089503
      ],
      [
        "பிரிந்து",
        -9.855856373695456
      ],
      [
        "மீதே",
        -9.855987018116563
      ],
      [
        "கழ",
        -9.856017496260147
      ],
      [
        "யிற",
        -9.85605664091055
      ],
      [
        "ஏழ்",
        -9.85683834430816
      ],
      [
        "செலவு",
        -9.856974911424691
      ],
      [
        "வீசி",
        -9.8572906220838
      ],
      [
        "றும்",
        -9.857356877894272
      ],
      [
        "அமர",
        -9.85749959278447
      ],
      [
        "யாவரும்",
        -9.85762459633836
      ],
      [
        "ராயின",
        -9.858197994307805
      ],
      [
        "பெற்",
        -9.85820666192338
      ],
      [
        "அலமர",
        -9.858311685034078
      ],
      [
        "தளர",
        -9.858315344584664
      ],
      [
        "பங்கய",
        -9.858318913518575
      ],
      [
        "கஞ்சன்",
        -9.858433616294928
      ],
      [
        "அரும்பெற",
        -9.858676441161426
      ],
      [
        "மலிந்த",
        -9.86004949550006
      ],
      [
        "ஓதை",
        -9.860352476705822
      ],
      [
        "த்திறம்",
        -9.860882023437602
      ],
      [
        "வேழம்",
        -9.860984235701803
      ],
      [
        "டர்",
        -9.861185095640836
      ],
      [
        "மருள",
        -9.86234017901108
      ],
      [
        "கவின",
        -9.86237976666852
      ],
      [
        "வழக்",
        -9.862432740033835
      ],
      [
        "பொருட்",
        -9.863892433338126
      ],
      [
        "கொங்கு",
        -9.863958182717798
      ],
      [
        "கடுப்ப",
        -9.864033635889385
      ],
      [
        "குறுகி",
        -9.86412133083174
      ],
      [
        "நீழல",
        -9.864338684090868
      ],
      [
        "வன்ன",
        -9.864501865890889
      ],
      [
        "வருந்து",
        -9.864537592595331
      ],
      [
        "மாகாண",
        -9.86477295314484
      ],
      [
        "விடலை",
        -9.865396885545008
      ],
      [
        "தமிழரிட",
        -9.865611802176472
      ],
      [
        "எவ்வம்",
        -9.86561914256631
      ],
      [
        "திருவடிகள",
        -9.866028977364095
      ],
      [
        "விருந்தா",
        -9.866205407041209
      ],
      [
        "களுக்கு",
        -9.866327500138
      ],
      [
        "நிலைஇய",
        -9.866683196167472
      ],
      [
        "சந்திர",
        -9.86715677412531
      ],
      [
        "விக்",
        -9.86729205375872
      ],
      [
        "களிற்ற",
        -9.867492753920471
      ],
      [
        "தோகை",
        -9.867722557498666
      ],
      [
        "முடியாத",
        -9.86786115621208
      ],
      [
        "கருங்கை",
        -9.867973149231204
      ],
      [
        "தவழ",
        -9.868152342317568
      ],
      [
        "அழுத",
        -9.868712565109345
      ],
      [
        "ஓடி",
        -9.868791034569629
      ],
      [
        "இலங்கை",
        -9.868910887507212
      ],
      [
        "நோய",
        -9.869360377714475
      ],
      [
        "நாட்டின்",
        -9.869414628836337
      ],
      [
        "ுண்ணும்",
        -9.870401122245838
      ],
      [
        "யென்ற",
        -9.870741446974986
      ],
      [
        "ரோடு",
        -9.870810530898192
      ],
      [
        "யாமத்து",
        -9.870876030220948
      ],
      [
        "திருத்தி",
        -9.87131376305756
      ],
      [
        "கரும்",
        -9.871503067163989
      ],
      [
        "கோச",
        -9.871727627781834
      ],
      [
        "முத்தம்",
        -9.873333128484706
      ],
      [
        "ித்து",
        -9.874082123314029
      ],
      [
        "கொல்லி",
        -9.875093147347782
      ],
      [
        "நள",
        -9.87538711470704
      ],
      [
        "ும்போது",
        -9.87622035637058
      ],
      [
        "வல்லமை",
        -9.876715603524222
      ],
      [
        "ஞ்சேர்",
        -9.87733529594356
      ],
      [
        "நறும்",
        -9.877351658623008
      ],
      [
        "நாளை",
        -9.878028647270437
      ],
      [
        "ிசி",
        -9.878135572435042
      ],
      [
        "தொட",
        -9.87897490521064
      ],
      [
        "டனே",
        -9.880187187923331
      ],
      [
        "எங்கோ",
        -9.880406527503336
      ],
      [
        "கொழுந",
        -9.880518183981287
      ],
      [
        "விழவு",
        -9.88068583576864
      ],
      [
        "கழற்",
        -9.881240474726727
      ],
      [
        "ாங்கு",
        -9.8816432450156
      ],
      [
        "ஆவி",
        -9.882587684315968
      ],
      [
        "மின்றி",
        -9.883555717779192
      ],
      [
        "அமைந்த",
        -9.884285937317324
      ],
      [
        "புற்ற",
        -9.884577637364346
      ],
      [
        "ேனை",
        -9.885171292031773
      ],
      [
        "ஏக",
        -9.885433425240956
      ],
      [
        "மின்ப",
        -9.886658058856346
      ],
      [
        "மார்வ",
        -9.886893011971535
      ],
      [
        "ஆட்டி",
        -9.887796542680332
      ],
      [
        "தெருவ",
        -9.887802551362102
      ],
      [
        "வரைக்",
        -9.888237176323404
      ],
      [
        "காணி",
        -9.888356869912627
      ],
      [
        "மனைய",
        -9.889157757569112
      ],
      [
        "செங்கோல",
        -9.88967232668682
      ],
      [
        "புளி",
        -9.889951838337083
      ],
      [
        "ினோடு",
        -9.890297203365328
      ],
      [
        "செல்வா",
        -9.890663656555656
      ],
      [
        "தாட",
        -9.891312142086669
      ],
      [
        "சுணங்க",
        -9.891356188931404
      ],
      [
        "மதில்",
        -9.892045221895552
      ],
      [
        "வானோ",
        -9.892230981618969
      ],
      [
        "நெடிய",
        -9.89250838646944
      ],
      [
        "ராகி",
        -9.893189156683771
      ],
      [
        "ஏழ",
        -9.89344804362129
      ],
      [
        "புண்",
        -9.893723868166022
      ],
      [
        "எய்தின",
        -9.89388949330142
      ],
      [
        "வீச",
        -9.89455710973436
      ],
      [
        "கொடை",
        -9.894785960936115
      ],
      [
        "அவரோ",
        -9.895055803675165
      ],
      [
        "ளிர்ப்ப",
        -9.895223951972335
      ],
      [
        "அருளு",
        -9.896524160735378
      ],
      [
        "நறுங்",
        -9.89739523511348
      ],
      [
        "ுருகி",
        -9.89809050165388
      ],
      [
        "ினன்",
        -9.898437523860464
      ],
      [
        "ண்டோ",
        -9.89850927535228
      ],
      [
        "தூத",
        -9.899397630045309
      ],
      [
        "ளாய",
        -9.899484446749511
      ],
      [
        "முதலை",
        -9.900135771201947
      ],
      [
        "பறி",
        -9.900646155184717
      ],
      [
        "யும",
        -9.901818714889812
      ],
      [
        "விறலி",
        -9.902333867381204
      ],
      [
        "கடுங்",
        -9.90285072314804
      ],
      [
        "பணைய",
        -9.903641903240752
      ],
      [
        "கடவு",
        -9.904470367078792
      ],
      [
        "துன்னரு",
        -9.904806365560654
      ],
      [
        "யென்றா",
        -9.905668237577377
      ],
      [
        "யணி",
        -9.90569242512902
      ],
      [
        "தமிழரை",
        -9.905843113487414
      ],
      [
        "மருந்",
        -9.90606889303073
      ],
      [
        "தோர",
        -9.906129337497248
      ],
      [
        "தையல",
        -9.907027905450883
      ],
      [
        "ாகப்",
        -9.907672464900262
      ],
      [
        "துன்ன",
        -9.907916591486872
      ],
      [
        "லுற்ற",
        -9.90795163349156
      ],
      [
        "பொங்கு",
        -9.908717089717134
      ],
      [
        "அவர்கள",
        -9.908892501501274
      ],
      [
        "ளந்த",
        -9.909352419555
      ],
      [
        "கண்டே",
        -9.909458239188924
      ],
      [
        "வண்ணன்",
        -9.909495270746772
      ],
      [
        "பெண்ண",
        -9.910492518017662
      ],
      [
        "உனக்க",
        -9.910735702805798
      ],
      [
        "ழிசை",
        -9.911468877823978
      ],
      [
        "ினையே",
        -9.912418723861398
      ],
      [
        "வார்த்தை",
        -9.914671907159027
      ],
      [
        "தொழில",
        -9.914896016646068
      ],
      [
        "செத்து",
        -9.91533021789291
      ],
      [
        "பிடிக்க",
        -9.915838329872924
      ],
      [
        "அடைய",
        -9.91672809352422
      ],
      [
        "வியர்",
        -9.917331569153609
      ],
      [
        "ெங்கும்",
        -9.917613593195732
      ],
      [
        "மூவர்",
        -9.918185584437683
      ],
      [
        "பூவை",
        -9.91820492163492
      ],
      [
        "சிவந்த",
        -9.918709419181438
      ],
      [
        "செல்வன்",
        -9.918904108592995
      ],
      [
        "தூங்க",
        -9.919265172783494
      ],
      [
        "த்தோடு",
        -9.91988620974672
      ],
      [
        "இனை",
        -9.919933602624162
      ],
      [
        "வாழ்வு",
        -9.920453230712932
      ],
      [
        "சாவ",
        -9.921236265393931
      ],
      [
        "மாந்த",
        -9.921940120719022
      ],
      [
        "காது",
        -9.922411696153985
      ],
      [
        "புனல",
        -9.922429889640778
      ],
      [
        "புகர்",
        -9.922870686043405
      ],
      [
        "ப்பட்டு",
        -9.922915830480818
      ],
      [
        "மேக",
        -9.923251654568253
      ],
      [
        "தடி",
        -9.923504941221552
      ],
      [
        "மாஅ",
        -9.923825082496936
      ],
      [
        "மறைய",
        -9.92404415675236
      ],
      [
        "ரவே",
        -9.924105386033364
      ],
      [
        "தாரா",
        -9.924186639262643
      ],
      [
        "வென்றா",
        -9.925395883649973
      ],
      [
        "தண்புன",
        -9.92603872817585
      ],
      [
        "போகா",
        -9.926907443600884
      ],
      [
        "பொத்திய",
        -9.927125100029212
      ],
      [
        "அழுங்க",
        -9.927289308686644
      ],
      [
        "நாடன",
        -9.927324868645304
      ],
      [
        "நெஞ்சத்து",
        -9.927744844368084
      ],
      [
        "நார",
        -9.927754516012843
      ],
      [
        "பணிவ",
        -9.928487051471356
      ],
      [
        "ரவு",
        -9.928731505337534
      ],
      [
        "ரங்கமே",
        -9.92882471741121
      ],
      [
        "ரசன்",
        -9.929880620245806
      ],
      [
        "ுமாறு",
        -9.93051269895408
      ],
      [
        "ாண்ட",
        -9.931282152716287
      ],
      [
        "அலவ",
        -9.931544984073495
      ],
      [
        "ுமாய்",
        -9.932928850298982
      ],
      [
        "ுமே",
        -9.933025389018413
      ],
      [
        "கோட்",
        -9.933083056439049
      ],
      [
        "அரும்ப",
        -9.934656075266332
      ],
      [
        "ஏவ",
        -9.934912790014932
      ],
      [
        "நங்க",
        -9.934924109684632
      ],
      [
        "வடிவ",
        -9.93523429302383
      ],
      [
        "டல",
        -9.935260834180012
      ],
      [
        "க்கொடி",
        -9.935446756164543
      ],
      [
        "ட்டிய",
        -9.93570611588686
      ],
      [
        "ித்ர",
        -9.93599560640274
      ],
      [
        "ாற்றுப்",
        -9.936132804203128
      ],
      [
        "எப்படி",
        -9.9369270120471
      ],
      [
        "கழிநெடிலடி",
        -9.937000988821447
      ],
      [
        "c",
        -9.937001107965616
      ],
      [
        "”",
        -9.937001107965616
      ],
      [
        "ரவணைப்பள்ளியான",
        -9.937001109136457
      ],
      [
        "தெண்ணீர்",
        -9.937002704849512
      ],
      [
        "ணாசலத்தி",
        -9.937008681538668
      ],
      [
        "னும்கொற்றக்குடை",
        -9.937015545043913
      ],
      [
        "முரண்",
        -9.937022098332326
      ],
      [
        "மதுசூதன",
        -9.93704113981088
      ],
      [
        "இரும்பொறை",
        -9.93708809922453
      ],
      [
        "யெழுந்தரு",
        -9.93710850499463
      ],
      [
        "வெள்ளாங்",
        -9.937118116668463
      ],
      [
        "இன்னுயிர்",
        -9.937121459974447
      ],
      [
        "மெல்லியல",
        -9.93714128486021
      ],
      [
        "சேயிழை",
        -9.937150758299982
      ],
      [
        "பிரிக்க",
        -9.93718029052015
      ],
      [
        "மாங்குடி",
        -9.9371974289235
      ],
      [
        "ஒழிக்க",
        -9.937197754584844
      ],
      [
        "கருத",
        -9.937207850038538
      ],
      [
        "இருக்கிற",
        -9.937337967834855
      ],
      [
        "தடாரி",
        -9.937340971288773
      ],
      [
        "அள்ளூ",
        -9.9375203312537
      ],
      [
        "சார்ங்க",
        -9.937520983987277
      ],
      [
        "வெள்ளறை",
        -9.937585390687694
      ],
      [
        "தெய்யோ",
        -9.937607480305829
      ],
      [
        "குன்றத்து",
        -9.937633046534346
      ],
      [
        "வெண்ணெய்",
        -9.937698060121352
      ],
      [
        "இயல்தேர்",
        -9.93776609971662
      ],
      [
        "யிரும்",
        -9.937858978322048
      ],
      [
        "ஆய்ச்சி",
        -9.937869884339618
      ],
      [
        "செவிலி",
        -9.937925288342738
      ],
      [
        "வைகறை",
        -9.937956910665864
      ],
      [
        "வெண்மணல்",
        -9.938334718393572
      ],
      [
        "செங்கோ",
        -9.938365035454902
      ],
      [
        "த்தைப்",
        -9.93847414545295
      ],
      [
        "யெம்",
        -9.938538130186128
      ],
      [
        "சுவர்",
        -9.938591094390151
      ],
      [
        "மடுத்து",
        -9.93876168496586
      ],
      [
        "அம்மம்த",
        -9.938862969549804
      ],
      [
        "இப்படி",
        -9.938870815915733
      ],
      [
        "தீபந்",
        -9.939058875282504
      ],
      [
        "மழைக்கண்",
        -9.939137043877704
      ],
      [
        "குட்டுவன",
        -9.93915213991366
      ],
      [
        "போந்த",
        -9.939793078141536
      ],
      [
        "தளர்நடைநட",
        -9.940152683129368
      ],
      [
        "நடுவே",
        -9.940171646047368
      ],
      [
        "பெரும்பெயர்",
        -9.940405872058982
      ],
      [
        "யாடி",
        -9.940440154216107
      ],
      [
        "ுறழ்",
        -9.940723532553497
      ],
      [
        "விண்ணப்ப",
        -9.940853395278058
      ],
      [
        "நல்க",
        -9.94097957396636
      ],
      [
        "உரிமை",
        -9.94113620496119
      ],
      [
        "மூன்ற",
        -9.941472194689268
      ],
      [
        "தோறும்",
        -9.941948593813912
      ],
      [
        "புதல்வர்",
        -9.94210392473195
      ],
      [
        "கழுநீர்",
        -9.942255554199388
      ],
      [
        "கேடு",
        -9.94234273796804
      ],
      [
        "கலிங்க",
        -9.942715065235312
      ],
      [
        "மயிற்",
        -9.942763557009773
      ],
      [
        "ஊர்ந்த",
        -9.942840535300858
      ],
      [
        "நறுமலர்",
        -9.943195247834192
      ],
      [
        "க்கோன்",
        -9.943418440718872
      ],
      [
        "வைகல",
        -9.943937376
      ],
      [
        "வாழ்த்தியல",
        -9.943988657742905
      ],
      [
        "த்திரை",
        -9.944040219573164
      ],
      [
        "வெயில்",
        -9.944100351854184
      ],
      [
        "தேய",
[...]
